. 1
Ġthe 1
, 1
Ġto 1
Ġand 1
Ġof 1
Ġa 1
Ġin 1
- 1
Ġfor 1
Ġthat 1
Ġon 1
Ġis 1
âĢ 1
's 1
Ġwith 1
ĠThe 1
Ġwas 1
Ġ" 1
Ġat 1
Ġit 1
Ġas 1
Ġsaid 1
Ļ 1
Ġbe 1
s 1
Ġby 1
Ġfrom 1
Ġare 1
Ġhave 1
Ġhas 1
: 1
Ġ( 1
Ġhe 1
ĠI 1
Ġhis 1
Ġwill 1
Ġan 1
Ġthis 1
) 1
ĠâĢ 1
Ġnot 1
Ŀ 1
Ġyou 1
ľ 1
Ġtheir 1
Ġor 1
Ġthey 1
Ġwe 1
Ġbut 1
Ġwho 1
Ġmore 1
Ġhad 1
Ġbeen 1
Ġwere 1
Ġabout 1
," 1
Ġwhich 1
Ġup 1
Ġits 1
Ġcan 1
Ġone 1
Ġout 1
Ġalso 1
Ġ$ 1
Ġher 1
Ġall 1
Ġafter 1
." 1
/ 1
Ġwould 1
't 1
Ġyear 1
Ġwhen 1
Ġfirst 1
Ġshe 1
Ġtwo 1
Ġover 1
Ġpeople 1
ĠA 1
Ġour 1
ĠIt 1
Ġtime 1
Ġthan 1
Ġinto 1
Ġthere 1
t 1
ĠHe 1
Ġnew 1
ĠâĢĶ 1
Ġlast 1
Ġjust 1
ĠIn 1
Ġother 1
Ġso 1
Ġwhat 1
I 1
Ġlike 1
a 1
Ġsome 1
S 1
Ã« 1
Ġthem 1
Ġyears 1
' 1
Ġdo 1
Ġyour 1
Ġ- 1
Ġ1 1
" 1
Ġif 1
Ġcould 1
? 1
Ġno 1
i 1
m 1
Ġget 1
ĠU 1
Ġnow 1
Ġhim 1
Ġback 1
ĠBut 1
ĠâĢĵ 1
Ġmy 1
Ġ' 1
Ġonly 1
Ġthree 1
; 1
Ġ2 1
The 1
1 1
Ġpercent 1
Ġagainst 1
Ġbefore 1
Ġcompany 1
o 1
ĠTrump 1
Ġhow 1
Ġbecause 1
Ġany 1
Ġmost 1
Ġbeing 1
Ġmake 1
Ġwhere 1
Ġduring 1
Ġthrough 1
Ġwhile 1
000 1
ĠThis 1
Ġmillion 1
ing 1
Ġ3 1
Ġmade 1
Ġwell 1
Ġ10 1
Ġdown 1
Ġoff 1
Ġsays 1
Ġme 1
ĠB 1
Ġgoing 1
Ġteam 1
ĠWe 1
Ġthose 1
Ġgovernment 1
Ġway 1
We 1
Ġmany 1
Ġthen 1
Ġwork 1
Ġtold 1
com 1
2 1
Ġgame 1
ĠAnd 1
in 1
year 1
Ġp 1
Ġvery 1
Ġday 1
Ġhome 1
Ġtake 1
Ġweek 1
Ġsince 1
ĠNew 1
Ġmay 1
Ġeven 1
Ġseason 1
Ġsee 1
Ġ2017 1
Ġstate 1
Ġ5 1
ed 1
Ġshould 1
Ġaround 1
Ġ2018 1
Ġsecond 1
Ġus 1
Ġstill 1
Ġmuch 1
Ġ4 1
Ġgood 1
Ġthink 1
% 1
ĠS 1
Ġthese 1
Ġmarket 1
ĠD 1
th 1
Ġgo 1
're 1
Ġsuch 1
Ġknow 1
Ġincluding 1
Ġdon 1
y 1
Ġnext 1
ĠP 1
Ġdid 1
Ġunder 1
Ġsay 1
en 1
ĠL 1
Ġbetween 1
Ġper 1
ĠK 1
ĠC 1
Ġ6 1
Ġworld 1
Ġpart 1
ĠN 1
Ġright 1
Ġwant 1
Ġfour 1
), 1
Ġhigh 1
Ġneed 1
re 1
e 1
It 1
Ġhelp 1
5 1
3 1
Ġcountry 1
ĠR 1
Ġpolice 1
A 1
Ġlong 1
ĠThey 1
Ġend 1
er 1
ĠT 1
ĠM 1
u 1
Ġboth 1
Ġhere 1
an 1
on 1
Ġ7 1
Ġde 1
ĠShe 1
Ġbusiness 1
Ġreport 1
j 1
ers 1
Ġreally 1
ĠPresident 1
ar 1
ĠG 1
ĠFriday 1
ĠF 1
Ġbest 1
Ġsame 1
Ġanother 1
Ġset 1
old 1
ĠThat 1
as 1
n 1
Ġcome 1
Ġfamily 1
Ġpublic 1
ĠFor 1
ĠAs 1
0 1
ĠH 1
Ġ8 1
Ġ20 1
Ġfive 1
es 1
ĠTuesday 1
Ġn 1
ĠThursday 1
Ġquarter 1
h 1
Ġtop 1
Ġgot 1
Ġlife 1
ĠMonday 1
Ġfound 1
Ġuse 1
ĠW 1
4 1
ĠWednesday 1
Ġown 1
Ġaccording 1
Ġplay 1
Ġshow 1
ĠSt 1
Ġman 1
Ġleft 1
ĠUnited 1
Ġ12 1
Ġplace 1
ĠIf 1
Ġlot 1
Ġformer 1
Ġ0 1
). 1
Ġsupport 1
ie 1
Ġbillion 1
Ġt 1
Ġshares 1
! 1
z 1
k 1
ĠState 1
Ġpoints 1
Ġgroup 1
Ġschool 1
Ġinformation 1
Ġ2016 1
al 1
r 1
Ġwin 1
Ġnews 1
Ġused 1
Ġput 1
Ġcity 1
ĠJ 1
ĠThere 1
Ġnumber 1
C 1
've 1
Ġeach 1
Ġtoo 1
Ġwon 1
ly 1
Ġmonth 1
is 1
Ġadded 1
Ġlook 1
Ġbetter 1
Ġevery 1
Ġ& 1
Ġdays 1
Ġ9 1
Ġtook 1
Ġnight 1
Ġe 1
Ġ11 1
os 1
Ġfew 1
or 1
ĠNorth 1
ĠYou 1
Ġthird 1
Ġgreat 1
Ġcalled 1
ĠOn 1
Ġpast 1
Ġcame 1
Ġmonths 1
ĠSaturday 1
Ġ15 1
Ġbig 1
ĠE 1
ĠUS 1
Ġthings 1
ĠO 1
Ġd 1
Ġstart 1
B 1
Ġstock 1
Ġ30 1
Ġwomen 1
ĠSouth 1
ĠMay 1
Ġnever 1
Ġpresident 1
ĠSunday 1
Ġwithout 1
man 1
8 1
Ġdidn 1
Ġlocal 1
6 1
Ġsomething 1
Ġcase 1
ĠAll 1
it 1
7 1
ĠSo 1
Ġchildren 1
Ġaway 1
Ġlittle 1
Ġsix 1
ĠCity 1
ĠCounty 1
Ġdata 1
at 1
Ġalready 1
d 1
Ġmoney 1
Ġearly 1
Ġacross 1
Ġexpected 1
Ġrun 1
Ġlater 1
am 1
Ġprice 1
Ġgames 1
ĠMr 1
b 1
Ġmight 1
Ġdifferent 1
Ġreported 1
Ġdeal 1
Ġmedia 1
Ġgrowth 1
Ġcommunity 1
ĠChina 1
'm 1
c 1
Ġwent 1
ĠNo 1
Ġable 1
Ġmaking 1
Ġarea 1
Ġfar 1
Ġstatement 1
ĠHouse 1
Ġworking 1
M 1
Ġk 1
Ġseen 1
Ġcompanies 1
Ġtoday 1
Ġmembers 1
Ġuntil 1
Ġfull 1
Ġagain 1
Ġhalf 1
Ġshare 1
le 1
Ġalways 1
Ġcourt 1
l 1
and 1
Ġchange 1
Ġfind 1
9 1
Ġsystem 1
ĠV 1
ĠYork 1
ĠAmerican 1
Ġhead 1
Ġplayers 1
Ġdoes 1
Ġhealth 1
Ġm 1
Ġpower 1
Ġpoint 1
Ġhit 1
Ġ. 1
Ġ-- 1
Ġfree 1
., 1
Ġlead 1
Ġseveral 1
Ġrecent 1
Ġcall 1
N 1
Ġlaw 1
Ġkeep 1
Ġopen 1
ĠNews 1
Ġgive 1
ia 1
ĠMarch 1
D 1
ĠNational 1
ĠAt 1
Ġtimes 1
Ġfuture 1
R 1
Ġ14 1
ĠJune 1
Ġofficials 1
Ġ18 1
Ġimportant 1
f 1
Ġfinal 1
Ġ13 1
ĠOne 1
P 1
Ġfollowing 1
Ġcar 1
Ġleast 1
Ġwater 1
Ġevent 1
Ġline 1
Ġmove 1
Ġservices 1
Ġhaving 1
ĠWhen 1
Ġstudents 1
ĠPolice 1
el 1
Ġam 1
ĠZ 1
Ġside 1
Ġstory 1
Ġdue 1
Ġmeeting 1
K 1
Ġmust 1
ĠStates 1
Ġlikely 1
G 1
Ġcontinue 1
Ġago 1
Ġparty 1
Ġmajor 1
Ġindustry 1
Ġless 1
30 1
Ġun 1
Ġhard 1
Ġservice 1
Ġ16 1
Ġlooking 1
Ġheld 1
ve 1
Ġwhether 1
ĠJuly 1
Ġtaken 1
Ġalong 1
Ġasked 1
Ġstarted 1
Ġbecome 1
Ġforward 1
Ġresearch 1
Ġoffice 1
Ġpolitical 1
to 1
Ġtogether 1
Ġgetting 1
Ġplan 1
Ġ25 1
T 1
Ġamong 1
Ġcoming 1
Ġdecision 1
Ġvideo 1
Ġ2015 1
g 1
ĠAfter 1
Ġsecurity 1
L 1
Ġcare 1
Ġgiven 1
Ġavailable 1
âĢĶ 1
Ġs 1
ĠWest 1
'll 1
Ġpay 1
Ġnear 1
Ġsaying 1
Ġannounced 1
Ġprogram 1
ĠApril 1
Ġreal 1
ĠUniversity 1
ĠWith 1
AP 1
Ġsocial 1
Ġclose 1
et 1
Ġcurrent 1
Ġwhy 1
F 1
ĠTo 1
ĠTwitter 1
Ġthough 1
Ġ17 1
Ġtaking 1
ĠInc 1
Ġmen 1
w 1
Ġcomes 1
ley 1
Ġdoing 1
Ġprocess 1
ĠJohn 1
ch 1
00 1
Ġfinancial 1
Ġlow 1
Ġenough 1
ĠWhile 1
Ġfurther 1
Ġpost 1
Ġfeel 1
st 1
Ġperson 1
ĠFacebook 1
ĠWorld 1
Ġwithin 1
ad 1
Ġdone 1
the 1
Ġlate 1
Ġtax 1
Ġdoesn 1
Ġthing 1
Ġnational 1
Ġjob 1
Ġusing 1
ĠHowever 1
ic 1
Ġcampaign 1
Ġrecord 1
Ġbehind 1
:// 1
ĠDepartment 1
p 1
Ġothers 1
ĠJanuary 1
Ġorder 1
Ġ[ 1
Ġsales 1
Ġyet 1
Ä 1
Ġsmall 1
Ġseries 1
Ġface 1
ĠWhat 1
Ġ50 1
Ġever 1
Ġearlier 1
Ġlove 1
up 1
Ġrights 1
ĠAn 1
ist 1
Ġmorning 1
ĠWashington 1
Ġyoung 1
Ġlatest 1
ĠIndia 1
Ġtrying 1
Ġfire 1
Ġled 1
Ġstrong 1
Ġreturn 1
Ġlevel 1
O 1
Ġaverage 1
Ġperiod 1
Ġexperience 1
ak 1
Ġpossible 1
Ġbelieve 1
Ġinclude 1
Ġoil 1
Ġrecently 1
Ġonce 1
Ġknown 1
Ġlost 1
Ġsure 1
us 1
Ġweeks 1
Ġfood 1
Ġreports 1
Ġrating 1
ĠMinister 1
Ġwoman 1
Ġprovide 1
Ġproject 1
Ġissue 1
Ġlive 1
10 1
Ġclear 1
he 1
Ġcost 1
Ġplayed 1
Ġreleased 1
Ġcoach 1
v 1
Ġ24 1
Ġseven 1
Ġplans 1
Ġdevelopment 1
ur 1
ĺ 1
Ġincrease 1
This 1
Ġpolicy 1
Ġcent 1
Ġbased 1
E 1
il 1
ĠDecember 1
Ġglobal 1
Ġtrade 1
Ġhours 1
Ġhigher 1
Ġgoal 1
H 1
ĠAl 1
Ġ100 1
Ġminutes 1
Ġelection 1
ĠAmerica 1
Ġrate 1
ĠCh 1
Ġ21 1
... 1
ĠWhite 1
Ġdirector 1
Ġposition 1
Ġshot 1
Ġlarge 1
Ġc 1
Ġb 1
] 1
Ġissues 1
Ġdeath 1
Ġbuilding 1
Ġtotal 1
Ġoften 1
Ġv 1
Ġcountries 1
Ġhistory 1
Ġoutside 1
Ġfederal 1
Ġ19 1
Ġfact 1
ĠHigh 1
Ġcareer 1
im 1
Ġinternational 1
ĠNovember 1
Ġfront 1
Ġkind 1
Ġkey 1
ra 1
ĠSan 1
Ġshort 1
Ġname 1
ĠAccording 1
Ġcourse 1
Ġre 1
Ġwanted 1
W 1
ĠSeptember 1
Ġinterest 1
Ġrole 1
Ġresults 1
Ġeconomic 1
Ġ2014 1
Ġchance 1
ĠOctober 1
Ġspecial 1
Ġofficial 1
Ġneeds 1
um 1
Ġl 1
Ġproducts 1
Ġnon 1
Ġ@ 1
ĠBank 1
Ġahead 1
Ġhouse 1
U 1
Ġboard 1
Ġold 1
Ġsaw 1
Ġlower 1
ĠEuropean 1
Ġcontrol 1
ĠRussia 1
Ġeight 1
Ġrelease 1
Ġpotential 1
Ġthought 1
Ġinvestigation 1
Ġonline 1
based 1
Ġtechnology 1
ĠDonald 1
id 1
Ġbody 1
Ġrisk 1
ian 1
Ġcapital 1
Ġstaff 1
Ġaction 1
ĠLeague 1
Ġplaying 1
Ġmakes 1
Ġalmost 1
Ġperformance 1
Ġ22 1
Ġg 1
Ġfilm 1
Ġnearly 1
ĠCenter 1
Ġvisit 1
ĠGroup 1
Ġbank 1
Ġbit 1
Ġreceived 1
ĠAugust 1
Ġmilitary 1
ĠHis 1
ine 1
Ġchief 1
ĠSchool 1
Ġbring 1
ĠCourt 1
Ġ(@ 1
Ġmeans 1
ĠSh 1
Ġfans 1
Ġse 1
Ġ40 1
20 1
". 1
V 1
Ġcut 1
Ġkilled 1
Ġ# 1
Ġprices 1
Ġgave 1
ĠStreet 1
ir 1
ĠY 1
Ġcurrently 1
Ġf 1
ay 1
ne 1
te 1
Ġtry 1
ĠPark 1
ĥ 1
J 1
Ġquestion 1
Ġhand 1
Ġeconomy 1
Ġinvestors 1
able 1
Ġplayer 1
ĠBy 1
ĠDavid 1
Ġloss 1
ab 1
Ġbelow 1
Ġwrote 1
co 1
ate 1
Ġrunning 1
un 1
Ġbegan 1
Ġsingle 1
Ġfield 1
Ġ23 1
Ġleader 1
Ġw 1
ĠCalifornia 1
Ġfourth 1
Ġactually 1
Ġlist 1
ll 1
Ġcouple 1
Ġstudy 1
Ġteams 1
He 1
ah 1
ĠCanada 1
Ġla 1
Ġresult 1
Ġaccess 1
Ġvote 1
ĠMore 1
ĠFebruary 1
Ġrevenue 1
Ġoffer 1
Ġlet 1
ier 1
Ġbuy 1
Ġattack 1
Ġblack 1
Ġr 1
Ġareas 1
Ġstop 1
Ġimpact 1
Ġmatch 1
Ġinvestment 1
Ġcustomers 1
Ġleaders 1
ies 1
Ġmember 1
Ġchild 1
Ġroad 1
ul 1
Ġvalue 1
Ġshows 1
ĠDr 1
ĠDe 1
ant 1
ĠLondon 1
Ġroom 1
Ġmusic 1
Ġproduction 1
Ġanything 1
Ġfirm 1
Ġbiggest 1
Ġair 1
Ġproblem 1
Ġgeneral 1
Ġwasn 1
Ġi 1
Ġprivate 1
Ġespecially 1
Ġadministration 1
Ġadditional 1
ĠCo 1
Ġopportunity 1
Ġhold 1
& 1
Ġmatter 1
Ġsenior 1
Ġclub 1
Ġsomeone 1
ĠÃ 1
ĠEast 1
Ġ2019 1
.' 1
Ġneeded 1
ĠJames 1
time 1
Ġhowever 1
Ġeverything 1
Ġeveryone 1
Ġdied 1
Ġinvolved 1
Ġfriends 1
Ġisn 1
Ġworth 1
ik 1
ĠCup 1
Ġshowed 1
There 1
Ġ28 1
Ġmeet 1
Ġ26 1
Ġ27 1
Y 1
Ġregion 1
ĠPress 1
ĠNow 1
Ġson 1
Ġspace 1
Ġleading 1
Ġstates 1
Ġweekend 1
ĠÂ£ 1
Ġmother 1
Ġprevious 1
ĠUK 1
ĠMichael 1
Ġleave 1
est 1
em 1
Ġz 1
ĠSome 1
ors 1
out 1
15 1
Ġwar 1
Ġwebsite 1
Ġstar 1
X 1
ro 1
Ġtarget 1
Ġhimself 1
Ġturn 1
ĠEurope 1
Ġworked 1
Ġenergy 1
Ġscored 1
Ġ* 1
Ġsoon 1
Ġball 1
ĠTV 1
Ġannual 1
Ġ2013 1
Ġrace 1
ĠInternational 1
'd 1
ĠMarket 1
Ġconference 1
io 1
Ġo 1
Ġchanges 1
ig 1
Ġofficers 1
Ġinside 1
Ġform 1
Ġpublished 1
Ġphone 1
Ġco 1
Ġlegal 1
Ġexecutive 1
Ġfight 1
ings 1
Ġhope 1
Ġsummer 1
Ġofficer 1
Ġfootball 1
Ġproperty 1
@ 1
Ġbook 1
Ġparents 1
Ġcosts 1
ac 1
Ġmanager 1
Ġcreate 1
Ġage 1
Ġemail 1
Ġmarkets 1
Ġmain 1
Ġhuman 1
Ġsent 1
Ġmanagement 1
ĠDay 1
ton 1
Ġcash 1
Ġfocus 1
Ġexpect 1
Ġtraining 1
Ġbecame 1
Ġwhose 1
Ġevents 1
Ġround 1
ĠLe 1
Ġfell 1
Ġabove 1
Ġanalysts 1
Ġtalk 1
Ġsituation 1
ri 1
ated 1
ke 1
Ġwants 1
ag 1
Ġlives 1
om 1
Ġal 1
Ġdemand 1
Ġsafety 1
Ġrest 1
ĠCouncil 1
Ġpersonal 1
Ġsite 1
ĠRussian 1
Ġmid 1
Ġnothing 1
Ġwhole 1
Ġbill 1
Ġsold 1
ĠBritish 1
se 1
Ġremain 1
12 1
Ġforeign 1
Ġshooting 1
Ġstay 1
50 1
ang 1
Ġhospital 1
Ġbad 1
Ġaddress 1
ĠKorea 1
Ġhappened 1
Ġcharges 1
Ġwhite 1
Ġ31 1
If 1
Ġearnings 1
Ġbreak 1
Ġlight 1
Ġterms 1
ĠChinese 1
ĠSenate 1
ana 1
Ġidea 1
ap 1
of 1
Ġnine 1
Ġcompared 1
Ġbuild 1
ard 1
In 1
Ġsimilar 1
Ġgas 1
Ġvictory 1
Ġ2012 1
Ġdebt 1
ĠMar 1
Ġarrested 1
Ġcomment 1
Ġincreased 1
Ġmedical 1
Ġ29 1
ĠJan 1
Ġgroups 1
Ġdespite 1
Ġfall 1
Ġtell 1
Ġworkers 1
Ġtown 1
Ã© 1
Ġwife 1
Ġquestions 1
Ġcontinued 1
Ġheart 1
Ġmet 1
Ġbrought 1
Ġhelped 1
ĠCongress 1
Ġstep 1
Ġfather 1
Ġmoment 1
Ġproduct 1
Ġprobably 1
Ġlargest 1
Ġvehicle 1
ĠEngland 1
Ġallow 1
Ġstarting 1
Ġkids 1
Ġincident 1
Ġnet 1
Ġrates 1
ĠRead 1
Ġpressure 1
Ġincluded 1
Ġread 1
Ġissued 1
ol 1
Ġeither 1
Ġefforts 1
Ġincludes 1
ĠRepublican 1
ish 1
âĢ¦ 1
Ġgoals 1
aj 1
Ġen 1
x 1
Ġraised 1
au 1
Ġlonger 1
ut 1
Ġwatch 1
ĠTexas 1
You 1
Ġrange 1
nd 1
Ġfunds 1
Ġremains 1
ĠMark 1
Ġ60 1
Ġque 1
sh 1
Ġinterview 1
Ġrather 1
Ġresidents 1
Ġgrowing 1
Ġpre 1
Ġpaid 1
Ġcases 1
ĠReuters 1
Ġdifficult 1
Ġsign 1
ĠGoogle 1
Ġhttps 1
ĠPaul 1
Ġliving 1
day 1
ĠQ 1
iz 1
ĠRed 1
Ġland 1
They 1
ĠRoad 1
_ 1
ĠThese 1
Ġview 1
Ġagency 1
Ġreason 1
Ġallowed 1
ĠAustralia 1
az 1
ĠRe 1
Ġturned 1
11 1
Ġnation 1
Ġready 1
Ġpress 1
Ġbudget 1
Ġdaily 1
ĠChief 1
Ġfamilies 1
Ġsignificant 1
ĠFirst 1
Ġthemselves 1
Ġj 1
Ġruns 1
Ġaccused 1
Ġtakes 1
Ġspent 1
Ġvia 1
ot 1
ina 1
25 1
land 1
Ġexample 1
Ġauthorities 1
Ġdate 1
Ġended 1
all 1
Reuters 1
Ġbusinesses 1
ans 1
Ġdetails 1
Ġground 1
Ġpretty 1
ĠApple 1
ation 1
ĠSmith 1
ĠCompany 1
ĠFlorida 1
Ġdrug 1
Ġresponse 1
one 1
Ġeducation 1
Ġmean 1
Ġleague 1
Ġanyone 1
Ġminister 1
Ġtitle 1
Ġadding 1
Ġproblems 1
Ġopening 1
Ġconditions 1
Ġred 1
Ġdecided 1
Å 1
Ġposted 1
term 1
Ġamount 1
ĠEU 1
Ġsuccess 1
Ġevidence 1
ĠObama 1
Ġaddition 1
Ġprovided 1
ĠLos 1
Ġagreement 1
Ġstage 1
ens 1
Ġrelationship 1
ĠGeneral 1
Ġsector 1
Ġstudent 1
ating 1
Ġtest 1
", 1
Ġwinning 1
Ġfelt 1
Ġsource 1
Z 1
Ġseems 1
Ġcause 1
Ġschools 1
Ġdrive 1
Ġensure 1
Ġhuge 1
ĠMy 1
ĠHealth 1
Ġscene 1
Ġgiving 1
Ġcenter 1
Ġpositive 1
Ġyards 1
Ġjobs 1
Ġaccount 1
Ġheard 1
Ġquality 1
Ġways 1
Ġimmediately 1
Ġemployees 1
are 1
Ġpass 1
ĠCEO 1
Ġreceive 1
Ġlooks 1
ĠAfrica 1
Ġthroughout 1
led 1
Ġrelated 1
Ġsell 1
ĠUnion 1
ĠPhoto 1
ter 1
Ġquickly 1
ĠHow 1
Ġvarious 1
Ġreach 1
Ġpick 1
Ġcharged 1
Ġquite 1
ent 1
q 1
ins 1
Ġphoto 1
Ġunderstand 1
ĠâĢ¢ 1
Ġreached 1
Ġtrack 1
uk 1
Ġeffort 1
ville 1
Ġcentral 1
Ġdaughter 1
Ġcontract 1
Ġinjury 1
Ġopened 1
Ġ($ 1
Ġstraight 1
17 1
Ġcredit 1
ĠIndian 1
Ġsexual 1
Ġworks 1
Ġeasy 1
18 1
Ġclosed 1
Ġh 1
Ġhappen 1
Ġforce 1
ler 1
Ġhappy 1
Ġshared 1
Ġoverall 1
Ġmoving 1
á 1
Ġprojects 1
ĠBlack 1
Ġconcerns 1
Ġclass 1
Ġtried 1
Ġappeared 1
Ġcontent 1
ĠDistrict 1
Ġterm 1
Ġinstead 1
ĠOffice 1
Ġcontinues 1
Ġlevels 1
Ġafternoon 1
Ġfund 1
Ġsale 1
Ġdriver 1
Ġask 1
Ġcannot 1
ner 1
end 1
ĠHere 1
field 1
Ġstore 1
www 1
Ġcertain 1
Ġself 1
Ġdollar 1
ĠHer 1
Ġpopular 1
Ġfollow 1
Ġspending 1
by 1
Ġmoved 1
Ġgoes 1
Ġcreated 1
Ġstand 1
Ġoperations 1
Ġlooked 1
Ġtreatment 1
ov 1
Ġdistrict 1
Ġsigned 1
Ġhands 1
Ġmodel 1
ĠAngeles 1
Ġy 1
Ġborder 1
Ġincome 1
ĠLast 1
Ġcharge 1
Ġdriving 1
ĠJapan 1
Ġrise 1
Ġtalks 1
Ġfollowed 1
Ġpreviously 1
Ġusers 1
Ġfunding 1
ĠJohnson 1
Ġ 1
ou 1
ai 1
Ġnamed 1
Ġfriend 1
ĠNov 1
Ġdefense 1
ĠBritain 1
Ġentire 1
Ġtrading 1
Ġfailed 1
ĠEl 1
Ġclaims 1
Ġcomments 1
Ġbeat 1
ib 1
Ġbasis 1
ĠJones 1
Ġpresent 1
ĠBe 1
Ġdouble 1
Ġrose 1
ite 1
Ġability 1
Ġoriginal 1
Ġdead 1
ĠCommission 1
ĠMe 1
Ġcompetition 1
Ġ2011 1
Ġknew 1
Ġmaterial 1
av 1
ĠFrance 1
Ġscore 1
Ġsense 1
Ġserious 1
Ġconfirmed 1
Ġanti 1
Ġviolence 1
Ġimprove 1
son 1
Ã³ 1
ĠAP 1
Ġsh 1
Ġhost 1
ĠMike 1
Ġpatients 1
ĠNFL 1
Ġcrisis 1
Ġrevealed 1
ach 1
ĠPrime 1
Ġbuilt 1
ĠNot 1
Ġrules 1
Ġelse 1
Ġdepartment 1
Ġitself 1
ise 1
500 1
Ġcomplete 1
ion 1
Ġtrial 1
ĠBay 1
ĠDec 1
Ġattention 1
Ġtravel 1
ĠCentral 1
ry 1
Ġagreed 1
Ġmind 1
ĠMc 1
Ġ70 1
Ġcontact 1
ari 1
ĠTimes 1
Ġspot 1
ĠFrench 1
Ġgets 1
op 1
Ġbrand 1
Ġcalls 1
Ġbanks 1
Ġdesign 1
Ġsafe 1
Ġoffers 1
Ġpractice 1
ĠOf 1
Ã¡ 1
ling 1
Ġtrue 1
off 1
Ġnumbers 1
Ġfun 1
Ġlearn 1
Ġmultiple 1
ĠIs 1
res 1
als 1
Ġcommon 1
ized 1
Ġchallenge 1
Ġcommittee 1
ĠOur 1
Ġbase 1
ani 1
ĠAssociation 1
ung 1
Ġnetwork 1
ĠBrown 1
Ġapproach 1
16 1
Ġfinished 1
Ġreview 1
Ġrequired 1
Ġapp 1
ĠMan 1
ĠâĢ¦ 1
twitter 1
ĠDemocratic 1
13 1
Ġevening 1
ĠTom 1
Ã¤ 1
ĠAssociated 1
ĠCanadian 1
Ġcollege 1
Ġspokesman 1
Ġarticle 1
Ġtowards 1
ĠChicago 1
Ġmovie 1
14 1
ity 1
Ġforces 1
ĠChris 1
ĠDemocrats 1
Ġfeatures 1
Ġhearing 1
ĠX 1
ĠAlso 1
Ġmessage 1
age 1
Ġnoted 1
ĠSuper 1
Ġthousands 1
aw 1
ĠBill 1
ĠAr 1
ĠLa 1
ip 1
Ġ/ 1
ĠDuring 1
Ġnote 1
.) 1
Ġwrong 1
if 1
Ġpassed 1
ĠTwo 1
Ġdie 1
,' 1
ĠDon 1
ĠGermany 1
Ġletter 1
Ġdescribed 1
ĠIran 1
ĠWilliams 1
Ġparticularly 1
Ġadd 1
Ġconversation 1
ĠSe 1
Ġhighest 1
be 1
Ġhomes 1
Ġsports 1
Ġgone 1
ĠAd 1
Ġel 1
Ġopportunities 1
Ġwords 1
Ġleaving 1
ĠChristmas 1
As 1
ĠGovernment 1
Ġsimply 1
Ġhusband 1
ĠResearch 1
ĠMexico 1
ates 1
ale 1
ĠGreen 1
$ 1
od 1
ĠHall 1
Ġnatural 1
Ġoperating 1
les 1
ations 1
ĠKim 1
Ġgold 1
ok 1
Ġprovides 1
( 1
ell 1
Ġbegin 1
ĠParty 1
back 1
ĠAmazon 1
19 1
Ġmajority 1
ĠEven 1
Ġcheck 1
Ġweather 1
Ġorganization 1
Ġstories 1
ĠCar 1
Ġforced 1
ĠGeorge 1
Ġwalk 1
ong 1
Ġfiled 1
ĠJustice 1
Ġlaunched 1
Ġoffered 1
Ġwww 1
Ġconstruction 1
ĠBen 1
Ġserved 1
Ġ... 1
Ġparts 1
Ġcancer 1
Ġguys 1
Reporting 1
ash 1
less 1
Ġleadership 1
ĠCommittee 1
Ġregular 1
Ġcouncil 1
Ġcars 1
ĠDirector 1
Ġjudge 1
Ġvictims 1
ĠDaily 1
Ġkept 1
Ġeffect 1
Ġbeyond 1
pm 1
Ġtalking 1
Ġconsidered 1
ore 1
ĠAdvertisement 1
Ġst 1
ED 1
Ġmiddle 1
Ġraise 1
we 1
Ġclaimed 1
ino 1
Ġalleged 1
ĠPro 1
ĠScott 1
ĠOct 1
Ġconsider 1
ĠShare 1
Ġtraffic 1
ĠAfrican 1
Ġcouldn 1
Ġtoward 1
Ġsearch 1
But 1
Ġlaunch 1
Ġinjured 1
That 1
Ġalthough 1
Ġactivities 1
Ġchanged 1
Ġsources 1
Ġmissing 1
Ġu 1
Ġ35 1
Ġcover 1
ised 1
Ġ| 1
ow 1
ES 1
Ġdecades 1
ich 1
Ġcaused 1
Ġelections 1
ane 1
IS 1
Ġfeet 1
ĠBar 1
Ġversion 1
Ġgrow 1
Ġvehicles 1
Ġoptions 1
Ġindividual 1
Ġenvironment 1
ĠRobert 1
ĠValley 1
ĠFrom 1
per 1
ara 1
Ġsystems 1
Ġprotect 1
ĠKing 1
Ġinjuries 1
Ġfinally 1
Ġnuclear 1
40 1
Ġratio 1
Ġgun 1
ĠPakistan 1
ĠManagement 1
ĠAir 1
ce 1
Ġopposition 1
ment 1
ick 1
Ġpro 1
Ġact 1
Ġplatform 1
Ġlack 1
Ġpair 1
Ġ500 1
Ġcalling 1
ary 1
Ġprograms 1
Ġscheduled 1
Ġfast 1
Ġjoined 1
ĠWar 1
ĠEditing 1
ĠSince 1
ĠRyan 1
ĠMac 1
ĠBig 1
ĠLake 1
Ġdigital 1
When 1
ue 1
Ġassets 1
Ġseeing 1
ĠAct 1
Ġpartner 1
ĠBoard 1
Ġbeginning 1
Ġsupply 1
Ġmiles 1
Ġprison 1
ons 1
ĠAmericans 1
ub 1
ĠOr 1
me 1
Ġbenefits 1
Ġbenefit 1
Ġmeasures 1
Ġhear 1
Ġparties 1
Ġsuccessful 1
ĠJust 1
Ġvictim 1
Ġblock 1
Ġlimited 1
Ġtrip 1
ĠPeople 1
Ġserve 1
Ġart 1
ism 1
Ġwide 1
ĠSch 1
Ġ80 1
ĠThomas 1
Ġ90 1
Ġstocks 1
Ġgirl 1
ĠAsia 1
Ġseeking 1
Ġcertainly 1
ĠServices 1
ĠCollege 1
Ġcommunities 1
Ġextra 1
Ġ2010 1
ness 1
Ġholding 1
ous 1
Ġtough 1
ade 1
Ġmobile 1
Ġowns 1
ĠDo 1
ĠFire 1
Ġspoke 1
Ġreturned 1
Ġsize 1
Ġcriminal 1
ĠInstagram 1
Ġoffering 1
ĠGod 1
ĠService 1
Ġpage 1
her 1
Ġdeep 1
wood 1
Ġcrime 1
ĠSports 1
ile 1
ĠGlobal 1
Ġproposed 1
ain 1
Ġsession 1
ĠFederal 1
ĠSyria 1
Ġch 1
Ġthreat 1
Ġallegations 1
ĠRepublicans 1
ĠGerman 1
Ġstrategy 1
Ġcommercial 1
ING 1
ĠSecretary 1
Q 1
Ġreporters 1
100 1
ĠCapital 1
ĠBoth 1
ĠPost 1
ĠIsrael 1
Ġsave 1
ts 1
ill 1
Ġdrop 1
Ġreserved 1
ĠMany 1
Ġavoid 1
Ġ200 1
iv 1
Ġdamage 1
Ġcondition 1
Ġdropped 1
Ġdoor 1
Ġplanning 1
ire 1
Ġcard 1
Ġdesigned 1
Ġreduce 1
AN 1
ĠUn 1
ford 1
ĠThen 1
Ġpic 1
ĠCopyright 1
Ġrain 1
ĠMartin 1
Ġdomestic 1
45 1
ge 1
Ġmurder 1
Ġspeech 1
line 1
Ġhelping 1
Ġplanned 1
Ġfeature 1
ud 1
Ġtype 1
ham 1
ĠPublic 1
ja 1
Ġinsurance 1
Ġattacks 1
ĠCorp 1
Ġforecast 1
Ġresources 1
ma 1
?" 1
ĠAm 1
ĠSept 1
Ġpush 1
Ġattorney 1
23 1
Ġemergency 1
Ġwinner 1
Ġblood 1
Ġnorth 1
ĠFeb 1
Ġbaby 1
Ġfloor 1
Ġspend 1
Ġex 1
Ġdollars 1
Ġunit 1
ĠHill 1
Ġder 1
ĠAbout 1
Ġalone 1
ization 1
Ġpresidential 1
Ġactivity 1
ĠTHE 1
ee 1
ber 1
ĠOther 1
Ġowner 1
Ġhour 1
Ġcities 1
Ġanswer 1
ide 1
Ġfully 1
ek 1
ists 1
Ġcoverage 1
Ġvs 1
Ġfigure 1
Ġpopulation 1
org 1
Ġsnow 1
Ġbecoming 1
ĠSam 1
ĠCarolina 1
Ġjoin 1
Ġprofit 1
Ġitems 1
Ġindex 1
Ġanalysis 1
Ġtournament 1
Ġstake 1
Ġperfect 1
way 1
Ġband 1
Ġgirls 1
Ġoption 1
Ġplays 1
oc 1
Ġproviding 1
ÃŃ 1
24 1
Ġwouldn 1
Ġones 1
Ġdeclined 1
Ġwritten 1
Ġvoters 1
Ġcandidate 1
Ġsuspect 1
Ġpolicies 1
Ġpeace 1
ast 1
Ġparticular 1
for 1
Ġhopes 1
Ġstation 1
ĠMost 1
Ġspeak 1
ĠRiver 1
Ġasking 1
Ġstatements 1
Ġfifth 1
ha 1
ĠNigeria 1
af 1
Ġexplained 1
Ġbar 1
Ġhousing 1
ĠSanta 1
Ġidentified 1
Ġsimple 1
Ġcritical 1
ĠClub 1
ĠSecurity 1
ĠLike 1
Ġstarts 1
art 1
Ġstreet 1
Ġreality 1
Ġheavy 1
Ġprogress 1
Ġshowing 1
Ġchallenges 1
Ġban 1
Ġcommitted 1
35 1
» 1
Ġdirectly 1
Ġaren 1
Ġclaim 1
ĠWestern 1
ind 1
Ġgives 1
ĠSaudi 1
Ġchoice 1
ĠTh 1
Ġapproved 1
Ġlocated 1
Ġarrived 1
22 1
Ġcaught 1
Ġprofessional 1
Ġmissed 1
Ġculture 1
ĠYear 1
ĠOhio 1
ĠLtd 1
ĠAnother 1
Ġseem 1
Ġbelieves 1
Ġbelieved 1
Ġcharacter 1
ĠAug 1
red 1
Ġfine 1
Ġprior 1
Ġthinking 1
Ġhttp 1
Ġ+ 1
Ġzone 1
Ġputting 1
Ġcrash 1
ĠAustralian 1
ĠAb 1
Ġfocused 1
ĠREUTERS 1
ĠFox 1
ĠSp 1
Ġtraditional 1
Ġanalyst 1
Ġwait 1
IT 1
Ġrequest 1
ru 1
ians 1
ize 1
Ġfinish 1
Ġlaws 1
Ġran 1
ER 1
Ġsouth 1
Ġspeed 1
Ġmovement 1
Ġassault 1
Ġexchange 1
Ġappear 1
ĠSun 1
Ġle 1
Ġmaybe 1
Ġlosing 1
Ġsubject 1
ive 1
mer 1
ĠBusiness 1
ĠBl 1
Ġappears 1
Ġadvantage 1
ĠLee 1
ada 1
ĠUnder 1
Ġprevent 1
Ġrespect 1
Ġsex 1
Ġcentre 1
ĠJoe 1
ado 1
Ġtable 1
Ġequipment 1
Ġfair 1
Ġtour 1
Ġ32 1
ĠFinancial 1
Ġcounty 1
Ġdevices 1
Ġcustomer 1
Ġinfrastructure 1
Ġexpectations 1
Ġfacing 1
Ġupon 1
Ġcross 1
ĠOpen 1
AL 1
Ġquick 1
Ġattempt 1
Ġcompleted 1
Ġfacility 1
Ġconfidence 1
ĠSupreme 1
Ġpiece 1
our 1
Ġplaces 1
Ġsometimes 1
Ġpoor 1
Ġstorm 1
Ġhot 1
Ġaffected 1
na 1
Ġabuse 1
ĠMs 1
Ġword 1
over 1
Ġbrother 1
Ġnecessary 1
Ġeventually 1
ĠStar 1
Ġsend 1
Ġboy 1
ĠRs 1
Ġremember 1
21 1
Ġclimate 1
Ġcapacity 1
Ġresponsible 1
ĠMatt 1
month 1
Ġsuffered 1
%. 1
og 1
ĠPeter 1
Ġ, 1
Ġfeeling 1
ze 1
Ġbuying 1
oy 1
ij 1
Ġbought 1
Ġactions 1
Ġowned 1
Ġ___ 1
Ġphysical 1
Ġspecific 1
Ġbattle 1
ĠEnergy 1
Ġpicture 1
Ġactive 1
Ġindividuals 1
Ġguy 1
Ġregional 1
Ġbond 1
ows 1
ĠToronto 1
Ġrule 1
Ġdevelop 1
Ġcrowd 1
Ġguilty 1
Ġfemale 1
Ġselling 1
ĠFollow 1
Ġmyself 1
ata 1
Ġdevice 1
Ġreasons 1
Ġrecords 1
Ġfighting 1
ON 1
ities 1
ĠHome 1
Ġstatus 1
Ġplant 1
Ġdrugs 1
ĠChurch 1
Ġcompletely 1
Ġdisease 1
Ġhighly 1
ĠParis 1
Ġdecade 1
Ġowners 1
Ġwall 1
Ġcamp 1
ĠSteve 1
Ġreporting 1
Ġearned 1
ĠImages 1
Ġexisting 1
ĠSen 1
Ġconcern 1
Ġhundreds 1
Ġsong 1
Ġknows 1
Ġunique 1
Ġlose 1
ĠKh 1
Ġapproximately 1
Ġhaven 1
Ġpark 1
Ġindependent 1
ĠAlthough 1
ĠAndrew 1
Ġpaper 1
Ġdeveloped 1
Ġrising 1
Ġdirect 1
Ġpurchase 1
Ġexactly 1
Ġq 1
Ġmassive 1
Ġbox 1
Ġchampion 1
ĠClinton 1
Ġvoice 1
Ġarrest 1
ĠKorean 1
Ġlearning 1
ĠVirginia 1
Ġsa 1
Ġpar 1
Ġchairman 1
Ġagencies 1
Ġhealthy 1
ĠThose 1
Ġpowerful 1
Ġ45 1
Ġdifference 1
ĠJackson 1
Ġenforcement 1
Ġdividend 1
qu 1
Ġenjoy 1
Ġruling 1
Ġongoing 1
Ġsoftware 1
ks 1
Ġlocation 1
Ġmostly 1
Ġcandidates 1
men 1
Ġbroke 1
What 1
ĠBr 1
Ġ2008 1
Ġconsumer 1
Ġdiscuss 1
Ġdi 1
Ġprimary 1
ĠEn 1
Ġgreen 1
Ġconcerned 1
Ġimage 1
ĠPremier 1
ĠMeanwhile 1
Ġfired 1
ĠBoston 1
ann 1
Ġcamera 1
Ġtraded 1
Ġhasn 1
Ġexcited 1
Ġincreasing 1
ĠDespite 1
Ġcitizens 1
Ġeuro 1
Ġreportedly 1
Ġminute 1
ĠWill 1
ĠLLC 1
Ġsp 1
ĠMichigan 1
Ġstopped 1
Ġeye 1
Ġdenied 1
Ġmodern 1
ĠWall 1
Ġdefinitely 1
point 1
Ġlines 1
Ġpolitics 1
Ġhotel 1
Ġretail 1
Ġstated 1
ĠOver 1
Ġgrew 1
Ġbroadcast 1
Ġlegislation 1
Ġfresh 1
Ġbid 1
Ġmanaged 1
Ġsociety 1
Ġscoring 1
ĠGet 1
Ġintelligence 1
Ġholiday 1
Ġgovernor 1
Ġestimated 1
Ġexperts 1
ĠJeff 1
Ġstruck 1
Ġhits 1
Ġcarry 1
Ġplaced 1
Ġstores 1
Ġexpressed 1
Ġvalued 1
Ġad 1
Ġtwice 1
ala 1
Ġdisplay 1
Ġusually 1
Ġresponded 1
Ġdog 1
AS 1
ĠFed 1
Ġ2009 1
Ġdocuments 1
Ġnormal 1
Ġtrain 1
Ġfl 1
Ġshown 1
ĠEd 1
Ġsort 1
Ġallegedly 1
Ġshots 1
ka 1
Ġaccounts 1
Ġyesterday 1
Ġcreating 1
Ġchurch 1
Ġbus 1
Ġaward 1
Ġequity 1
Ġphotos 1
Ġ33 1
Ġfiscal 1
je 1
Ġconsumers 1
ĠManchester 1
no 1
ĠKevin 1
Ġgain 1
Ġcorporate 1
Ġcivil 1
ĠMiddle 1
ally 1
Ġsound 1
ĠEnglish 1
IC 1
Ġwinds 1
Ġworst 1
ĠGrand 1
Ġeffective 1
ĠIsland 1
Ġdrivers 1
Ġfan 1
pe 1
Ġsides 1
ĠGo 1
Ġclean 1
âĢĵ 1
Ġtelevision 1
ĠJr 1
Ġallows 1
My 1
Ġgreater 1
ance 1
Ġdecisions 1
Ġrestaurant 1
ĠHospital 1
ĠTr 1
Ġbalance 1
Ġmph 1
Ġkeeping 1
Ġseconds 1
Ġweapons 1
ert 1
Ġpain 1
ass 1
Ġsteps 1
ger 1
ĠBrexit 1
Ġremaining 1
Ġbringing 1
ure 1
Ġweight 1
And 1
Ġwriting 1
Photo 1
ĠChristian 1
ob 1
Ġsport 1
Ġfigures 1
Ġtrust 1
Ġskills 1
Ġseat 1
Ġfaces 1
ck 1
Ġborn 1
Ġsuper 1
Ġfuel 1
Ġdel 1
Ġmeant 1
ica 1
Ġjustice 1
Ġspring 1
Ġkilling 1
Ġnegative 1
ĠRichard 1
Ġund 1
Ġfactors 1
Ġsigns 1
Ġlearned 1
ĠGame 1
Ġaudience 1
Ġdeliver 1
Ġillegal 1
Ġblue 1
Ġscreen 1
Ġremained 1
Ġannouncement 1
IN 1
Ġwaiting 1
Ġthanks 1
Ġimmigration 1
ĠFBI 1
Ġwarned 1
Ġmeasure 1
Ġdraw 1
Ġpositions 1
Ġdebut 1
ĠMedia 1
Ġallowing 1
air 1
hen 1
Ġmark 1
ys 1
Ġprepared 1
ĠVegas 1
ep 1
ice 1
2018 1
Ġdefensive 1
60 1
ĠBeach 1
Ġpulled 1
£ 1
Ġlawyer 1
Ġcast 1
Ġsolution 1
Ġeyes 1
Ġmarketing 1
ĠFoundation 1
Ġrisks 1
ĠToday 1
za 1
Ġdraft 1
Ġice 1
26 1
ĠHar 1
ĠExecutive 1
Ġtruck 1
ions 1
ĠYour 1
ĠIreland 1
ĠJim 1
Ġha 1
Ġfear 1
Ġ36 1
UR 1
ĠFord 1
Ġwatching 1
ien 1
Ġstyle 1
ĠGood 1
Ġwearing 1
ĠHouston 1
Ġonto 1
Ġboost 1
Ġapplication 1
ĠDan 1
Ġspread 1
ĠDavis 1
Ġstrike 1
els 1
Ġwind 1
Ġinterested 1
Ġguard 1
Ġmission 1
Ġyourself 1
Ġoperation 1
Ġlarger 1
She 1
Ġseasons 1
28 1
27 1
Ġrespond 1
ci 1
ĠCentre 1
Our 1
Ġnames 1
Ġflight 1
Ġquarterback 1
Ġstandard 1
so 1
Ġsuggested 1
ĠMal 1
Ġolder 1
ini 1
Ġperhaps 1
ont 1
ĠInstitute 1
Ġmillions 1
Ġmental 1
ÃĤ 1
ga 1
Ġclients 1
Ġplease 1
Ġloan 1
Ġaware 1
ft 1
int 1
75 1
05 1
AY 1
ĠOut 1
Ġhair 1
ied 1
Ġseemed 1
ene 1
ty 1
NYSE 1
Ġoffensive 1
Ġtaxes 1
Ġinitial 1
ren 1
Ġseparate 1
la 1
ĠMiami 1
AC 1
Ġclearly 1
Ġfit 1
ĠCoast 1
Ġfirms 1
Ġpartners 1
Ġupcoming 1
Ġcold 1
Ġproposal 1
AT 1
Ġshut 1
ĠCommunity 1
Ġnature 1
ĠSal 1
Ġbottom 1
ting 1
ĠClick 1
Ġnice 1
ets 1
Ġhurt 1
itt 1
ama 1
Ġcarried 1
ĠCon 1
rd 1
Ġestate 1
ĠLas 1
ĠLaw 1
ng 1
Ġprotection 1
Ġproduce 1
Ġcurrency 1
Ġhappens 1
ĠPer 1
ney 1
ĠLong 1
Ġfellow 1
Ġcuts 1
Ġreading 1
ano 1
Ġproud 1
ost 1
ĠUN 1
ĠArizona 1
AD 1
Ġhelps 1
Ġwinter 1
Ġfinding 1
ĠGold 1
att 1
ĠWhy 1
Ġbasketball 1
lin 1
ĠCan 1
ĠBowl 1
ial 1
ĠAlex 1
200 1
AM 1
Ġpresence 1
Ġproduced 1
Ġdeveloping 1
Ġregarding 1
Ġdebate 1
Ġvice 1
ĠItaly 1
Ġsu 1
its 1
ator 1
Ġ34 1
Ġcomplex 1
Ġpresented 1
Ġresearchers 1
Ġslow 1
ya 1
Ġsanctions 1
Ġloved 1
Ġseek 1
Ġresponsibility 1
Ġadmitted 1
Ġalbum 1
Ġsolutions 1
Ġfacilities 1
ett 1
ĠGu 1
ĠWell 1
Ġlawmakers 1
Ġmiss 1
ful 1
ĠNick 1
'. 1
Ġfeels 1
Ġprime 1
Ġknowledge 1
Ġdeals 1
ĠTaylor 1
Ġsurvey 1
ĠFrancisco 1
Ġjoint 1
Ġwhom 1
Ġsit 1
01 1
Ġtr 1
Ġorganizations 1
ĠAvenue 1
ĠTheir 1
ĠTim 1
Ġrally 1
game 1
Ġbigger 1
Ġlawsuit 1
Ġrecorded 1
Ġfavorite 1
yard 1
Ġtransaction 1
Ġqu 1
oh 1
Ġinteresting 1
Ġinflation 1
ath 1
Ġstuff 1
Ġindustrial 1
ico 1
TS 1
Ġspeaking 1
Ġlosses 1
ID 1
ĠStadium 1
Ġstars 1
ĠWomen 1
ĠBlue 1
Ġwins 1
Ġdes 1
Ġcompetitive 1
ters 1
Ġpounds 1
Ġdirection 1
Ġinnings 1
ĠBest 1
Ġactor 1
Ġdangerous 1
Ġrequire 1
Ġplus 1
Ġsolid 1
Ġgeneration 1
Ġstrength 1
ĠMary 1
For 1
Ġplenty 1
ĠTeam 1
Ġinfluence 1
Ġfaced 1
Ġes 1
ĠIslamic 1
let 1
ĠDevelopment 1
Ġpath 1
Ġyouth 1
Ġcommitment 1
Ġbeautiful 1
ĠJack 1
ort 1
Ġten 1
Ġattend 1
ars 1
Ã³n 1
Ġviews 1
Ġeuros 1
Ġauthor 1
Ġcore 1
Ġsupporters 1
ĠiPhone 1
Ġfashion 1
Ġsmaller 1
Ġelected 1
Ġuniversity 1
Ġpicked 1
wa 1
Ġordered 1
ĠSc 1
ĠÅ 1
Ġlargely 1
+ 1
ĠAttorney 1
Ġpaying 1
AR 1
Ġconnection 1
Ġsetting 1
Ġna 1
ĠRock 1
Ġrecovery 1
ew 1
Ġserving 1
Ġsurprise 1
Ġoccurred 1
Ġdivision 1
Ġtelling 1
Ġmargin 1
Ġ2020 1
Ġsister 1
ĠNBA 1
Ġvoted 1
Ġcon 1
By 1
Ġ49 1
Ġfoot 1
Ã¼ 1
ĠTurkey 1
Ġamazing 1
Ġcombined 1
Ġappearance 1
Ġeasily 1
DAY 1
Ġnotes 1
ĠStart 1
Ġlanguage 1
Ġextremely 1
Ġcloudy 1
ĠLet 1
Ġdelivered 1
Ġimproved 1
Ġcollection 1
ĠPM 1
Ġestimates 1
Ġboys 1
izing 1
Ġtext 1
Ġcloser 1
Ġprotest 1
Ġprovince 1
Ġshop 1
Ġsmart 1
de 1
ĠSheriff 1
EN 1
Ġcorner 1
Ġpanel 1
Ġbooks 1
Ġsupported 1
Ġmentioned 1
ver 1
ĠMinistry 1
ĠPrince 1
ĠUSA 1
Ġreceiving 1
Ġchoose 1
ĠIN 1
ĠSpain 1
Ġsection 1
Ġconsidering 1
ĠCor 1
Ġwish 1
Ġwelcome 1
ĠConference 1
ere 1
ĠOfficer 1
Ġhoping 1
Ġportfolio 1
Ġstandards 1
Ġgrand 1
ĠReal 1
Ġsecure 1
ĠCorporation 1
ĠRep 1
ĠKelly 1
Ġstreets 1
Ġsitting 1
Ġslightly 1
ĠInvestment 1
99 1
ond 1
Ġunits 1
Ġvotes 1
Ġsegment 1
Ġchampionship 1
Ġsquad 1
iting 1
ron 1
® 1
Ġem 1
Ġtouch 1
Ġ38 1
Ġceremony 1
Ġdecide 1
Ġapproval 1
So 1
ĠPort 1
Ġsub 1
Ġsc 1
Ġrep 1
ĠWeek 1
Ġupper 1
Ġagree 1
ny 1
Ġmatches 1
ics 1
Ġtweeted 1
Ġheat 1
ĠGreat 1
Ġpenalty 1
Ġmass 1
Ġalongside 1
Ġherself 1
berg 1
Ġscience 1
Ġentered 1
Ġappeal 1
ĠPr 1
Ġfile 1
che 1
ĠReport 1
ĠThree 1
ĠNorthern 1
ĠJordan 1
Ġamid 1
Ġpace 1
Ġjail 1
Ġfinance 1
ĠYoung 1
32 1
Ġwilling 1
Ġconduct 1
ĠPar 1
Ġestablished 1
Ġreturns 1
Ġaid 1
Ġinternet 1
IA 1
29 1
Ġmeetings 1
Ġwarning 1
ĠCl 1
Ġcampus 1
Most 1
ĠFund 1
ĠWilliam 1
ĠJapanese 1
Ġconsensus 1
Ġbrain 1
!" 1
Ġpoll 1
Ġtech 1
Ġtrend 1
Ġpotentially 1
Ġreduced 1
ĠShow 1
Ġ37 1
Ġhappening 1
ĠBrazil 1
pl 1
ĠCal 1
Ġcovered 1
Ġenter 1
TV 1
Ġcatch 1
foot 1
Ġunion 1
Ġexpansion 1
ĠSingapore 1
ĠDetroit 1
Ġattended 1
ats 1
Ġnewspaper 1
ĠDivision 1
news 1
Ġcap 1
Ġremoved 1
Ġ48 1
ĠRoyal 1
Ġwindow 1
Ġparking 1
Ġdark 1
Ġstanding 1
Ġupdate 1
Ġagent 1
Ġtransfer 1
ĠArmy 1
Ġuses 1
80 1
ĠTe 1
Ġintroduced 1
Ġmale 1
ĠSouthern 1
Ġratings 1
Ġisland 1
ĠMiller 1
Ġteachers 1
Ġadvice 1
Ġfamiliar 1
uf 1
Ġsought 1
Ġpor 1
ĠEric 1
Ġda 1
Ġideas 1
uh 1
Ġsixth 1
Ġtalent 1
ĠImage 1
ering 1
run 1
ments 1
Ġconducted 1
300 1
Ġurged 1
Ġdiscovered 1
Ġpl 1
Ġunderstanding 1
Ġoffense 1
Ġsecretary 1
Ġsk 1
Ġloans 1
ĠGr 1
Ġapplications 1
Ġcrude 1
go 1
ĠInstead 1
Ġopinion 1
Ġdoubt 1
ey 1
Ġdis 1
31 1
Ġexperienced 1
Ġleg 1
ĠCleveland 1
ven 1
Ġfailure 1
market 1
ack 1
Ġdecline 1
Ġchanging 1
Ġ300 1
Ġdefence 1
ĠBrian 1
Ġdelivery 1
Ġmarried 1
Ġdeclared 1
Ġpull 1
Ġlimit 1
ĠMORE 1
Ġdefeat 1
Ġexpand 1
ĠColorado 1
ĠRob 1
iss 1
Ġworse 1
Ġperform 1
ising 1
Ġ2007 1
ĠDel 1
Ġsurgery 1
Ġeasier 1
Ġmaintain 1
ĠEx 1
Ġtied 1
Ġeast 1
Ġuser 1
ola 1
Ġprogramme 1
Ġmanufacturing 1
Ġhitting 1
Ġx 1
Ġskin 1
Ġartist 1
Ġtells 1
Ġnearby 1
ĠDaniel 1
ĠPower 1
Ġdetermined 1
Ġactual 1
Ġtreated 1
Ġlived 1
Ġcomputer 1
Ġcool 1
oo 1
ĠPl 1
Ġeffects 1
Ġenvironmental 1
ĠMorgan 1
Ġflow 1
Ġachieve 1
ĠBell 1
Ġtesting 1
ĠBob 1
Ġwhatever 1
ĠBecause 1
US 1
ĠHollywood 1
Ġconflict 1
Ġwalking 1
ĠJudge 1
ĠAlabama 1
Ġaircraft 1
Ġte 1
well 1
Ġgoods 1
Ġidentify 1
Ġassociated 1
ĠVer 1
ĠEducation 1
Ġairport 1
IL 1
Ġfalling 1
Ġgiant 1
ĠMa 1
ĠMedical 1
Ġride 1
Ġden 1
º 1
ĠJose 1
Ġwest 1
ĠPacific 1
Ġvisitors 1
ĠWatch 1
ĠNations 1
Ġgains 1
Ġschedule 1
34 1
ĠExchange 1
Ġpayments 1
ĠII 1
70 1
No 1
ĠSyrian 1
ĠAdam 1
Ġne 1
Ġpartnership 1
Ġbl 1
ĠGeorgia 1
Ġsites 1
Ġmodels 1
Ġdegree 1
Ġdetermine 1
ĠWilson 1
Ġcontest 1
Ġprofessor 1
ĠChelsea 1
Ġmeaning 1
ĠGames 1
ĠTrust 1
ĠAsian 1
33 1
Ġlink 1
ĠUp 1
Ġholds 1
ĠTop 1
ĠItalian 1
ord 1
ĠKansas 1
Ġfarmers 1
Ġextended 1
Ġbirth 1
Ġreform 1
Ġrelations 1
Ġwrite 1
Ġsupporting 1
55 1
ita 1
Ġnotice 1
ster 1
Ġanimals 1
ĠJersey 1
Ġarm 1
ĠForeign 1
ĠLife 1
Ġtruly 1
ĠOnce 1
ĠMayor 1
ĠFree 1
ĠAgency 1
ĠWood 1
Ġpassing 1
DA 1
Ġ52 1
Ġmoves 1
Ġcom 1
house 1
ĠIts 1
Ġmarijuana 1
ines 1
Ġveteran 1
Ġvariety 1
ki 1
ff 1
amb 1
Ġlisted 1
Ġpushed 1
Ġvolume 1
Ġincreasingly 1
Ġkick 1
Ġrock 1
ank 1
Ġfees 1
Ġenable 1
Ġimages 1
Ġtruth 1
Ġministry 1
Ġrare 1
ĠDallas 1
ĠMinnesota 1
Ġcontributed 1
ĠCharles 1
Ġpercentage 1
Ġtechnical 1
ĠApp 1
Ġassistant 1
Ġinterests 1
Ġimmediate 1
38 1
ĠTown 1
Ġclosing 1
ĠAnthony 1
Ġsouthern 1
ase 1
ĠPutin 1
ĠForce 1
ba 1
Ġrefused 1
ĠStill 1
ix 1
ĠCol 1
Ġmaterials 1
Ġstructure 1
Ġdriven 1
Ġpatient 1
Ġbroken 1
Ġradio 1
Ġscale 1
Ġreplace 1
Ġ39 1
ĠLand 1
Ġdeputy 1
und 1
Ġcolor 1
OS 1
Ġroads 1
Ġcorruption 1
ĠRose 1
Ġemployee 1
ĠWater 1
Ġseats 1
Ġwalked 1
ec 1
Ġcents 1
Ġchain 1
Ġpayment 1
ĠAndroid 1
eb 1
Ġcommission 1
Ġthrow 1
Ġcount 1
Ġaccident 1
Ġexpensive 1
ered 1
ĠYes 1
ĠLouis 1
Ġstudies 1
Ġinvestigating 1
Ġcentury 1
Ġdiscussion 1
Ġinter 1
DAQ 1
ĠBefore 1
Ġinitially 1
* 1
Ġinvestments 1
Ġmulti 1
Ġtight 1
Ġconfident 1
Ġcounter 1
ĠQu 1
Ġgovernments 1
Ġarmed 1
Ġsuit 1
Ġrow 1
Ġlocations 1
Ġepisode 1
itch 1
Ġyounger 1
Ġfestival 1
Ġpitch 1
ĠOF 1
Ġtalked 1
ca 1
Ġprotests 1
Ġtargets 1
90 1
Ġoriginally 1
Ġsinger 1
Ġjourney 1
ug 1
Ġapply 1
Ġteacher 1
Ġchances 1
): 1
Ġdeaths 1
isation 1
ĠStephen 1
Ġcode 1
ĠChampionship 1
ĠJason 1
ĠAT 1
Ġaccept 1
ĠSeries 1
Ġvalues 1
Ġbed 1
ĠHarry 1
Ġflat 1
Ġtools 1
Ġpublicly 1
37 1
Ġpointed 1
ĠGolden 1
ps 1
Ġunable 1
ants 1
Ġestimate 1
Ġwarm 1
Ġbasic 1
ern 1
Ġraising 1
ĠRelated 1
Ġultimately 1
Ġnorthern 1
Ġplane 1
ĠVice 1
ĠRaj 1
ĠJustin 1
anc 1
Ġbrings 1
ĠArt 1
OT 1
Ġshift 1
ĠBBC 1
ĠSu 1
BS 1
Ġbag 1
Ġdoctor 1
Ġfill 1
Ġdowntown 1
Ġpossibility 1
ĠAg 1
Ġest 1
44 1
Ġstruggling 1
Ġlinked 1
Ġtickets 1
ĠJay 1
ĠCall 1
Ġstands 1
Ġwedding 1
Ġresident 1
eng 1
Ġleads 1
Ġadvance 1
ĠAtlanta 1
Ġtie 1
Ġadvanced 1
pt 1
burg 1
ĠEarlier 1
ĠSw 1
ĠZealand 1
Ġexercise 1
ĠAM 1
Ġaffect 1
Ġpossession 1
Ġinvolving 1
Ġ42 1
Ġwriter 1
ĠBeijing 1
Ġdoctors 1
Ġobviously 1
Ġer 1
ĠOlympic 1
Ġ75 1
ĠKhan 1
ĠFort 1
app 1
like 1
Ġsea 1
ock 1
Ġmix 1
ĠIraq 1
ĠMuslim 1
ĠFinally 1
Ġcontinuing 1
Ġpr 1
ĠKe 1
ĠJoseph 1
Ġexpects 1
Ġinstitutions 1
Ġconservative 1
own 1
ĠChairman 1
Ġreturning 1
.- 1
Ġstood 1
Ġvision 1
ess 1
Ġadults 1
Ġyield 1
Ġprove 1
Ġorders 1
Ġdream 1
36 1
related 1
Ġsl 1
Ġeverybody 1
ui 1
Ġrepresents 1
Ġdiscussed 1
Ġbecomes 1
Ġvillage 1
CC 1
Ġnegotiations 1
ĠPhiladelphia 1
Ġcelebrate 1
Ġfarm 1
Ã§ 1
Ġregistered 1
ĠGovernor 1
OL 1
ĠMon 1
Ġfiling 1
04 1
SE 1
ĠAssembly 1
Ġactress 1
Ġsi 1
Ġthank 1
Ġheading 1
ĠWho 1
Ġfamous 1
Ġconsecutive 1
Ġmarriage 1
ette 1
NAS 1
acks 1
ĠPlease 1
ĠDiego 1
Ġbaseball 1
ĠMoore 1
Ġties 1
Ġcarrying 1
que 1
Ġturning 1
ĠMcC 1
ĠKen 1
OR 1
ĠStock 1
Ġbuildings 1
49 1
ĠVan 1
39 1
ĠSeattle 1
Ġwild 1
Ġcrew 1
Ġroute 1
ĠTime 1
Ġtonight 1
Ġmoments 1
Ġvideos 1
Ġinternal 1
ĠLiverpool 1
port 1
Ġchair 1
Ġrival 1
ĠScotland 1
round 1
ith 1
Ġbreaking 1
Ġvoting 1
ically 1
Ġproducer 1
ĠLove 1
Ġremove 1
PA 1
Ġasset 1
Ġrequires 1
Ġsigning 1
ages 1
Ġimpressive 1
ĠIrish 1
Ġauthority 1
Ġruled 1
Ġaimed 1
Ġcaptain 1
AG 1
Ġplants 1
ĠAnderson 1
ĠSpanish 1
Ġbanking 1
Ġthreats 1
Ġsuspended 1
Ġtests 1
Ġreligious 1
Ġelectric 1
ĠREAD 1
Ġstrategic 1
Ġsplit 1
ex 1
Ġpractices 1
ĠIsraeli 1
ĠArabia 1
ĠMoscow 1
Ġfranchise 1
Ġcustody 1
ĠOld 1
Ġrequirements 1
Ġquarterly 1
Ġcomfortable 1
Ġcrimes 1
Ġheaded 1
Ġnewsletter 1
Ġanimal 1
Ġregulations 1
long 1
ĠCNN 1
Ġassists 1
Ġshopping 1
ĠGov 1
ĠSecurities 1
Ġassistance 1
Ġnor 1
Ġrelatively 1
Ġincreases 1
Ġgenerally 1
Ġ55 1
Ġgained 1
Ġ41 1
Ġpictures 1
gan 1
Ġpop 1
Ġupdates 1
ĠRepublic 1
Ġrebounds 1
ĠPatrick 1
Ġrelief 1
Ġacting 1
ĠFestival 1
Ġ2006 1
Ġboss 1
Ġtypes 1
65 1
ĠYet 1
Ġpurpose 1
ning 1
Ġmatters 1
Ġcompete 1
ball 1
ĠRam 1
Ġsw 1
ĠFollowing 1
ĠBush 1
Ġtroops 1
Ġsupposed 1
Ġfreedom 1
Ġfeatured 1
Ġstorage 1
ĠInformation 1
ĠHong 1
Ġgolf 1
Ġagents 1
Ġfraud 1
Ġminimum 1
Ġartists 1
Ġeat 1
high 1
ĠFormer 1
ĠKong 1
ĠJosh 1
ĠDelhi 1
Ġshowers 1
ĠAcademy 1
Ġapartment 1
Ġvan 1
Ġfish 1
oe 1
Ġfilms 1
ĠBo 1
Ġedge 1
Ġpossibly 1
Ġtweet 1
09 1
Ġresolution 1
jo 1
Ġkill 1
Ġ44 1
Ġcell 1
Ġscheme 1
Ġth 1
Ġbonds 1
Ġentry 1
Ġsecret 1
Ġ43 1
Ġending 1
Ġweren 1
ĠCredit 1
ĠLive 1
Ġretired 1
Ġmachine 1
Ġsummit 1
Ġsharing 1
Ġacquired 1
Ġera 1
Ġwear 1
ical 1
07 1
Ġexciting 1
li 1
BC 1
ĠSocial 1
Ġhistoric 1
ĠChe 1
ĠLewis 1
ira 1
Ġstolen 1
ĠSpeaking 1
Ġsleep 1
Ġspokeswoman 1
week 1
Ġpurchased 1
Ġimportance 1
EC 1
Ġends 1
Ġdress 1
Ġparliament 1
ĠCruz 1
Ġcards 1
hi 1
ĠEmail 1
Ġrepresent 1
Ġbrands 1
ĠSenior 1
Ġparticipants 1
Ġfly 1
Ġidentity 1
ĠHam 1
ĠSky 1
ĳ 1
SA 1
Ġpromised 1
Ġtrouble 1
Ġsuffering 1
Ġleaves 1
Ġsuggest 1
Sh 1
Ġbusy 1
Ġproperties 1
Ġworldwide 1
Ġcloud 1
ĠSEC 1
Ġclosely 1
Ġmanage 1
Ġnumerous 1
Ġbackground 1
ĠExpress 1
Ġ65 1
ĠTony 1
ĠMadrid 1
ev 1
der 1
Ġsignificantly 1
Ġalternative 1
Ġship 1
head 1
ators 1
Ġdinner 1
ax 1
SC 1
Ġcriticism 1
ĠMah 1
ĠMin 1
rie 1
ĠTour 1
Ġbench 1
Ġadds 1
Ġseriously 1
star 1
ĠJournal 1
ĠDi 1
ali 1
Ġsentence 1
ĠSeveral 1
Ġmayor 1
ati 1
Ġsuggests 1
Ġbehavior 1
Ġstronger 1
ĠFood 1
Ġclient 1
not 1
ĠPrice 1
Ġtargeted 1
ĠSingh 1
ĠNetwork 1
Ġprosecutors 1
Ġdirected 1
ĠDemocrat 1
bl 1
ues 1
ĠFamily 1
Ġconnected 1
ĠChampions 1
Ġroughly 1
Ġabsolutely 1
08 1
Ġpassengers 1
Ã¶ 1
ĠSpecial 1
Ġcoast 1
Ġcomplaint 1
Ġ400 1
ĠEm 1
ves 1
Ġdogs 1
Ġhandle 1
Ġotherwise 1
Ġsees 1
Ġticket 1
ĠAward 1
All 1
Ġtask 1
Ġsongs 1
ĠAmong 1
Ġdedicated 1
Ġsteel 1
looking 1
Ġshortly 1
Ġtackle 1
ative 1
Ġminor 1
Ã¢ 1
Ġprovider 1
vers 1
use 1
ives 1
Ġtypically 1
Ġarms 1
ĠAnt 1
ĠIS 1
Ġjump 1
ĠÂ© 1
47 1
aff 1
Ġmonthly 1
ĠMicrosoft 1
ĠCBS 1
Ġthreatened 1
Ġhonor 1
ĠMo 1
42 1
Ġinning 1
Ġpool 1
Ġhealthcare 1
ĠStory 1
ĠTennessee 1
Ġpromote 1
EL 1
Ġemotional 1
Ġpe 1
Ġfactor 1
Ġinvestigators 1
Ľ 1
ĠBack 1
ĠProject 1
Ġcu 1
side 1
Ġmessages 1
TH 1
eg 1
Ġexperiences 1
Ġcausing 1
Ġjoining 1
Ġpackage 1
Ġbodies 1
Ġlots 1
ĠHarris 1
Ġcl 1
ĠInternet 1
free 1
Ġperformed 1
Ġpieces 1
buy 1
Ġcaption 1
Ġweb 1
Ġcontracts 1
At 1
Ġattempted 1
Ġunlikely 1
Ġclick 1
Ġinvest 1
IM 1
ĠView 1
Ġneighborhood 1
Ġring 1
ĠFour 1
ail 1
46 1
One 1
Ġnative 1
CH 1
OM 1
Ġalcohol 1
ĠVal 1
Ġcharacters 1
ĠPat 1
Ġpoliticians 1
ĠMag 1
Ġbegins 1
ĠAk 1
Ġlos 1
Ġpersonnel 1
Ġenjoyed 1
ĠTechnology 1
Ġsun 1
ĠIT 1
Ġdocument 1
Ġdeficit 1
Ġcoalition 1
Ġmemory 1
Ġpushing 1
any 1
ified 1
Ġfounder 1
Ġ2000 1
2017 1
Ġvisited 1
ĠThough 1
ph 1
Ġsoft 1
Ġflag 1
Ġmom 1
inch 1
ĠSamsung 1
Ġapps 1
Ġtouchdown 1
ĠCare 1
ĠMrs 1
Ġredistributed 1
Ġencourage 1
ched 1
Ġtend 1
Ġregions 1
pp 1
IP 1
br 1
ush 1
Ġargued 1
Ġjunior 1
BA 1
Ġsevere 1
ĠNIGHT 1
Ġdef 1
Ġsurrounding 1
48 1
Ġengine 1
Ġfilled 1
Ġseventh 1
Ġbattery 1
ĠAllen 1
Ġguidance 1
Ġroll 1
Ġrural 1
Ġexpert 1
Ġconvicted 1
Ġlikes 1
ĠRo 1
Ġgrown 1
Ġretirement 1
Ġintended 1
Ġmis 1
Ġarmy 1
Ġdance 1
ĠThank 1
Ġent 1
Ġoutlook 1
Ġpara 1
Ġdry 1
ĠTO 1
era 1
Ġwaste 1
Ġfaster 1
ĠEagles 1
TA 1
ĠFrank 1
Ã 1
LE 1
ura 1
ko 1
ao 1
Ġdistribution 1
Ġimprovement 1
Ġplayoff 1
Ġacquisition 1
ĠCH 1
Ġtomorrow 1
Ġstruggle 1
ĠHuman 1
Ġnewly 1
oon 1
ĠNe 1
con 1
sc 1
Ġunless 1
Ġtransition 1
ten 1
ĠInter 1
Ġequal 1
Ġrec 1
Ġappointed 1
Ġwake 1
ĠEarth 1
ose 1
ĠEastern 1
Ġsoldiers 1
ĠParliament 1
Ġsets 1
Ġattempts 1
ĠIllinois 1
Ġrevenues 1
ĠWil 1
Ġheads 1
Ġprepare 1
Ġpriority 1
PS 1
ĠJo 1
ĠNBC 1
Ġtherefore 1
yn 1
Ġinitiative 1
ct 1
Ġcoffee 1
ĠFair 1
43 1
den 1
form 1
ova 1
Ġappropriate 1
ĠPlay 1
Ġaccepted 1
Ġcreative 1
Ġfollows 1
Ġrescue 1
Ġtree 1
With 1
ĠNetflix 1
ĠFootball 1
Ġsurprised 1
Ġlowest 1
800 1
amp 1
Ġworried 1
mar 1
ran 1
Ġvisiting 1
Ġselected 1
ĠMusic 1
ĠAnn 1
Ġexplain 1
ging 1
Ġwidely 1
Ġsquare 1
Ġtrends 1
Ġimproving 1
ĠHead 1
ĠQueen 1
ĠSociety 1
Ġcutting 1
ĠGOP 1
03 1
', 1
ET 1
ĠDrive 1
oll 1
ato 1
ĠSea 1
Ġjury 1
ĠRights 1
Ġinvestor 1
ĠABC 1
Ġtool 1
ĠAre 1
Ġrejected 1
Ġemerging 1
Ġcounts 1
Ġnations 1
Ġfalse 1
Ġtreat 1
va 1
Ġweak 1
ĠHighway 1
down 1
Ġstruggled 1
ĠMP 1
Ġguests 1
Ġgender 1
Ġhouses 1
rit 1
ĠWild 1
Ġstreak 1
uc 1
ĠReserve 1
ĠRatings 1
alt 1
Ġgreatest 1
Ġlawyers 1
Ġreaching 1
Ġtemperatures 1
To 1
Ġoutstanding 1
Ġpasses 1
Ġfaith 1
inc 1
Ġcr 1
Ġinformed 1
oz 1
Ġtrees 1
Ġsending 1
Ġ150 1
bo 1
Ġwine 1
ros 1
Ġsuspected 1
Ġrepeatedly 1
Ġhat 1
Ġshape 1
ĠWh 1
Ġassist 1
Ġstress 1
Ġfeed 1
ark 1
ored 1
Ġwatched 1
Ġincredible 1
cl 1
nt 1
Ġentertainment 1
ih 1
Ġbeauty 1
Ġbi 1
ĠLocal 1
Ġsat 1
41 1
Ġbroad 1
Ġheavily 1
Ġengaged 1
Ġspecifically 1
ĠMen 1
ĠRoss 1
Ġ2005 1
ST 1
95 1
Ġdownload 1
400 1
Ġsentenced 1
ĠCatholic 1
ĠOklahoma 1
Ġthrew 1
Ġworry 1
Ġimp 1
Ġdrove 1
Ġcolleagues 1
Ġagenda 1
64 1
ĠEach 1
Ġfee 1
New 1
ium 1
Ġspokesperson 1
Ġbills 1
Ġ47 1
ĠAfghanistan 1
Ġinvited 1
ĠYouTube 1
Ġanniversary 1
Ġdozen 1
ram 1
ĠOnly 1
Ġemployment 1
Getty 1
Ġgap 1
Ġsweet 1
ĠLittle 1
Ġinf 1
ying 1
Ġglass 1
Ġclasses 1
Ġcoal 1
ĠSub 1
Ġduty 1
CA 1
Ġcoaches 1
Â 1
anna 1
ĠSk 1
Ġ46 1
ison 1
ille 1
ĠST 1
ric 1
Ġparticipate 1
Ġequ 1
Ġrich 1
Ġrespectively 1
Ġexpenses 1
Ġcombination 1
right 1
Ġshareholders 1
Ġturns 1
Ġearn 1
Ġ51 1
ured 1
Ġdrink 1
ĠKar 1
ĠShares 1
ĠMid 1
ĠGetty 1
Ġbridge 1
lo 1
Ġinspired 1
Ġsurface 1
Ġgift 1
ence 1
Ġchallenging 1
Ġoffices 1
Ġsuspects 1
ĠFinance 1
Ġab 1
bound 1
Ġmomentum 1
Ġbacked 1
Ġparent 1
Ġcrucial 1
ave 1
Ġdealing 1
Ġregulatory 1
Ġapparently 1
ĠMat 1
Ġapart 1
Ġport 1
ole 1
Ġbeach 1
Ġcultural 1
Ġinstitutional 1
Ġbeating 1
ĠIowa 1
ĠAli 1
67 1
Ġje 1
ays 1
Ġweekly 1
Ġbirthday 1
Ġpipeline 1
Ġknee 1
Ġsolar 1
ĠPe 1
Ġcategory 1
ĠArea 1
ky 1
ures 1
06 1
ĠBall 1
Ġsemi 1
ĠHamilton 1
hip 1
ĠPh 1
ĠNext 1
Ġathletes 1
ii 1
Ġmovies 1
han 1
net 1
Ġplastic 1
Ġbehalf 1
gen 1
Ġfindings 1
Ġstretch 1
ĠSa 1
Ġofficially 1
ĠSarah 1
Ġprivacy 1
ĠMad 1
Ġnone 1
gh 1
On 1
Ġdrama 1
ĠFl 1
ika 1
ĠArsenal 1
Ġviolent 1
UN 1
called 1
59 1
Ġhate 1
Ġrelationships 1
Ġgranted 1
ĠJon 1
Ġlisten 1
season 1
Ġfewer 1
GA 1
ĠLabour 1
Ġremarks 1
ĠJonathan 1
ĠRos 1
sey 1
ĠOntario 1
ĠThompson 1
ĠNight 1
Ġranked 1
ĠUkraine 1
Ġimmigrants 1
Ġdegrees 1
ĠGe 1
Ġlabor 1
umb 1
ĠYORK 1
Ġallies 1
sp 1
hed 1
sw 1
Ġtariffs 1
SP 1
Ġclassic 1
Ġawards 1
ents 1
Ġfix 1
Ġsoccer 1
Ġconcert 1
ust 1
Ġadult 1
Ġoutput 1
Ġmanaging 1
02 1
Ġpromise 1
Ġawareness 1
Ġgross 1
Ġentering 1
Ġpo 1
oj 1
Ġmetal 1
Ġexit 1
Ġexcellent 1
Ġclubs 1
hold 1
Ġreplaced 1
ĠClass 1
Ġscientists 1
Ġprimarily 1
ĠMer 1
Ã£o 1
Ġcircumstances 1
ades 1
Ġsupplies 1
aker 1
ĠSand 1
Ġscandal 1
Ġsettlement 1
ĠWisconsin 1
ĠWarriors 1
ĠAustin 1
Ġjournalists 1
ening 1
Ġreflect 1
ĠBuy 1
ĠAwards 1
Ġselection 1
ĠBel 1
bury 1
Ġtechnologies 1
%, 1
ime 1
ĠÄ 1
ĠAdministration 1
Ġchannel 1
Star 1
Ġtransport 1
Ġawarded 1
ena 1
Ġmotor 1
orn 1
kin 1
Ġfeaturing 1
Ġphones 1
ĠAND 1
Ġrelevant 1
ĠSee 1
Ġwinners 1
Ġdad 1
ĠSource 1
ĠCheck 1
aut 1
ĠFar 1
Ġopponents 1
Ġoutcome 1
Ġdoors 1
Ġsuicide 1
ima 1
Ġjumped 1
Ġperspective 1
Ġtransportation 1
Ġthinks 1
ĠMor 1
Ġdeadline 1
Ġ53 1
ĠDeputy 1
ery 1
Ġdetailed 1
uch 1
ĠBur 1
Ġtrades 1
ĠGreg 1
Ġzero 1
erson 1
ĠChildren 1
Ġdu 1
66 1
Ġmixed 1
ĠBarack 1
54 1
Ġterritory 1
Ġac 1
Ġconcept 1
ĠAdd 1
Ġourselves 1
Ġreaction 1
ĠSydney 1
ink 1
Ġconsistent 1
Ġboat 1
room 1
Ġdozens 1
Ġeffectively 1
but 1
Ġmotion 1
Ġalive 1
ĠKey 1
weight 1
Ġexports 1
Ġoperate 1
Ġregime 1
ĠAuthority 1
och 1
ĠCR 1
leg 1
Ġforget 1
American 1
bs 1
Ġthoughts 1
ĠSign 1
ĠPatriots 1
Ġbrief 1
ĠOregon 1
ĠBal 1
Ġmine 1
Ġciting 1
Ġmagazine 1
more 1
ERS 1
ĠBer 1
ua 1
ox 1
ĠMain 1
Ġinstance 1
tr 1
Ġrestaurants 1
ora 1
Ġharassment 1
"," 1
Ł 1
Ġsilver 1
ĠMueller 1
ĠSenator 1
ĠEvery 1
Ġfootage 1
ms 1
Ġopposed 1
ĠLink 1
Ġver 1
Ġpleased 1
ame 1
ending 1
Ġrivals 1
ida 1
ike 1
ta 1
ĠCook 1
Ġheadquarters 1
ear 1
Ġaggressive 1
Ġcourts 1
ĠMuseum 1
Ġim 1
ĠHoldings 1
Ġcommunication 1
Ġphase 1
yl 1
Ġpowers 1
Ġproved 1
Ġcarbon 1
Ġaside 1
ĠOlympics 1
Ġgathered 1
ĠPennsylvania 1
Ġsmartphone 1
ĠMet 1
ĠHurricane 1
Ġprotected 1
Ġcommunications 1
Ġemerged 1
Ġaim 1
Ġstable 1
ides 1
GB 1
Ġentirely 1
Ġmissile 1
ĠGen 1
Ġunclear 1
Ġelectricity 1
ology 1
away 1
Ġlicense 1
ĠPittsburgh 1
Ġcameras 1
Ġmusical 1
Ġmanagers 1
57 1
Ġscores 1
Ġprofile 1
hel 1
¼ 1
Ġshouldn 1
RA 1
); 1
Ġpermanent 1
ome 1
Ġet 1
Ġmar 1
Ġfavor 1
Ġmaker 1
Ġdiscussions 1
ory 1
Ġsharp 1
Ġpleaded 1
Ġpassenger 1
quarter 1
Ġdem 1
Ġversus 1
Ġmainly 1
Ġeighth 1
ĠAirport 1
ĠCross 1
million 1
ĠNas 1
Ġcited 1
56 1
Ġyes 1
ĠBelow 1
arn 1
ĠTurkish 1
ĠSl 1
Ġstepped 1
Ġproducers 1
Ġovernight 1
Ġsounds 1
52 1
Ġ64 1
Ġ54 1
58 1
ĠClark 1
ĠRick 1
Ġgr 1
ĠMont 1
Ġbeer 1
une 1
Ġreporter 1
Ġcharity 1
Ġeating 1
Ġextend 1
Ġguess 1
NA 1
Ġhedge 1
Ġencouraged 1
owned 1
ĠMel 1
ĠKentucky 1
ace 1
Ġlineup 1
Ġhosts 1
Ġcapable 1
PR 1
ĠArts 1
Ġcontroversial 1
Ġhosted 1
ries 1
Ġroster 1
Ġfixed 1
ĠWalker 1
ged 1
Ġdisaster 1
Ġdispute 1
ĠDenver 1
ĠTrade 1
ute 1
ese 1
cy 1
Ġgrant 1
ĠMax 1
Ġdistance 1
isc 1
Ġeditor 1
ĠDave 1
Ġperformances 1
Ġlay 1
Ġvulnerable 1
ĠMurray 1
ĠâĤ¬ 1
Ġmining 1
Ġ2004 1
level 1
ability 1
Ġauto 1
Ġfake 1
Ġattacked 1
ona 1
ups 1
ened 1
Ġfallen 1
Ġstations 1
ĠContact 1
itz 1
Ġincidents 1
Ġcomplaints 1
Ġoperates 1
Ġrefugees 1
Ġessential 1
ĠTest 1
Ġdemands 1
Ġroles 1
yr 1
Ġacts 1
Ġusual 1
ring 1
Ġhanded 1
ĠMatthew 1
hour 1
Ġindustries 1
Ġshoot 1
ĠAuthorities 1
Ġprobe 1
ĠUtah 1
ĠRBI 1
ĠAD 1
Ġprospect 1
outs 1
ĠUber 1
Ġbright 1
Ġmention 1
Ġsavings 1
ĠMiss 1
ONDON 1
Ġ1990 1
arm 1
ĠTen 1
These 1
Ġexplains 1
minute 1
85 1
Ġmaximum 1
Ġro 1
Ġrookie 1
Ġstudio 1
ĠCam 1
ĠGal 1
Ġdefend 1
hand 1
53 1
ĠOil 1
Ġserves 1
Ġsn 1
ios 1
ĠDefense 1
AB 1
Ġhired 1
Ġsupports 1
Ġpremium 1
ef 1
Ġfailing 1
ĠIndiana 1
Ġexp 1
Ġobjective 1
Ġaffordable 1
ĠCom 1
ĠThanks 1
Ġanywhere 1
Ġconfirm 1
ited 1
Ġrepresenting 1
Ġwitness 1
69 1
Ġclaiming 1
Ġviolation 1
Ġhistorical 1
med 1
Ġpreparing 1
ĠTech 1
Ġposts 1
OC 1
ĠGraham 1
ĠGl 1
ĠLions 1
ales 1
ĠID 1
Ġcorrect 1
ĠAntonio 1
Ġadvertising 1
Ġeastern 1
OW 1
Ġholdings 1
Ġpolls 1
ĠSH 1
Ġexecutives 1
ĠJewish 1
ĠGary 1
Ġprize 1
ĠCommissioner 1
Ġcells 1
ify 1
Ġlunch 1
Ġdemocracy 1
ĠEr 1
Ġregularly 1
Ġresulted 1
ĠAve 1
ĠPartners 1
Ġrewritten 1
Ġlo 1
Ġcooperation 1
ĠGulf 1
Ġsmoke 1
ĠMemorial 1
Ġwave 1
Ġfears 1
Ġkid 1
ĠGiants 1
Ġrecovered 1
row 1
ĠRadio 1
ĠBarcelona 1
Ġwonderful 1
ĠDow 1
Ġstream 1
ĠSimon 1
Ġdetail 1
Ġvolunteers 1
ĠInd 1
Ġforms 1
mann 1
ĠRay 1
oor 1
ĠTake 1
Ġrepresented 1
het 1
Ġblow 1
aged 1
RE 1
ĠMissouri 1
Ġcovering 1
Ġprofits 1
Ġconcluded 1
Ġthus 1
ĠColumbia 1
ode 1
ĠZimbabwe 1
Ġdisclosed 1
Ġlifted 1
ĠSean 1
ĠHarvey 1
ĠPlus 1
ces 1
ĠGreece 1
ĠLady 1
Ġdelay 1
Ġkitchen 1
ĠIndex 1
Ġbear 1
Ġputs 1
new 1
88 1
ĠAsh 1
Å¡ 1
Ġperforming 1
law 1
ĠPart 1
Ġindicated 1
Ġannounce 1
Ġcompensation 1
Ġka 1
ĠScience 1
ris 1
Ġrecommendations 1
ĠSecond 1
Ġlights 1
Ġtemporary 1
urs 1
Ġwestern 1
stone 1
68 1
ĠDisney 1
Ġplayoffs 1
Ġjudges 1
Ġengineering 1
ĠPen 1
ĠPal 1
Ġobvious 1
ĠBridge 1
ĠEnd 1
ĠArab 1
Ġexcept 1
Ġhole 1
class 1
Ġcauses 1
Ġconnect 1
ĠAI 1
An 1
Ġchose 1
ĠElizabeth 1
min 1
Ġproper 1
ĠNHL 1
Ġraces 1
Ġinnovation 1
Ġsugar 1
600 1
ĠModi 1
illa 1
Ġtrillion 1
ĠSar 1
ĠAffairs 1
Ġimpossible 1
Ġguide 1
Ġcaptured 1
ĠSales 1
Ġspecies 1
51 1
Ġar 1
Ġmaster 1
Ġstayed 1
iro 1
ĠEconomic 1
Ġvast 1
ili 1
Ġpet 1
ye 1
77 1
Ġkeeps 1
ĠPhil 1
ĠEPS 1
ĠRegional 1
Ġsectors 1
Ġdesire 1
ĠStanley 1
¾ 1
Ġunknown 1
Ġpot 1
ĠPR 1
Ġknowing 1
Ġflying 1
ĠTreasury 1
iers 1
enn 1
ably 1
Ġsick 1
Ġmanner 1
Ġmanufacturers 1
Ġchampions 1
gy 1
Part 1
ister 1
ĠMountain 1
Ġimagine 1
Ġportion 1
ĠCamp 1
Ġchemical 1
ible 1
ĠAnaly 1
ĠBureau 1
Ġpm 1
Ġupdated 1
Ġetc 1
ĠField 1
iles 1
Ġobtained 1
Ġstick 1
Ġcat 1
har 1
Ġmarked 1
Ġmedium 1
ĠDes 1
People 1
Ġwealth 1
ores 1
ĠBaltimore 1
Ġtip 1
Ġdismissed 1
ĠVictoria 1
ĠBrad 1
Ch 1
Ġ56 1
Ġstadium 1
eth 1
Ġthunder 1
Ġtested 1
Ġdrawn 1
Ġcounsel 1
ld 1
Ġspirit 1
uss 1
Ġtheme 1
my 1
Ġnecessarily 1
Ġelements 1
Ġcollected 1
ĠRes 1
ĠMaryland 1
ĠEnter 1
Ġfounded 1
ae 1
Ġpilot 1
Ġshoulder 1
PC 1
Ġargument 1
Ġyen 1
Ġreceiver 1
Ġharm 1
ĠET 1
Ġprotesters 1
Ġ72 1
ĠAaron 1
Ġed 1
Ġexpecting 1
":" 1
Ġbike 1
Äĩ 1
Ġluxury 1
half 1
ĠBarbara 1
Ġfoundation 1
Ġill 1
Ġsubmitted 1
Ġdeeply 1
Ġhospitals 1
ĠBJP 1
Ġshock 1
Ġplatforms 1
Ġsummary 1
ĠWhere 1
Ġcelebration 1
iff 1
Ġveterans 1
Ġachieved 1
fl 1
Ġactivists 1
ĠManager 1
Ġformal 1
Ġformed 1
Ġinvestigate 1
ĠKyle 1
Ġ: 1
ĠRa 1
ovic 1
Ġdrinking 1
Ġnetworks 1
ĠAlexander 1
ĠOs 1
Ġ) 1
Ġbomb 1
Ġrecalled 1
ito 1
ient 1
Ġrepresentatives 1
ĠChrist 1
ĠWay 1
Ġdeadly 1
Ġinvesting 1
ĠRussell 1
Ġconsumption 1
Ġharder 1
Ġbail 1
Ġcritics 1
Ġdanger 1
Ġdrew 1
ĠSol 1
Ġcopyright 1
ĠHenry 1
Ġbuyers 1
Ġresidential 1
Ġmaintenance 1
pr 1
Ġmarks 1
Ġages 1
Ġcovers 1
Ġton 1
Ġtitles 1
ĠPS 1
ĠEvans 1
Ġmigrants 1
Ġflights 1
Ġmonitoring 1
Ġaddressed 1
Ġvital 1
Ġcontrolled 1
Ġweapon 1
Ġinches 1
Ġreduction 1
Ġurban 1
Ġcoaching 1
Ġreducing 1
ila 1
Ġrealize 1
Ġmeat 1
Ġref 1
Ġoverseas 1
Ġblame 1
Ġterrorist 1
Ġstuck 1
ĠUs 1
esh 1
pro 1
Ġ58 1
ough 1
Ġexposure 1
ĠAbu 1
state 1
Ġproviders 1
Ġfore 1
Ġjet 1
bar 1
Ġownership 1
ret 1
Ġupset 1
Ġfacts 1
Ġpurchasing 1
Ġreforms 1
Ġriver 1
Ġsomebody 1
Ġguest 1
iy 1
Ġauction 1
ĠReading 1
Ġconsequences 1
Ġrepresentative 1
Ġappointment 1
add 1
Ġcollaboration 1
ĠTesla 1
ĠCohen 1
Ġengagement 1
Ġspeaks 1
EST 1
Ġexposed 1
Ġmaintained 1
rs 1
Ġdating 1
ĠProgram 1
board 1
Ġracing 1
Ġpension 1
ign 1
iti 1
ĠFive 1
Ġextensive 1
ĠHa 1
ĠPoint 1
ĠMexican 1
Ġexpanded 1
Ġtotally 1
Ġinvestigations 1
ĠOrleans 1
Ġcycle 1
ĠESPN 1
ifying 1
Ġcup 1
ĠAz 1
ĠInvestors 1
Ġengage 1
reg 1
Ġfought 1
Ġterrorism 1
Ġblocked 1
ĠOK 1
Äį 1
72 1
Ġdestroyed 1
« 1
Ġstaying 1
Ġafford 1
Ġappearances 1
ĠHills 1
Ġcrore 1
Ġstrategies 1
Ġtips 1
ĠSm 1
ĠFr 1
Ġbanned 1
ĠSon 1
ask 1
Ġlimits 1
Ġrecognition 1
Ġeligible 1
ĠGar 1
Ġvolatility 1
Ġlaid 1
nes 1
Ġgrade 1
ĠRE 1
ĠHart 1
Ġ57 1
oma 1
Ġuncertainty 1
Ġrecognized 1
ĠPC 1
Ġchosen 1
uz 1
Ġadviser 1
una 1
Ġassessment 1
Ġreveal 1
mo 1
After 1
ĠBro 1
ĠOff 1
Ġpeak 1
Ġreferred 1
ĠSC 1
Ġ2003 1
ification 1
Ġshutdown 1
ĠOfficials 1
ias 1
Ġextreme 1
Ġflood 1
Ġhockey 1
Ġwage 1
ĠNet 1
Ġdamaged 1
Ġreplacement 1
ĠMaria 1
Ġcreation 1
Ġguns 1
aci 1
Ġworker 1
do 1
Ġviewers 1
Ġseed 1
sts 1
Ġtouchdowns 1
Ġmistake 1
ray 1
ull 1
Ġpricing 1
Ġstrongly 1
Ġaims 1
ĠNavy 1
ĠEgypt 1
ker 1
Ġve 1
ĠSteven 1
Ġres 1
ational 1
Ġrequests 1
Ġemissions 1
ĠArena 1
uma 1
ĠAtlantic 1
hr 1
ĠAFP 1
ĠSquare 1
Ġcontribute 1
Ġfunction 1
Ġdec 1
ĠNelson 1
89 1
Ġreferendum 1
ĠPre 1
Ġapplied 1
ĠGMT 1
ĠIranian 1
ĠNigerian 1
ĠAny 1
NG 1
Ġacknowledged 1
Ġreferring 1
Ġventure 1
Ġimports 1
Ġblog 1
Ġfutures 1
OU 1
ĠUFC 1
Ġneither 1
Ġextension 1
hes 1
ĠMed 1
76 1
Ġsustainable 1
ains 1
Ġreputation 1
ĠVancouver 1
Ġbasically 1
acy 1
Ġsad 1
ĠFrancis 1
ĠKennedy 1
ĠNevada 1
ĠLu 1
ras 1
ĠAv 1
Ġrear 1
ĠHo 1
Ġproperly 1
abe 1
ĠHotel 1
Ġopinions 1
under 1
ĠStation 1
ĠFOR 1
ops 1
Ġadopted 1
ĠSwiss 1
ĠCountry 1
ĠTer 1
ĠAndy 1
Me 1
ĠCooper 1
ĠTigers 1
ĠCreek 1
Ġgay 1
iner 1
ĠAN 1
Ġbird 1
lla 1
ĠKate 1
ĠPet 1
ni 1
Ġprospects 1
ater 1
ites 1
Ġescape 1
lam 1
ake 1
Ġ1980 1
ĠLag 1
Ġsuccessfully 1
Ġdistricts 1
Ġministers 1
aries 1
Ġframe 1
ĠON 1
ĠEuro 1
ĠMarkets 1
Ġregister 1
Ġdefeated 1
Ġdevelopments 1
Ġninth 1
Ġquiet 1
Ġgenerated 1
Ġvaluable 1
Ġrecommended 1
ĠTheatre 1
ĠCap 1
bed 1
Ġreference 1
Ġease 1
oring 1
Ġ66 1
Ġimprovements 1
Ġelsewhere 1
ĠHillary 1
Ġdefender 1
ĠRight 1
zy 1
Ġcomprehensive 1
Ġspotted 1
ĠOakland 1
ĠOk 1
ĠSystem 1
ique 1
Ġpersons 1
Ġexist 1
Ġbroader 1
Ġclinical 1
Ġ2001 1
oul 1
Ġsecurities 1
ghan 1
Ġshelter 1
ero 1
ATED 1
Ġhosting 1
Ġselect 1
ĠKavanaugh 1
Ġrestrictions 1
osa 1
Ġyields 1
ĠLA 1
Ġ59 1
Ġwonder 1
Ġabsence 1
Ã¼r 1
ÅĤ 1
DP 1
Ġelectronic 1
Ġillegally 1
Ġmicro 1
ĠNEW 1
Ġhall 1
Ġaged 1
Ġtemperature 1
cast 1
atic 1
Ġlegacy 1
Ġaffairs 1
ji 1
ĠResources 1
Ġgang 1
winning 1
Ġattending 1
aro 1
Ġfriendly 1
aine 1
Ġcannabis 1
Ġairline 1
Ġnoting 1
Ġprofessionals 1
ĠFREE 1
RC 1
Ġfinancing 1
Ġindependence 1
ved 1
Ġresulting 1
Ġsteady 1
ĠWinter 1
uring 1
Ġhoped 1
98 1
Ġpresentation 1
aya 1
Ġrated 1
osh 1
ĠAnalysis 1
= 1
Ġdonations 1
IR 1
Ġcombat 1
ĠHoward 1
anda 1
79 1
Ġinvested 1
Ġexpanding 1
omb 1
ress 1
ble 1
Ġjournalist 1
ĠWoods 1
Ġcenters 1
ott 1
Ġstreaming 1
Ġterror 1
Ġsustained 1
ĠWWE 1
pre 1
ÅŁ 1
ait 1
Ġarrival 1
Ġresidence 1
Ġextent 1
Ġarrive 1
Ġ2002 1
Ġestablish 1
74 1
ĠArgentina 1
ĠDem 1
inn 1
aud 1
ĠNCAA 1
Ġquestioned 1
Ġballot 1
Ġmin 1
Ġlandscape 1
Ġhorse 1
Ġopponent 1
iel 1
Ġprompted 1
atory 1
Ġlift 1
Ġassociation 1
cher 1
Ġdefending 1
Ġtiny 1
Ġpoverty 1
ĠSafety 1
Ġpetition 1
ĠLimited 1
ĠCA 1
FC 1
Ãł 1
oni 1
Ġmonitor 1
ÃŃa 1
MA 1
Ġanswers 1
ĠMitchell 1
Ġbo 1
ĠShah 1
Ġsm 1
Ġmedal 1
ĠCivil 1
Ġrecognize 1
key 1
Ġpregnant 1
Ġspots 1
ante 1
Ġacademic 1
Ġinitiatives 1
Ġsecured 1
ĠCL 1
ils 1
Ġanticipated 1
Ġinvolvement 1
ĠMake 1
Ġinsisted 1
ĠWales 1
Ġclothing 1
Ġtracks 1
Ġsymptoms 1
Ġplate 1
ĠNY 1
Ġretailers 1
ĠPan 1
Ġfled 1
Ġquoted 1
Ġsaved 1
ĠCarter 1
Ġteaching 1
ĠTokyo 1
ĠCr 1
ĠSix 1
ĠPicture 1
Ġrecover 1
Ġcomedy 1
ree 1
Ġstrikes 1
ĠSanders 1
sel 1
Ġgraduate 1
Ġpending 1
St 1
Ġwarrant 1
Ġhonest 1
ĠGM 1
Ġnoticed 1
ĠGalaxy 1
ider 1
Ġproposals 1
Ġwore 1
Ġindeed 1
EM 1
ĠChannel 1
ances 1
ĠBrady 1
86 1
Ġgotten 1
Ġthrowing 1
ĠLeader 1
ĠVideo 1
71 1
Ġwelcomed 1
NEW 1
Ġfairly 1
Ġpromises 1
ĠSilver 1
Ġrape 1
Ġopener 1
ares 1
ĠSir 1
making 1
Ġcur 1
Ġrooms 1
73 1
Ġamounts 1
ĠIndustry 1
ĠDar 1
Ġ62 1
ted 1
Ġabroad 1
ĠMaybe 1
Ġreaders 1
oke 1
Ġpublication 1
ĠJean 1
Ġoperator 1
ĠHaving 1
ĠMil 1
life 1
Ġgenerate 1
ĠCraig 1
ĠMass 1
ĠBh 1
Ġrequested 1
Ġcrazy 1
ĠSpace 1
Ġcopy 1
Ġexport 1
Ġcontext 1
Ġbr 1
62 1
ĠRobinson 1
Ġcyber 1
ENT 1
BI 1
arg 1
Ġspeaker 1
Ġdramatic 1
ĠOl 1
ĠMill 1
Ġtrained 1
Ġediting 1
Ġsalary 1
Ġdirectors 1
Ġexplore 1
Ġlucky 1
Ġprominent 1
Ġbrothers 1
Ġneck 1
icht 1
ĠWatson 1
born 1
Ġproven 1
Ġprincipal 1
Ġedition 1
Ed 1
Ġswitch 1
maker 1
Ġrelative 1
mi 1
ĠBruce 1
ho 1
ĠScottish 1
water 1
ĠSport 1
ĠKings 1
ĠCollins 1
adi 1
Ġcelebrated 1
Ġclothes 1
Ġsunny 1
ĠCharlotte 1
ees 1
Ġscenes 1
ĠData 1
Ġwounded 1
Ġunusual 1
Ġrealized 1
ĠPlan 1
ĠTrans 1
ĠFC 1
Ġletters 1
Ġalerts 1
ĠWarren 1
DS 1
oss 1
pping 1
Ġsuspension 1
Ġbenchmark 1
ĠAcc 1
Ġalert 1
Ġpassion 1
ĠEst 1
Ġlatter 1
Ġstability 1
Ġarts 1
Ġpursue 1
ĠSeason 1
Ġfields 1
Ġmethod 1
63 1
Ġfolks 1
Ġexclusive 1
Ġcrews 1
Ġsessions 1
ĠMajor 1
ĠMount 1
Ġmap 1
Ġ= 1
Ġsituations 1
ĠBerlin 1
rey 1
Ġdates 1
Ġsheet 1
ĠLo 1
Ġfighters 1
ĠMart 1
Ġatmosphere 1
Ġillness 1
Ġcompeting 1
ĠChristopher 1
ĠRoy 1
mm 1
iano 1
Ġge 1
ĠRams 1
Ġconversations 1
ĠPa 1
ĠTel 1
Ġappreciate 1
78 1
ĠTotal 1
low 1
ĠStone 1
Ġopposite 1
Ġbarrel 1
Ġdevelopers 1
Ġexpress 1
Ġhighs 1
which 1
par 1
ĠVietnam 1
Ġblocks 1
Ġrecording 1
Ġadjusted 1
Ġret 1
ĠAR 1
Ġmilitants 1
Ġinnovative 1
ĠGhana 1
FR 1
Ġfantastic 1
Ġmortgage 1
ando 1
ĠLane 1
ises 1
ĠÂ 1
Ġhomeless 1
ĠKal 1
Ġapproached 1
Ġrounds 1
Ġmargins 1
ament 1
ĠMotor 1
Ġencouraging 1
ÂŃ 1
uru 1
Ġhandling 1
ĠMassachusetts 1
Ġplanet 1
ĠSpring 1
ĠBon 1
gu 1
Beat 1
Ġdrawing 1
ĠPhoenix 1
very 1
aid 1
ĠSte 1
ĠEntertainment 1
ĠRon 1
Ġassigned 1
ĠSA 1
News 1
Ġinterviews 1
ĠOh 1
media 1
vel 1
Ġpermission 1
Ġtransactions 1
Ġtraders 1
Ġsolo 1
Ġprovincial 1
Ġsuggesting 1
¡ 1
Ġdiverse 1
Ġ67 1
Ġranks 1
ĠFre 1
Ġfavourite 1
Ġ63 1
Ġdifferences 1
Ġtargeting 1
Ġactors 1
Ġ76 1
icated 1
Ġcollect 1
akes 1
war 1
Ġcontained 1
ches 1
Ġlibrary 1
Ġsegments 1
ĠLine 1
Ãª 1
ual 1
Ġbags 1
Ġfactory 1
Ġear 1
Ġsomewhat 1
Ġrail 1
ĠUP 1
ula 1
ĠNiger 1
Ġlas 1
Ġimplementation 1
Ġemails 1
kel 1
wing 1
Ġadvised 1
-- 1
istic 1
Ġdepth 1
Ġshoes 1
ĠJennifer 1
Ġvenue 1
Ġcontain 1
Ġhighlights 1
Ġcapabilities 1
Ġprocesses 1
Ġtradition 1
Ġcontacted 1
Ġproducing 1
Ġtrail 1
rem 1
Ġ600 1
Ġ68 1
AA 1
ĠBa 1
ĠSuch 1
ĠTyler 1
ipp 1
Ġsurvived 1
ami 1
ĠContinue 1
Ġcapture 1
bi 1
61 1
96 1
Ġthreatening 1
Ġkeen 1
dale 1
Ġtrailer 1
Ġstages 1
ĠGordon 1
Ġfinishing 1
Ġlegislative 1
Ġuseful 1
ĠGreek 1
ald 1
Ġgrounds 1
ĠDu 1
storms 1
ills 1
Ġexpense 1
Ġdetained 1
Today 1
Ġdiet 1
Ġwood 1
ĠCameron 1
Ġthrown 1
Ġcricket 1
Ġideal 1
with 1
Ġteammates 1
ours 1
Ġprojected 1
Ġpersonally 1
ĠBoy 1
rom 1
ĠPhilippines 1
win 1
ges 1
Ġcounties 1
ĠBaker 1
Ġprosecutor 1
Ġroof 1
met 1
Ġpartly 1
ĠMoon 1
eman 1
Ġfocusing 1
Ġfishing 1
than 1
ĠJeremy 1
ĠBad 1
ais 1
Ġcontrols 1
Ġtonnes 1
Ġshall 1
Ġ61 1
Ġgathering 1
ĠERA 1
Ġpresidency 1
Ġ85 1
ĠGas 1
Ġscenario 1
Ġquarters 1
Ġang 1
Ġsettled 1
ĠCommerce 1
Ġanybody 1
Ġgarden 1
ĠLibrary 1
Ġbet 1
Ġtopic 1
olo 1
Ġintense 1
87 1
Ġlinks 1
Ġmed 1
ĠAG 1
Ġflooding 1
ĠMurphy 1
PM 1
Ġfinds 1
Ġsensitive 1
pped 1
Ġcompletion 1
Ġminority 1
Ġvon 1
Ġstriking 1
rich 1
Ġbars 1
Ġefficient 1
Ġcontributions 1
Ġvisits 1
Ġattract 1
ĠMalaysia 1
ĠREL 1
Ġopens 1
Ġessentially 1
Ġreasonable 1
Ġsentiment 1
ĠMelbourne 1
Ġfitness 1
Ġfrequently 1
ĠRangers 1
Ġmuseum 1
ĠDNA 1
Ġcontrast 1
ĠAdams 1
ĠWin 1
Ġfalls 1
Ġimposed 1
250 1
ood 1
ĠRio 1
Ġchoices 1
Ġyellow 1
rin 1
ben 1
ĠStaff 1
ĠIndonesia 1
Ġcarries 1
Ġtourism 1
UM 1
ĠOrange 1
sell 1
Ġresolve 1
ĠMumbai 1
Ġpan 1
Ġimplement 1
Ġmidfielder 1
OP 1
Ġtensions 1
Ġ800 1
ĠLord 1
ĠLight 1
Ġlies 1
Ã©s 1
Ġparticipation 1
Ġtries 1
Ġsheriff 1
degree 1
Ġcongressional 1
Ġmode 1
Ġregulation 1
ĠJacob 1
ĠCrown 1
Ġbowl 1
ĠMississippi 1
Ġtheft 1
ĠKingdom 1
Ġresort 1
Ġroyal 1
Ġunemployment 1
PP 1
Ġnomination 1
ĠTR 1
Ġbehaviour 1
bank 1
ĠForest 1
WASHINGTON 1
ĠOthers 1
Ġslowly 1
Ġmenu 1
vo 1
ĠSy 1
ĠMetro 1
ĠLisa 1
Ġregistration 1
While 1
ĠJesus 1
Ġ250 1
Ġprocessing 1
Ġmonetary 1
ape 1
ener 1
ĠSystems 1
Ġdisappointed 1
Ġprint 1
uy 1
ħ 1
Ġdemanding 1
Ġincredibly 1
play 1
Ġsurveillance 1
ĠStandard 1
Ġperiods 1
Ġwrites 1
ĠLuke 1
ĠPalestinian 1
Ġwalks 1
Ġriding 1
Ġwaters 1
ĠSox 1
Ġtraveling 1
Ġtap 1
Ġorganized 1
Ġresource 1
Ġangry 1
Ġtiming 1
Ġempty 1
Ġmilk 1
Ġtherapy 1
ĠBrandon 1
mon 1
Ġnationwide 1
Ġnovel 1
ĠStorm 1
iet 1
ĠBre 1
Ġbegun 1
Ġdiplomatic 1
Ġads 1
ĠDC 1
ĠOb 1
ĠMontreal 1
ĠDown 1
ĠMilwaukee 1
Ġmeal 1
ĠPuerto 1
ĠMas 1
Ġjoy 1
Ġdeparture 1
ĠWright 1
Ġspoken 1
style 1
ĠAction 1
ĠComey 1
Ġdelivering 1
Ġtoll 1
Ġmidnight 1
ĠRevenue 1
Ġfiring 1
Ġstunning 1
Ġkicked 1
ĠOttawa 1
Ġefficiency 1
ĠLincoln 1
Ġtaste 1
ez 1
ĠWeather 1
ĠMorning 1
Ġhadn 1
Ġdiversity 1
ily 1
ĠAy 1
Ġargue 1
Ġerror 1
Ġtaught 1
Ġche 1
Ġoccasion 1
Ġinc 1
ĠOrlando 1
ĠOnline 1
Ġlegs 1
ĠNation 1
uck 1
Ġwidespread 1
ĠOcean 1
Ġconstantly 1
ĠLatin 1
Ġcomfort 1
Ġrely 1
uff 1
ĠCard 1
aring 1
Ġhumans 1
ĠThomson 1
aka 1
BIT 1
ĠReview 1
po 1
Ãº 1
Ġtrucks 1
Ġforecasts 1
view 1
Ġlongtime 1
ĠConstitution 1
Ġreserves 1
bit 1
Ġstressed 1
Ġcontribution 1
Ġchicken 1
ĠDE 1
Ġfat 1
ĠOscar 1
Ġcriticized 1
Ġtestimony 1
Ġapparent 1
Ġconstant 1
Ġcabinet 1
ĠDuke 1
Ġaspects 1
lic 1
ĠVol 1
Ġwing 1
Ġreb 1
ĠSessions 1
ĠSmart 1
car 1
ĠIm 1
Ġoperational 1
Ġregulators 1
ĠJimmy 1
eter 1
Ġnobody 1
ĠMarc 1
Ġliterally 1
Ġresistance 1
ĠKam 1
Ġsexually 1
Ġ69 1
uth 1
Ġviewed 1
Ġpicks 1
Ġdin 1
Ġtalented 1
Ġtennis 1
Ġstrengthen 1
Ġgl 1
ĠProtection 1
Ġinstalled 1
ways 1
ĠCampbell 1
ĠPortland 1
Ġintent 1
ĠPalace 1
Ġsecondary 1
Ġlocked 1
ĠPA 1
Ġlanded 1
Ġlength 1
Ġboosted 1
Ġpurchases 1
Ġcommand 1
ĠAsked 1
Ġspaces 1
Ġiconic 1
Ġrecommend 1
Ġduties 1
Ġseized 1
Ġdelayed 1
FA 1
AND 1
daq 1
Ġhiring 1
Ġoccur 1
DC 1
ĠMus 1
Ġag 1
Ġhopefully 1
ĠPenn 1
ards 1
Ġstriker 1
Ġrent 1
ĠTy 1
ĠBuffalo 1
ĠKy 1
Ġhike 1
pper 1
Ġ120 1
Ġop 1
Ġwheel 1
ĠIan 1
Ġchart 1
tt 1
Ġvolunteer 1
IG 1
person 1
ight 1
ĠBook 1
unt 1
ĠTechnologies 1
Now 1
Ġfavour 1
ĠGh 1
ĠQatar 1
ĠDutch 1
ĠGrant 1
ĠBan 1
rel 1
Ġagreements 1
Ġeducational 1
worth 1
ĠWard 1
700 1
Ġanymore 1
Ġrepair 1
Ġoperators 1
ĠLi 1
ots 1
ĠLouisiana 1
ĠWhether 1
Ġodds 1
Ġnoon 1
ĠStr 1
Ġfail 1
iser 1
Ġforever 1
Ġrecall 1
ĠPo 1
ĠHot 1
Ġdesigner 1
ido 1
LL 1
ĠControl 1
Ġsurvive 1
iam 1
Ġorganisation 1
ĠWork 1
Ġwider 1
Ġtank 1
work 1
ĠAS 1
Ġposting 1
Ġsuddenly 1
MC 1
ĠAL 1
ĠProfessor 1
ĠCoach 1
Ġrushed 1
Ġafraid 1
Ġactivist 1
that 1
ĠFilm 1
Ġbacking 1
Ġhousehold 1
Ġsignal 1
Ġaccurate 1
str 1
ĠThread 1
ĠBears 1
ATION 1
ĠAlliance 1
ĠMcDonald 1
ĠVenezuela 1
ogg 1
ĠWindows 1
makers 1
Ġutility 1
Ġrapidly 1
Ġattractive 1
Ġpa 1
ĠLarry 1
Ġmisconduct 1
Ġfreshman 1
Ġqualified 1
Ġcleared 1
Ġcrashed 1
Ġparticipating 1
Ġpages 1
Ġhighlight 1
Ġdialogue 1
ĠAlberta 1
Ġca 1
Ġwitnesses 1
ables 1
Ġfollowers 1
Ġensuring 1
Ġpromoting 1
Ġsearching 1
Ġremote 1
Ġclash 1
Ġfirefighters 1
Ġteen 1
ĠPlace 1
ĠNote 1
Ġregardless 1
ult 1
oney 1
ander 1
ional 1
ining 1
Ġdemanded 1
ĠCommunications 1
Ġconsideration 1
TC 1
ĠSoutheast 1
aga 1
ĠGarden 1
inger 1
ht 1
Ġbranch 1
Ġmouth 1
Ġaudio 1
Ġraw 1
Ġcoordinator 1
Ġexact 1
ĠHan 1
Ġdelays 1
ĠWal 1
ĠWells 1
Ġng 1
Ġhandful 1
Ġgirlfriend 1
Ġtypical 1
ĠWayne 1
ĠFranklin 1
Ġconstitutional 1
ĠChance 1
Ġblamed 1
rim 1
Ġpreliminary 1
Ġlie 1
da 1
ĠCapitol 1
Ġroutine 1
ĠNASA 1
Ġtre 1
ĠGolf 1
Ġsight 1
ĠDer 1
Ġreserve 1
150 1
Ġspeculation 1
Ġcompetitors 1
ĠMacron 1
ony 1
Ġovertime 1
Ġ71 1
Ġdepending 1
ĠWarner 1
Ġaccusations 1
ius 1
Ġpredicted 1
ĠCharlie 1
Ġeverywhere 1
Ġcable 1
ĠSaint 1
ĠRegion 1
Ġhero 1
ĠEmb 1
Ġkinds 1
Ġstarter 1
Ġsolve 1
ĠGuard 1
Ġloves 1
ĠDouglas 1
Ġfunded 1
ĠBrent 1
ĠAnyone 1
Ġsubstantial 1
ĠMarine 1
ĠMichelle 1
Ġcelebrating 1
Ġoffset 1
Ġbutton 1
gg 1
Ġmedicine 1
uri 1
Ġsomewhere 1
PD 1
Ġmon 1
Ġfires 1
final 1
oth 1
ined 1
Ġunderway 1
Ġmistakes 1
Ġgrateful 1
Ġcheap 1
È 1
Ġ95 1
Ġviolations 1
arr 1
Ġsurprising 1
Ġob 1
ĠNATO 1
Ġcontroversy 1
ĠSweden 1
Ġfuneral 1
Ġreviews 1
Ġpromotion 1
TY 1
Ġliberal 1
Ġpromising 1
ĠSP 1
How 1
Ġmemories 1
Ġbreast 1
zi 1
ights 1
Ġpattern 1
Ġoutdoor 1
ĠMu 1
Ġrush 1
ĠTheresa 1
ĠPol 1
Ġdescribe 1
ĠBand 1
ĠStewart 1
Ġ1999 1
ĠRaiders 1
mp 1
Ġprocedures 1
Ġplot 1
Ġhire 1
used 1
Ġ1970 1
Ġpicking 1
ĠSim 1
Ġregard 1
inal 1
backs 1
ĠHard 1
ĠLow 1
ĠAc 1
Is 1
Ġguarantee 1
ĠGiven 1
Ġbeta 1
ĠTre 1
Ġtrans 1
Ġretailer 1
Ġpurposes 1
ĠHol 1
Ġenjoying 1
Ġbrown 1
ĠPerry 1
Ġplea 1
MS 1
ĠDakota 1
ĠParker 1
Ġcommit 1
ĠLawrence 1
ĠMorris 1
ended 1
Ġvirtual 1
ÃĹ 1
Ġfruit 1
84 1
ĠHas 1
ishing 1
Ġdominated 1
ĠFA 1
Ġchannels 1
Ġunderstood 1
Ġcitizen 1
Ġchecks 1
ĠKenya 1
Ġdisabled 1
SD 1
Ġprotecting 1
Ġtweets 1
Ġsparked 1
ĠCO 1
§ 1
ori 1
ĠGDP 1
ĠSer 1
ĠVisit 1
ĠMS 1
Ġbarely 1
Ġsand 1
Ġap 1
aging 1
Ġrel 1
ĠPerhaps 1
ĠMourinho 1
ĠJets 1
Ġdisclosure 1
Ġhighlighted 1
Ġimplemented 1
Ġcompliance 1
ĠAB 1
ĠAssistant 1
ĠCape 1
Ġfunny 1
Ġleverage 1
Ġmachines 1
Ġranging 1
Ġfastest 1
ĠRoberts 1
ĠPolicy 1
gar 1
Ġcollapse 1
ĠThrough 1
Ġrobbery 1
ĠHay 1
Ġelite 1
ĠDigital 1
ĠFun 1
ĠAlan 1
ement 1
Ġmit 1
Ġspin 1
Ġlistening 1
ĠDoug 1
ĠSaints 1
Ġinterior 1
Ġenhance 1
ĠCardinals 1
ever 1
Ġrobust 1
Ġinform 1
Ġsuffer 1
book 1
ĠMuslims 1
Ġagriculture 1
Ġkm 1
Ġdivers 1
Ã± 1
ĠReg 1
Ġequivalent 1
Ġcraft 1
Ġsettle 1
Ġcontains 1
ĠMack 1
ĠDis 1
ĠFore 1
ĠSudan 1
ĠMail 1
ĠBrooklyn 1
izer 1
bn 1
Ġhundred 1
Ġexhibition 1
ĠHave 1
vin 1
Ġcivilians 1
ĠCincinnati 1
Some 1
ĠSE 1
Ġbat 1
ĠIns 1
Ġcalm 1
Ġtone 1
Ġnormally 1
Ġseeks 1
ĠAss 1
Ġmembership 1
Ġannually 1
Ġemployers 1
CO 1
Ġcomplicated 1
Ġheadlines 1
ĠLabor 1
Ġlifestyle 1
ĠRen 1
ĠRich 1
cent 1
ude 1
Ġawesome 1
Ġpaint 1
Ġrolling 1
Ġwalls 1
Ġlab 1
Ġtourists 1
care 1
Ġgear 1
izz 1
Ġcream 1
ĠTro 1
ices 1
Ġpack 1
Ġdiseases 1
ĠSpeaker 1
ĠOfficers 1
Ġsky 1
83 1
ĠBE 1
Ġcategories 1
Ġindicate 1
Ġru 1
ĠSony 1
ĠDun 1
ocks 1
Ġconcrete 1
ĠMadison 1
ĠSab 1
IV 1
Ġobserved 1
ria 1
Ġinterim 1
Ġencounter 1
ista 1
Ġanger 1
Ġrapid 1
mail 1
Ġdestination 1
ĩ 1
Ġbreaks 1
rell 1
ĠChase 1
Ġattorneys 1
Ġrolled 1
ĠSprings 1
ĠVillage 1
TO 1
HS 1
Ġcampaigns 1
ologist 1
ĠTax 1
ĠIII 1
Ġteach 1
Ġprovision 1
Ġrem 1
Ġshirt 1
Ġdeployed 1
Ġguidelines 1
Ġav 1
zer 1
Ġrushing 1
94 1
place 1
Man 1
Ġdivided 1
ĠGun 1
Ġwindows 1
Ġcomponents 1
aba 1
ĠSwitzerland 1
election 1
ĠTampa 1
ĠAri 1
Ã¡s 1
Ġhighway 1
Ġacres 1
Ġcrown 1
known 1
Ġinquiry 1
url 1
Ġexpertise 1
Ġpraised 1
yer 1
Ġconclusion 1
Ġabortion 1
Ġlady 1
Ġtribute 1
Ġunveiled 1
Ġbeaten 1
TE 1
ĠMot 1
unk 1
Ġtriple 1
Ġforcing 1
ĠTickets 1
uit 1
Ġiron 1
Ġscientific 1
ĠIP 1
Ġdiagnosed 1
Ġocean 1
wide 1
ĠCowboys 1
LC 1
Ġmethods 1
ĠFind 1
ĠDean 1
Ġfundamental 1
ĠGill 1
Ġfeelings 1
IO 1
hu 1
Ġfeedback 1
ote 1
Ġduo 1
fully 1
get 1
Ġproof 1
story 1
Ġlongest 1
Ġshops 1
ĠJong 1
ĠCro 1
ĠHawaii 1
91 1
ĠJake 1
ĠSusan 1
Ġsubmit 1
rav 1
Ġmodest 1
Ġlit 1
Ġattempting 1
Ġsits 1
Ġaddressing 1
93 1
ĠBi 1
Ġlying 1
ĠOrganization 1
ĠOak 1
oli 1
Ġfatal 1
Ġmountain 1
val 1
lu 1
ĠMaine 1
Ġcharging 1
Ġresigned 1
illo 1
Ġrecommendation 1
party 1
ĠWeb 1
ĠPanthers 1
Ġnoise 1
ĠBrussels 1
awa 1
Ġambassador 1
Ġaccessible 1
ĠCalgary 1
idd 1
ĠAirlines 1
gr 1
Ġnu 1
roy 1
ĠMars 1
ĠPoland 1
ĠJerry 1
ados 1
ĠRico 1
ĠMir 1
ĠFin 1
ious 1
Ġpacked 1
Ġinsider 1
President 1
ĠBull 1
ĠYemen 1
ĠConnecticut 1
Ġ73 1
Ġdepartments 1
Ġorganic 1
ĠSummer 1
ĠBet 1
ste 1
zo 1
rat 1
Ġalliance 1
Ġintervention 1
wan 1
ĠOR 1
Ġdefined 1
ĠÃł 1
ĠChiefs 1
Ġknocked 1
ared 1
Ġholes 1
Ġpulling 1
ĠTodd 1
ĠJamie 1
ĠSher 1
Ġsignature 1
ĠSur 1
Ġgym 1
ĠVladimir 1
ĠThailand 1
Ġgaming 1
Ġsaving 1
ceive 1
82 1
ĠBern 1
ĠDid 1
Ġhardware 1
ished 1
Ġconspiracy 1
ANS 1
ĠIntelligence 1
Ġassembly 1
Ġ101 1
Ġconcise 1
ĠManhattan 1
Ġbelief 1
Ġsurge 1
Ġdeserve 1
Ġconsistently 1
ĠNor 1
okes 1
ðŁ 1
ME 1
ĠAsset 1
Ġsubstance 1
Ġprefer 1
Ġburning 1
ĠNik 1
ook 1
ĠPinterest 1
Ġboyfriend 1
ĠHal 1
ĠMerkel 1
Ġintroduce 1
ĠLinkedIn 1
ĠFull 1
ĠFarm 1
Ġchildhood 1
ĠTransportation 1
Ġterrible 1
du 1
Ġintention 1
Ġseemingly 1
elle 1
Ġfoods 1
Ġtitled 1
Ġdual 1
Ġimport 1
Ġdeveloper 1
UL 1
ington 1
ĠDelta 1
?' 1
iness 1
Ġquit 1
ĠGarcia 1
ĠSri 1
Ġhip 1
ĠBrazilian 1
elt 1
ively 1
Ġstructures 1
Ġlabour 1
Ġneighbors 1
Ġtill 1
Ġsoil 1
Ġdropping 1
Ġnominee 1
Ġmeets 1
92 1
rant 1
isa 1
Ġluck 1
aa 1
jet 1
ĠTor 1
ĠCrime 1
Ġlane 1
Ġflu 1
Ġlaunching 1
ĠAutom 1
aks 1
Ġuniversities 1
Ġpollution 1
ĠAdvis 1
ĠMall 1
ls 1
Ġdeeper 1
Ġrepeated 1
Ġmeanwhile 1
Ġchip 1
Ġoutlets 1
Ġliked 1
Ġsal 1
Ġwelfare 1
ago 1
Ġmakers 1
ving 1
fer 1
Ġovercome 1
mb 1
Ġshocked 1
akers 1
Ġnonprofit 1
Ġdonated 1
eral 1
Ġresume 1
Ġlogo 1
Ġsubscription 1
Ġ74 1
ela 1
Ġaspect 1
html 1
Ġsorry 1
Ġupgrade 1
Ġstance 1
Ġfr 1
Ġpapers 1
Ġattacking 1
Ġmeaningful 1
81 1
ĠWeinstein 1
Ġcreates 1
Ġhonour 1
ĠReply 1
oph 1
Ġmarch 1
Ġsmile 1
Ġcomparison 1
will 1
ĠSanchez 1
Ġvoter 1
Ġtheory 1
Ġequally 1
ĠRoger 1
Ġperfectly 1
Ġlanding 1
Ġbillions 1
ĠBloomberg 1
Ġpermit 1
Ġfinals 1
Ġracial 1
Ġpregnancy 1
iled 1
ĠFederation 1
Ġforest 1
Ġtag 1
aul 1
Ġdrinks 1
Ġ(" 1
ĠMobile 1
Ġtouched 1
Ġclock 1
Ġreg 1
Ġasylum 1
igan 1
Ġsenator 1
Ġ99 1
ĠKumar 1
Ġskill 1
Ġ1998 1
pa 1
ĠAf 1
Ġmood 1
ston 1
Ġhang 1
ĠMPs 1
Please 1
ĠEve 1
Ġdocumentary 1
Ġpersonality 1
ĠCast 1
Ġdiscount 1
bing 1
ĠBoeing 1
Ġdepend 1
Ġcrossing 1
EX 1
Ġsucceed 1
Ġhumanitarian 1
ĠMuhammad 1
Ġwages 1
Ġcolumn 1
Ġexternal 1
Ġstatistics 1
ĠTODAY 1
Ġtrips 1
Ġta 1
Ġpenalties 1
Ġwriters 1
Ġshipping 1
ĠIndians 1
Ġsalt 1
ĠIndustrial 1
ĠYankees 1
ĠDen 1
Ġrough 1
Ġbarrels 1
ĠHor 1
bert 1
ĠDep 1
Ġresign 1
97 1
Ġballs 1
ĠJun 1
ĠBab 1
Ġassociate 1
Ġstring 1
Ġhub 1
Ġorgan 1
ĠMarshall 1
ĠFIFA 1
ĠMun 1
ency 1
research 1
Ġpeers 1
Ġtall 1
ĠGoldman 1
Don 1
Ġparade 1
Ġparks 1
Ġdet 1
Ġdisappointing 1
Ġreflects 1
ĠLakers 1
Ġfiles 1
Ġrelatives 1
ĠUSD 1
ĠArticle 1
Ġcustom 1
ĠCarlos 1
Ġtracking 1
Ġmaintaining 1
ĠCur 1
ardo 1
ĠSkip 1
Ġattitude 1
Just 1
Ġinstitution 1
Ġnarrow 1
Ġsnap 1
Ġenterprise 1
Ġdrives 1
Ġ77 1
Ġcrop 1
Ġvirus 1
Ġcelebrity 1
Ġeconomies 1
ued 1
Ġsum 1
ĠDubai 1
ĠInsurance 1
Ĺ 1
ury 1
ĠUnfortunately 1
Ġclosure 1
ota 1
ĠPhilip 1
oms 1
Ġinvestigated 1
Ġgenerations 1
ĠETF 1
ĠKeith 1
ĠLater 1
isk 1
Ġpreferred 1
Ġdefault 1
Ġtowns 1
ĠRod 1
ĠDie 1
Ġintegrated 1
Ġacquiring 1
Ġvoices 1
Ġser 1
Ġpresents 1
ĠBR 1
ĠEmergency 1
Ġreligion 1
HA 1
Ġresponding 1
ĠThings 1
Ġbeef 1
ĠWithout 1
urd 1
ĠCarl 1
Ġadministrative 1
ĠWhich 1
Ġchallenged 1
Ġcooking 1
ivid 1
ĠFer 1
Ġtremendous 1
ĠTerry 1
iri 1
CS 1
ĠJunior 1
ĠReddit 1
Ġtea 1
Ġaccounting 1
lan 1
Ġdetention 1
Ġreplied 1
SI 1
ĠHel 1
ns 1
ĠProf 1
Ġramp 1
ĠConservative 1
Ġattendance 1
Ġspecialist 1
ĠFinal 1
Ġadvertisement 1
Ġacquire 1
ĠWhatsApp 1
Ġworkforce 1
ĠCalif 1
Ġspeakers 1
ĠEPA 1
Ġconviction 1
hire 1
ĠFisher 1
ĠIntel 1
Ġbin 1
ĠWas 1
Ġearth 1
vi 1
Ġhurricane 1
Ġholidays 1
Ġassume 1
Ġinvolve 1
Ġdynamic 1
ĠGre 1
Ġitem 1
Ġpound 1
Ġanxiety 1
ĠPrint 1
rop 1
Ġautomatically 1
Ġdiscrimination 1
ĠLam 1
ĠColl 1
Ġimpressed 1
Ġinvolves 1
ĠLes 1
ĠTri 1
ĠLook 1
ĠiOS 1
Ġgrab 1
ĠAngel 1
Ġstops 1
ĠPay 1
ĠECB 1
Ġbunch 1
Ġletting 1
ele 1
ĠAdditionally 1
Ġboards 1
NC 1
Ġtragedy 1
Ġpink 1
Ġgonna 1
ones 1
Ġrev 1
ĠIndependent 1
ĠCambridge 1
ĠPence 1
Ġprosecution 1
Ġdeputies 1
ĠAhmed 1
Ġlows 1
ĠAmy 1
ĠBuilding 1
mark 1
Ġsmooth 1
Ġsole 1
Ġwanting 1
ĠHeart 1
Ġobtain 1
ĠBus 1
Ġexchanges 1
friendly 1
Ġlabel 1
elect 1
ĠCompanies 1
owing 1
ĠCB 1
RI 1
ĠMaster 1
Ġliquid 1
ĠDanny 1
Ġproceeds 1
ĠLaura 1
card 1
Ġtears 1
Ġexploration 1
Ġdepression 1
ken 1
ĠFe 1
Ġlending 1
ĠYouth 1
ality 1
NS 1
Ġmoon 1
ĠTaiwan 1
Ġstruggles 1
Ġdiscovery 1
Ġqualify 1
Ġwireless 1
alia 1
Ġwitnessed 1
Ġheight 1
ĠGuy 1
left 1
KE 1
Ġfoul 1
ĠMohammed 1
Ġgrass 1
ĠNon 1
Ġswim 1
Ġbrilliant 1
you 1
ĠFlynn 1
Ġsinging 1
eria 1
UT 1
ĠMcCain 1
ĠSep 1
ĠWars 1
Ġburden 1
Ġpas 1
Ġabandoned 1
Ġint 1
ĠTurner 1
Ġcollective 1
ĠEnvironmental 1
ĠStudents 1
Ġofferings 1
Ġresignation 1
Ġexplosion 1
ĠKoh 1
ager 1
Ġthrows 1
Ġasks 1
light 1
Ġanyway 1
Ġyard 1
Ġcarrier 1
Ġwaves 1
backed 1
TR 1
oud 1
Ġbreach 1
Ġdated 1
Ġdressed 1
ĠDodgers 1
oles 1
Ġ78 1
Ġreads 1
Ġpredict 1
ĠJerusalem 1
ĠPT 1
Ġcrack 1
yan 1
Ġnights 1
eline 1
Ġconvinced 1
Ġlock 1
Ġcarefully 1
ĠMercedes 1
Ġultimate 1
Ġdist 1
Ġslight 1
ĠEdwards 1
Ġswing 1
iling 1
Ġknife 1
ĠNashville 1
IF 1
inder 1
udd 1
Ġsenators 1
ĠFurther 1
ĠXi 1
Ġstr 1
ĠOd 1
days 1
Ġcomm 1
Ġverdict 1
Ġconfirmation 1
king 1
ĠCS 1
Ġadvocates 1
Ġpride 1
Ġmemorial 1
ams 1
erman 1
Ġteenager 1
ĠNeil 1
uts 1
Ġsoul 1
see 1
post 1
Ġchest 1
fire 1
ĠLynch 1
Ġpeaceful 1
OND 1
ĠIndustries 1
ĠJuan 1
Ġrestore 1
Ġreliable 1
ming 1
agan 1
Source 1
ĠCabinet 1
Ġremarkable 1
ĠTrudeau 1
ĠEs 1
Ġintegrity 1
ove 1
fe 1
Ġproceedings 1
Ġconnections 1
Ġunprecedented 1
ĠGlen 1
ux 1
Ġearning 1
Ġingredients 1
Ġnominated 1
ĠBangladesh 1
made 1
Ġlessons 1
Ġbreakfast 1
ĠRelations 1
Ġloose 1
Al 1
Ġupgraded 1
ral 1
ĠPage 1
oto 1
ĠQueensland 1
Ġprocedure 1
ĠSmall 1
Ġrespective 1
Ġpictured 1
ĠBas 1
Ġpreparation 1
ĠMyanmar 1
Ġdonation 1
Ġvisible 1
iest 1
ĠBroadway 1
rick 1
ĠSchools 1
Ġarrests 1
ĠJessica 1
ĠBengal 1
Ġhell 1
Ġannouncing 1
Ġmail 1
ĠMcG 1
two 1
rest 1
OD 1
ĠBradley 1
Ġdoubled 1
Ġpledged 1
Ġcomeback 1
Ġextraordinary 1
Ġslide 1
Ġassess 1
Ġagricultural 1
ĠKay 1
Ġvendors 1
Ġnarrative 1
Ġreviewed 1
ĠPass 1
Ġinspiration 1
ĠHunter 1
Ġcalendar 1
ĠDiamond 1
Ġremoval 1
ners 1
ĠKap 1
Ġconsent 1
Ġvisual 1
Ġcheese 1
ĠTher 1
ĠFR 1
ĠShanghai 1
iah 1
ĠCole 1
AK 1
Ġranking 1
Ġcook 1
Ġhalftime 1
ĠStars 1
Ġroutes 1
aim 1
Ġestablishment 1
ĠMug 1
Ġsurvivors 1
urg 1
ĠBrett 1
Ġunexpected 1
ained 1
Ġrarely 1
ĠGall 1
Ġadvocate 1
ĠNad 1
Ġ911 1
Ġracist 1
erer 1
ĠRev 1
ĠSection 1
Ġhelpful 1
CT 1
agg 1
Ġgovernance 1
Ġfelony 1
Ġoptimistic 1
Ġelectoral 1
EG 1
town 1
Ġdaughters 1
Ġanswered 1
Ġthin 1
ĠClassic 1
Ġshareholder 1
ĠBlake 1
ĠFla 1
Ġparliamentary 1
dy 1
Ġcommented 1
Ġtri 1
Ġglobe 1
Ġmandate 1
Ġslipped 1
ĠTower 1
Ġoperated 1
gers 1
Ġassured 1
ĠMartinez 1
Ġdesigns 1
ĠModel 1
Ġstakeholders 1
Ġdefended 1
Ġseniors 1
Ġvacation 1
Ġglobally 1
ump 1
Not 1
Ġclip 1
Ġarticles 1
BR 1
km 1
ĠFront 1
PL 1
Ġadoption 1
Ġsudden 1
Ġframework 1
Ġhanging 1
gl 1
ĠSel 1
Ġmoderate 1
Ġreverse 1
income 1
cor 1
ĠGB 1
Ġphysically 1
Ġtransparency 1
ĠElectric 1
Ġrefugee 1
profile 1
iva 1
ately 1
ĠAC 1
Ġtransferred 1
Ġaffair 1
ĠAlaska 1
oria 1
ĠChange 1
Ġrepeat 1
Ġscreening 1
ender 1
ĠCas 1
ĠDav 1
Ġfocuses 1
Ġcommissioner 1
Ġupside 1
ĠKeep 1
ĠBlues 1
ently 1
Ġaut 1
Ġexperiencing 1
aman 1
Ġapprove 1
Ġmile 1
Ġcheaper 1
ĠWind 1
ĠStore 1
Ġgrabbed 1
Ġsons 1
Ġfighter 1
Ġum 1
ĠBased 1
don 1
Ġconstitution 1
finals 1
act 1
¢ 1
Ġmill 1
Ġorganisations 1
ĠToyota 1
Ġyuan 1
Ġterrorists 1
Ġforth 1
Ġavailability 1
Ġentrance 1
Ġvolumes 1
Ġmult 1
plus 1
ĠColumbus 1
ĠSummit 1
Ġbabies 1
ĠMur 1
ĠGray 1
ĠChar 1
ĠButler 1
Ġpose 1
ĠNatural 1
ĠAtt 1
Ġdecrease 1
Ġtens 1
kt 1
Ġminds 1
Ġimpacted 1
Ġchapter 1
ĠOp 1
ĠHarrison 1
ĠRodriguez 1
Ġethnic 1
Ġtravelling 1
ĠBond 1
ader 1
core 1
Ġgallery 1
founder 1
ĠVill 1
Ġdecent 1
ĠHistory 1
ĠInt 1
ĠNa 1
ĠHad 1
Ġmainstream 1
ĠTs 1
Ġbottle 1
sen 1
Ġrecession 1
Ġsophomore 1
Ġsilence 1
cc 1
Ġqualifying 1
Ġcomplained 1
ĠRad 1
Ġactively 1
Ġbacks 1
ĠMusk 1
Ġcareful 1
Ġmeals 1
ĠDor 1
Ġmess 1
ĠBelgium 1
Ġke 1
ĠLopez 1
Ġbow 1
Ġhelicopter 1
was 1
Ġstone 1
kins 1
Ġunlike 1
Ġcollision 1
ĠAlt 1
HP 1
ĠMason 1
has 1
Ġclimbed 1
Ġindication 1
Ġhotels 1
Ġloud 1
ĠMilan 1
kes 1
Ġbadly 1
Ġtrials 1
Ġimpacts 1
ĠJane 1
Ġcrossed 1
Ġdiscussing 1
ĠSM 1
Ġpopularity 1
ĠWant 1
fall 1
Ġartificial 1
ĠBu 1
akh 1
Ġdominant 1
gov 1
Ġpremier 1
Ġexecution 1
gate 1
Ġswimming 1
Ġchat 1
Ġdevastating 1
acking 1
Ġreception 1
urt 1
Ġtheater 1
Ġgather 1
Ġtear 1
uro 1
Ġdemocratic 1
Ġrebels 1
Ġlifetime 1
Ġradical 1
uan 1
Ġtechniques 1
ache 1
ior 1
Ġcamps 1
Ġtelephone 1
ĠDublin 1
ĠBrand 1
ĠMarcus 1
aun 1
ĠRec 1
Ġ82 1
ban 1
Ġsafely 1
aku 1
aki 1
Ġbankruptcy 1
FF 1
Ġformat 1
Ġattached 1
ĠFame 1
ĠEdward 1
Ġmerger 1
ĠRepresentatives 1
izes 1
Ġhidden 1
Ġval 1
zz 1
Ġexcess 1
Ġscope 1
Ġdivorce 1
Ġburn 1
Ġrequirement 1
BB 1
ĠHand 1
Ġcons 1
Ġrisen 1
Ġtwitter 1
Ġoffseason 1
ĠSometimes 1
ĠInf 1
ĠAng 1
uer 1
report 1
Ġdreams 1
Ġ700 1
ips 1
ĠDream 1
Ġgifts 1
Ġsomehow 1
ĠTur 1
ĠRachel 1
can 1
Ġlog 1
ĠMedicaid 1
Ġles 1
Ġtired 1
ĠArkansas 1
Ġliquidity 1
ĠPhillips 1
ĠBTC 1
Ġhide 1
Ġpun 1
ĠRun 1
lyn 1
ĠUC 1
ĠDesign 1
ĠDev 1
Ġvaluation 1
Ġreveals 1
ĠChild 1
other 1
Ġposed 1
lee 1
Ġships 1
ĠTrue 1
Ġdescribes 1
Ġrunner 1
bro 1
Ġankle 1
Ġod 1
ĠAnnual 1
CL 1
Ġoverhaul 1
ned 1
Ġbold 1
Ġmo 1
ĠFalls 1
Ġemployed 1
ĠGro 1
Ġflash 1
ĠTD 1
Ġnervous 1
Ġintegration 1
Ġsmartphones 1
Ġmovements 1
nie 1
ition 1
ĠThird 1
Ģ 1
Ġmetres 1
Ġeconomist 1
omp 1
Ġteens 1
Ġeveryday 1
Ġinterviewed 1
Ġbriefly 1
], 1
uke 1
ĠFOX 1
Ġunderlying 1
ĠLuc 1
Ġcourses 1
ss 1
amed 1
° 1
ju 1
ĠBanks 1
Ġoutfit 1
illing 1
Ġtrafficking 1
Ġurging 1
Ġbelt 1
Ġrid 1
CP 1
Ġelderly 1
ĠGrowth 1
Ã¡n 1
ĠSn 1
Ġsurrounded 1
Ġsisters 1
ĠIslam 1
Ġsynd 1
ĠCosta 1
di 1
ĠKl 1
Ġmanufacturer 1
holders 1
Ġelement 1
Ġload 1
Ġbooked 1
Ġaccompanied 1
ĠChamber 1
Ġbriefing 1
Oh 1
imi 1
ĠDefence 1
ĠCurrently 1
aking 1
Ġhandled 1
ĠCD 1
ĠBenjamin 1
Ġpocket 1
ĠKashmir 1
Ġlighting 1
aps 1
Ġ1997 1
ech 1
Ġaddiction 1
Ġbases 1
Ġpriorities 1
Ġhardly 1
ĠQuebec 1
ĠEarn 1
IES 1
ĠZach 1
ĠAlong 1
MI 1
Ġins 1
ĠRogers 1
ĠKan 1
ĠFuture 1
Ġtriggered 1
ĠUnit 1
Ġweighed 1
Ġpointing 1
Ġchocolate 1
ĠBrowns 1
ĠISIS 1
Ġgoalkeeper 1
Ġsaves 1
ĠAndre 1
burn 1
ĠCont 1
ĠNetherlands 1
Ġpolitically 1
ĠAshley 1
ĠWhit 1
aded 1
PH 1
Ġborders 1
ORE 1
Ġally 1
Trump 1
istan 1
ĠHunt 1
ĠCancer 1
ĠGrace 1
ĠTottenham 1
Ġ1960 1
ĠMarg 1
ĠBryan 1
ĠAgain 1
acing 1
Ġarguments 1
ĠSouthwest 1
Ġvocal 1
Ġjudgment 1
Ġengaging 1
Ġadopt 1
Ġrental 1
Ġlinebacker 1
ĠKardashian 1
Ġepisodes 1
.. 1
Ġunt 1
Ġvowed 1
Ġ79 1
ule 1
Ġtransit 1
Ġoffshore 1
Ġsuppliers 1
Ġarguing 1
Ġsatellite 1
ĠLind 1
ĠTaliban 1
Buy 1
ĠCaribbean 1
ĠBarry 1
Ġauthors 1
ĠWolf 1
Ġviewing 1
ĠCubs 1
From 1
Ġ% 1
Ġcurrencies 1
Why 1
ĠBroncos 1
Ġtrick 1
Ġdiesel 1
ĠLiberal 1
FL 1
Ġtopics 1
Ġretain 1
ĠLiberty 1
Ġacquisitions 1
ced 1
Ġfre 1
Ġfleet 1
Ġcopper 1
ĠPot 1
jen 1
ĠElliott 1
ĠPyongyang 1
Ġobject 1
ĠUse 1
Ġmutual 1
MP 1
Ġev 1
Ġdeny 1
ĠEveryone 1
lling 1
Ġpays 1
Ġdrought 1
Ġcorn 1
Ġworkplace 1
rig 1
ĠMn 1
Ġadvisory 1
ĠCat 1
Ġchronic 1
ĠSteelers 1
Ġboxes 1
ĠNap 1
Ġdemonstrated 1
ĠTournament 1
Ġsymbol 1
ĠAfghan 1
ĠTan 1
ired 1
ĠEv 1
ĠConsumer 1
Ġmoral 1
ĠAdditional 1
Ġwebsites 1
Ġoccasions 1
Ġfate 1
Ġpitcher 1
Ġtaxpayers 1
Ġdeemed 1
ĠLibya 1
Ġpriced 1
Ġdistributed 1
ĠForum 1
Ġrice 1
Ġbloc 1
Ġprovisions 1
agh 1
Ġpen 1
Ġattracted 1
ĠEdmonton 1
Ġthousand 1
Ġpainting 1
Ġil 1
Ġcourtesy 1
Ġeliminate 1
Ġacc 1
Ġmeters 1
Ġreflected 1
Ġcomponent 1
Every 1
Ġsells 1
Ġfault 1
Ġburned 1
ĠKirk 1
ĠAnna 1
Ġappeals 1
Ġeggs 1
Ġfrequent 1
Ġtrigger 1
Ġrevised 1
ĠAngela 1
Ġ81 1
Ġsingles 1
Ġviral 1
Ġworries 1
ĠShould 1
profit 1
Ġraises 1
ĠBryant 1
ĠProduct 1
Ġtenure 1
Ġdiabetes 1
Ġcolour 1
azz 1
ĠGirls 1
Ġpractical 1
Ġblind 1
ancing 1
pictured 1
Ġfinale 1
ĠElection 1
Ġathletic 1
Ġpromoted 1
Ġflowers 1
Ġtrains 1
ario 1
Ġsufficient 1
IE 1
Ġexamples 1
Ġshed 1
Ġbirds 1
Ġchaos 1
Ġwound 1
Ġrocket 1
Ġwet 1
Ġsample 1
ĠNag 1
ĠOliver 1
Ġscrutiny 1
ĠSeven 1
ĠRoman 1
ĠFred 1
Ġweird 1
ĠTam 1
ĠSupport 1
ĠNathan 1
Ġstudying 1
Ġintroduction 1
Ġtons 1
cer 1
aus 1
ION 1
Ġcritic 1
ĠAh 1
alo 1
pur 1
Ġstorms 1
ĠMission 1
Ġcredits 1
Ġgrants 1
Ġcomp 1
Ġhearts 1
part 1
Ġpin 1
Ġsubsequent 1
Ġmad 1
ĠSacramento 1
woman 1
from 1
Ġoutcomes 1
Ġoldest 1
Ġdesperate 1
ĠTal 1
ĠDJ 1
ward 1
Ġaudiences 1
Ġimportantly 1
ĠEmily 1
sk 1
ĠHeat 1
ĠType 1
ĠPeace 1
Ġsuspicious 1
aly 1
ĠGET 1
ĠCAP 1
dis 1
ĠIraqi 1
ĠReed 1
Ġstrange 1
ĠParent 1
900 1
Ġglad 1
ĠTroy 1
ĠShort 1
Ġheritage 1
Ġarriving 1
ingly 1
Ġtransformation 1
Ġlease 1
Ġcollapsed 1
cha 1
ĠPatrol 1
Ġcomputers 1
Ġprinciples 1
Ġsporting 1
ĠHughes 1
mile 1
ĠCit 1
Ġdrilling 1
ĠBox 1
ÃŁ 1
bre 1
ĠOverall 1
Ġopioid 1
Ġdelighted 1
Ġhonored 1
ĠCold 1
Ġunions 1
ĠCou 1
ĠCircuit 1
Ġblast 1
sson 1
ĠHernandez 1
ĠLooking 1
Ġlegally 1
ĠWalmart 1
bridge 1
Ġmat 1
rad 1
ids 1
Ġdining 1
Ġrebound 1
abad 1
ĠRom 1
Ġimpose 1
ĠAlpha 1
ĠWeekly 1
TER 1
ĠJam 1
Ġabsolute 1
Ġinventory 1
ĠBilly 1
ĠKaren 1
ĠFriends 1
ĠCent 1
ĠVikings 1
ĠMuch 1
cell 1
ads 1
Ġph 1
Ġkiller 1
ĠMembers 1
Ġshooter 1
ĠInvestigators 1
ĠJoshua 1
Ġparticipated 1
Ġinnocent 1
ĠRichmond 1
itor 1
ĠDal 1
ĠOperator 1
Ġmakeup 1
Ġconf 1
ĠNEWS 1
ĠDef 1
Ġchase 1
ĠCost 1
mont 1
": 1
Ġarrangements 1
stein 1
Ġretire 1
ĠLuis 1
Ġrenewed 1
ĠTownship 1
Ġchecked 1
arts 1
ĠCash 1
Ġcentres 1
chers 1
ĠSolutions 1
Ġlegend 1
ige 1
most 1
osed 1
ĠPor 1
Ġpremiere 1
FS 1
Ġmissiles 1
ĠLang 1
Ġsing 1
best 1
Ġtail 1
Ġriders 1
Picture 1
zen 1
ĠKent 1
Ġtransform 1
Ġwildlife 1
Ġsmoking 1
Ġpreseason 1
ĠLucas 1
ĠAnne 1
owski 1
Ġtape 1
Ġdisplayed 1
Ġforum 1
Ġanonymity 1
ĠIndianapolis 1
hips 1
acc 1
ĠMoreover 1
lers 1
area 1
ĠIndeed 1
Ġconducting 1
Ġinfection 1
Ġdealt 1
OB 1
asing 1
ĠGaza 1
itter 1
ĠKa 1
Ġhopeful 1
ĠSnow 1
Ġentitled 1
Ġaffecting 1
Ġeager 1
Ġcircle 1
Ġlaugh 1
ĠProsecutors 1
ĠDur 1
Ġbarriers 1
ĠPoll 1
oun 1
ĠPalm 1
chi 1
Ġsamples 1
Ġcompromise 1
atter 1
Ġenormous 1
ĠÃ© 1
coming 1
ĠPharmaceutical 1
Ġrank 1
Let 1
Ġtransgender 1
ĠCloud 1
FO 1
ĠBor 1
Ġbonus 1
Ġordinary 1
ĠPres 1
ĠHIV 1
ires 1
OSE 1
Ġdancing 1
ĠHD 1
Ġversions 1
Ġ88 1
rate 1
Ġtackles 1
Ġknock 1
ĠEmma 1
Ġmotivated 1
ĠBennett 1
ĠBurn 1
Ġgrid 1
Ġembrace 1
ĠSpurs 1
Ġflows 1
ĠGer 1
Ġsponsored 1
Ġsurvival 1
ching 1
Ġ1995 1
Ġreward 1
Ġdepends 1
Ġpostseason 1
Ġloaded 1
Ġneutral 1
ĠPop 1
BL 1
Ġrevolution 1
ĠFreedom 1
Ġrecovering 1
Ġrequiring 1
ALL 1
ARE 1
Ġmini 1
lt 1
ĠFDA 1
Ġcarpet 1
ĠPrior 1
Ġadmission 1
ĠEver 1
ĠTribune 1
ĠRonaldo 1
Ġthick 1
Ġlanes 1
Ġ84 1
ĠMemphis 1
Ġopt 1
BO 1
Ġfaculty 1
ĠChad 1
ĠSUV 1
ĠHen 1
Ġeste 1
ĠHu 1
ĠAgriculture 1
store 1
ĠDrug 1
inter 1
Ġ1996 1
ident 1
Ġbackup 1
ĠHonda 1
ĠHope 1
oes 1
ums 1
amer 1
Ġbreath 1
Ġ110 1
Ġjoke 1
ĠAld 1
Ġwondering 1
ĠAssad 1
ĠRem 1
Ġfundraising 1
pot 1
Ã¨ 1
Ġquestioning 1
Ġpent 1
ĠMoney 1
ĠMedicine 1
wick 1
ĠKnights 1
Ġbatting 1
ĠMos 1
Ġdesignated 1
isse 1
Ġspotlight 1
Ġlake 1
Ġcaution 1
Ġinmates 1
Ġlap 1
CE 1
ĠJavascript 1
ĠDeutsche 1
ĠFargo 1
Ġguaranteed 1
borough 1
Ġfunctions 1
ĠElementary 1
ĠChuck 1
Ġpitched 1
ĠKrist 1
Ġsteal 1
Ġchips 1
Ġalarm 1
Ġbeloved 1
scale 1
Ġassaulted 1
ĠPentagon 1
Ġtemporarily 1
Ġ93 1
Ġ> 1
ĠPortugal 1
ti 1
HL 1
Ġdecreased 1
Ġexistence 1
Ġisolated 1
Ġdeposit 1
Ġstudied 1
") 1
Ġtrophy 1
ĠBrooks 1
Ġbattling 1
Ġweaker 1
ĠPrivate 1
ĠAccess 1
Ġvirtually 1
Ġshortage 1
Ġgaining 1
Ġbathroom 1
TON 1
Ġconcerning 1
Ġengineer 1
Ġbread 1
Ġdemonstrate 1
ĠDh 1
Ġhorses 1
Ġintersection 1
Ġcolors 1
Ġdelegation 1
Ġnotable 1
Ġwithdrawal 1
ĠDennis 1
Ġlocally 1
Ġcoastal 1
Ġcomply 1
ĠMoh 1
ĠAlbert 1
Ġclosest 1
ĠCITY 1
Ġ83 1
Ġcancelled 1
ĠðŁ 1
Ġsharply 1
RS 1
Ġproductivity 1
Ġbasket 1
SS 1
Ġadmit 1
ool 1
ination 1
ĠBB 1
Ġsur 1
ĠSteel 1
ĠTed 1
ĠPac 1
Ġpatterns 1
Ġlisting 1
Ġreplacing 1
ĠPradesh 1
Ġroots 1
Ġbroker 1
ĠWriting 1
Ġsued 1
Ġorganised 1
ĠThanksgiving 1
ĠNOT 1
Ġjournalism 1
uel 1
Ġkilometers 1
Ġhunt 1
berry 1
ĠMother 1
Ġlegitimate 1
Ġinput 1
ĠRel 1
ĠGuardian 1
Ar 1
Ġtransported 1
Ġbedroom 1
ashing 1
Ġbats 1
Ġcleaning 1
Ġwrapped 1
Pacific 1
Ġfence 1
Ġtestified 1
Ġ1994 1
Ġinterference 1
Ġmatching 1
Ġexpression 1
eta 1
ĠSpencer 1
Ġstrategist 1
who 1
Ġvictories 1
Ġ2022 1
Ġstakes 1
Ġbuses 1
ĠHousing 1
Ġeditorial 1
Ġ86 1
ĠBishop 1
Ġfrustrated 1
Ġappearing 1
http 1
IGHT 1
Ġmemo 1
Ġinsiders 1
Even 1
Ġclassroom 1
Ġchef 1
aining 1
]. 1
ĠMcD 1
Ġ87 1
ĠPunjab 1
Ġancient 1
Ġresolved 1
Ġdying 1
Ġdestruction 1
Ġgoverning 1
Ġrestructuring 1
ĠPick 1
Ġmunicipal 1
Ġengines 1
ĠHudson 1
Æ 1
Ġrepeal 1
standing 1
Ġbound 1
ĠOS 1
ĠCommonwealth 1
Ġdescription 1
Ġhouseholds 1
Ġmal 1
Ġstopping 1
equ 1
Ġregulator 1
Ġcontaining 1
Ġremoving 1
Ġwithdraw 1
Ġburied 1
Ġlists 1
ĠGil 1
Ġlowered 1
Ġformally 1
ĠRound 1
asi 1
¥ 1
lett 1
Ġprogressive 1
ĠFalcons 1
ĠRaw 1
gun 1
Ġcontributing 1
Ġhunting 1
Ġvalid 1
Ġexception 1
ĠPlayers 1
ĠTra 1
Ġracism 1
hing 1
chen 1
Ġdifferently 1
Ġchampionships 1
ĠEng 1
ĠNO 1
ĠAuto 1
ĠErdogan 1
iding 1
Ġwarming 1
Ġcivilian 1
ĠDam 1
Ġfantasy 1
ĠNav 1
itions 1
ĠDrew 1
ĠNancy 1
Ġtrapped 1
ĠRussians 1
ĠIC 1
Ġflexibility 1
ular 1
Ġviolated 1
ipped 1
Ġgarage 1
ĠDeep 1
Ġpraise 1
ĠLab 1
ĠPlayer 1
Ġjudicial 1
Ġdonate 1
Ġseparated 1
Ġreleases 1
nik 1
Ġexplanation 1
aph 1
Ġloyal 1
Ġstrongest 1
ĠShar 1
Ġrescued 1
Ġambitious 1
Ġclimb 1
Ġscared 1
Ġignored 1
cut 1
Ġstole 1
Ġweakness 1
ĠRidge 1
oa 1
LA 1
Ġdep 1
ĠPowell 1
Do 1
Ġprotein 1
Ġreiterated 1
ĠCox 1
aling 1
ĠUnlike 1
ĠKane 1
ĠMcConnell 1
Ġshowcase 1
Ġuniform 1
ower 1
Ġdiscover 1
stop 1
ipper 1
Ġtreatments 1
Ġgrocery 1
Ġsubscribers 1
lock 1
ple 1
Ġflew 1
ania 1
Ġstepping 1
ĠSoviet 1
Ġconsultant 1
ags 1
ĠLim 1
Ġ91 1
ĠCode 1
ports 1
box 1
Ġlakh 1
Ġreminder 1
ym 1
ĠTravis 1
Ġpure 1
now 1
ĠVR 1
Ġachievement 1
ĠEmirates 1
ĠThunder 1
Ġmerely 1
ĠCa 1
ĠAverage 1
ĠDa 1
Ġtopped 1
ĠCurry 1
Ġchemicals 1
Ġamendment 1
ĠBorder 1
ĠBat 1
Ġ130 1
Ġprogramming 1
Ġtele 1
ĠKarl 1
Ġaveraged 1
ĠSpe 1
world 1
PG 1
Ġfights 1
ĠPrincess 1
ĠCIA 1
ĠAbe 1
Ġacted 1
only 1
Ġinsight 1
Ġathlete 1
ĠTar 1
commerce 1
Ġaveraging 1
cr 1
ĠPalestinians 1
Well 1
Ġbull 1
Ġchoosing 1
Ġsurely 1
ĠSecret 1
Ġteammate 1
ĠAmendment 1
ĠBirmingham 1
Ġexcitement 1
strong 1
ĠSin 1
Ġdamages 1
rated 1
Ġrankings 1
Ġconservation 1
home 1
erm 1
ield 1
Ġdisorder 1
acher 1
Ġnaturally 1
atur 1
Ġpackages 1
Ġapproaches 1
icks 1
ourn 1
Ġodd 1
Ġshore 1
ĠBeing 1
Ġmagic 1
Ġtourist 1
largest 1
Ġwhenever 1
Ġlenders 1
Ġegg 1
ĠChair 1
Ġlets 1
Ġwarnings 1
į 1
Ġpol 1
Ġdrag 1
ĠAmb 1
ĠCle 1
ĠLouisville 1
ĠShaw 1
lands 1
Ġanthem 1
ĠTrail 1
Ġaccepting 1
anger 1
good 1
ĠBroad 1
ĠLebanon 1
ĠMillion 1
ĠHenderson 1
Ġwh 1
Ġdust 1
Ġ92 1
ĠMend 1
Ġchecking 1
ĠCow 1
sized 1
Ġautomatic 1
Ġcelebrates 1
Ġarena 1
Ġfinger 1
ĠHarvard 1
Ġfrustration 1
Ġstrict 1
Ġpreserve 1
Ġsleeping 1
Ġconverted 1
Ġinsights 1
Ġtra 1
Ġjailed 1
Ġchamber 1
Ġtoxic 1
ading 1
ĠTriple 1
grade 1
ĠRest 1
ĠHoly 1
oper 1
Ġdesk 1
Ġmatchup 1
Ġsteep 1
ĠGot 1
lay 1
ĠCab 1
aked 1
ĠFoster 1
Ġrunners 1
ĠNA 1
Ġdestroy 1
Ġsupportive 1
ĠRacing 1
Ġtrademark 1
Ġjacket 1
Ġhorror 1
ĠAle 1
Ġass 1
Ġsch 1
abb 1
Ġplanes 1
Ġimpression 1
ĠEarly 1
ĠPompe 1
Ġking 1
Ġsilent 1
ĠCuba 1
Ġmedication 1
ences 1
list 1
ailing 1
WA 1
ella 1
Ġprop 1
Ġhalt 1
Ġslowing 1
ĠFoods 1
Ġanonymous 1
kh 1
Ġtraveled 1
Ġcommunicate 1
Ġter 1
ĠHockey 1
ĠRobin 1
Ġswept 1
Ġclinic 1
ration 1
len 1
Ġau 1
Ġcareers 1
ĠSound 1
Ġaddresses 1
China 1
ĠSr 1
Ġexhibit 1
ĠMotors 1
ĠIl 1
Ġinstall 1
ĠOkay 1
Ġ>> 1
hood 1
stand 1
Ġaudit 1
Ġcake 1
Ġflames 1
bel 1
ĠMust 1
ĠManafort 1
Ġcommodity 1
night 1
ĠRoom 1
ĠLanka 1
Ġcommander 1
ln 1
Ġdatabase 1
ĠSet 1
Ġgraduated 1
ĠTarget 1
Ġoutbreak 1
rou 1
ĠPope 1
ĠEqu 1
Ġpolling 1
Ġdig 1
Ġbrutal 1
ĠBarn 1
Ġdefinition 1
Ġpit 1
Ġpickup 1
ĠBitcoin 1
ĠReid 1
Ġloving 1
ĠHerald 1
ĠCanadians 1
Ġneighbor 1
Ġdies 1
ione 1
ĠRef 1
big 1
Ġguards 1
including 1
ente 1
Ġpartially 1
Image 1
Ġbulk 1
Ġslot 1
ĠNorthwest 1
ĠBarclays 1
Ġairlines 1
iver 1
isi 1
Ġsubsidiary 1
Ġcont 1
ĠDaniels 1
Ġscript 1
Ġunfair 1
Ġscreens 1
Ġprof 1
ĠIrma 1
Ġ1992 1
Ġmandatory 1
ĠSant 1
Ġsuspicion 1
NES 1
ĠLauren 1
igen 1
Ġprevention 1
Ġtension 1
ema 1
Ġtasks 1
Ġshake 1
Ġexplosive 1
Ġaffects 1
Ġmum 1
ĠDog 1
rer 1
Ġopted 1
Ġtrio 1
Ġlesson 1
Ġautomotive 1
where 1
ĠMontgomery 1
Ġcouples 1
Ġ89 1
AF 1
Ġinfo 1
ĠForm 1
Ġspectrum 1
Ġbands 1
Ġokay 1
Ġstroke 1
ĠNetanyahu 1
Ġwealthy 1
ĠAround 1
ĠGlenn 1
sec 1
there 1
ickets 1
ĠBudget 1
ĠBMW 1
Ġflagship 1
rier 1
Ġpodcast 1
Ġpursuing 1
Ġpos 1
ĠIslands 1
ĠUrban 1
page 1
Ġemotions 1
ided 1
Ġdividends 1
Ġboom 1
Ġaccusing 1
ird 1
ĠNam 1
ava 1
Ġwishes 1
ĠNy 1
ĠStanford 1
Ġcriteria 1
ĠJews 1
Ġengineers 1
Ġaccuracy 1
Ġdisplays 1
Ġdeserves 1
ridge 1
omm 1
aur 1
Ġdramatically 1
Ġunity 1
speed 1
Ġdeclining 1
Ġpermits 1
ĠKn 1
Ġconsulting 1
aux 1
ATE 1
ĠWat 1
ĠEditor 1
sy 1
urn 1
ĠUsing 1
asc 1
ital 1
Ġcre 1
quality 1
Ġce 1
Ġenemy 1
Ġoffence 1
icket 1
ĠDick 1
ĠTH 1
ĠChampionships 1
Ġoverwhelming 1
rib 1
ku 1
rap 1
Ġhomer 1
acion 1
member 1
erv 1
aney 1
MB 1
eded 1
Ġpunishment 1
Ġnegotiate 1
ĠFile 1
stream 1
ĠHur 1
Ġnose 1
ĠFab 1
iter 1
Ġpainful 1
ITY 1
eren 1
Ġcollecting 1
Additional 1
Ġentrepreneurs 1
bal 1
Ġexploring 1
Ġguitar 1
Ġpartnerships 1
Ġfurniture 1
Ġauthorized 1
Ġeasing 1
shirt 1
ĠGross 1
Ġpolitician 1
ĠSimpson 1
Ġdrone 1
ĠKatie 1
Ġprofitability 1
ĠNHS 1
ĠSierra 1
ĠNorway 1
ASHINGTON 1
ific 1
Ġcondemned 1
team 1
ĠNebraska 1
Ġthrilled 1
iller 1
Ġpatrol 1
ĠWR 1
orm 1
Ġspectacular 1
ĠKnight 1
ĠTravel 1
nam 1
Ġmuscle 1
ĠRain 1
ĠColombia 1
Ġnursing 1
Ġmigration 1
ĠMitch 1
Ġreleasing 1
ĠBesides 1
ĠMul 1
Ġheadline 1
Ġcontemporary 1
Ġdev 1
ĠChan 1
Ġindicates 1
ĠAp 1
ĠLt 1
ĠMarvel 1
Ġremembered 1
Â® 1
ĠForces 1
ĠColin 1
ĠGabriel 1
Ġobjects 1
ĠRHP 1
kar 1
ĠKo 1
Ġsignals 1
Ġinner 1
real 1
RO 1
Ġromantic 1
cat 1
ĠKel 1
Ġgut 1
ĠBoys 1
Ġyoungest 1
ĠCeltics 1
Ġslated 1
Ġremind 1
Ġproductive 1
set 1
Co 1
ĠBailey 1
Ġrenewable 1
ĠCarson 1
ĠDj 1
ĠKos 1
Ġurge 1
Ġfin 1
Ġpursuit 1
ĠCON 1
ĠChapter 1
Ġpal 1
Ġgate 1
ĠPackers 1
ĠReports 1
ĠRugby 1
ĠMasters 1
MO 1
Ġ98 1
Ġcatches 1
ĠAgreement 1
ĠTillerson 1
ĠIce 1
Ġrumors 1
ĠLeonard 1
ĠDolphins 1
ĠLP 1
top 1
ĠCrist 1
ĠHon 1
Ġblaze 1
Ġrhetoric 1
ands 1
ady 1
David 1
igh 1
Ġbuzz 1
ĠStrong 1
Ġshocking 1
ĠRh 1
Ġnegotiating 1
Ġtender 1
ĠJohnny 1
ĠMario 1
Ġ97 1
ĠHeritage 1
Ġexists 1
Ġprayers 1
Ġlengthy 1
Ġsafer 1
ĠHalloween 1
ĠJared 1
ĠConnect 1
Ġbump 1
Ġstrain 1
Ġfilling 1
Ġtrauma 1
Ġcompleting 1
cht 1
Ġkillings 1
anne 1
GE 1
ĠRescue 1
Ġdealers 1
Ġlocals 1
ĠVictor 1
Ġtragic 1
Ġdelivers 1
orts 1
Ġrugby 1
Ġinstallation 1
asa 1
ĠBart 1
Ġjournal 1
school 1
ĠCome 1
ĠVeterans 1
Sun 1
Ġcrowds 1
Ġtransparent 1
Ġimplications 1
ĠHuawei 1
sex 1
Ġrallied 1
Ġresponses 1
Ġdebris 1
Ġconvention 1
Ġmothers 1
BE 1
ĠRoute 1
Ġrebel 1
ĠEmmanuel 1
aster 1
Ġunderstands 1
pound 1
ĠCastle 1
Ġ2021 1
rik 1
ĠGR 1
Ġconvince 1
ault 1
Ġpassionate 1
ĠSciences 1
Ġarrives 1
idad 1
Ġcelebrities 1
ends 1
ĠFans 1
Ġdish 1
ĠCorps 1
hat 1
Ġemployer 1
ĠHy 1
Ġpowered 1
Ġgrandmother 1
ĠFL 1
oured 1
VE 1
ĠInst 1
ĠPerez 1
Ġtune 1
Ġcitizenship 1
Ġignore 1
Ġdoubles 1
IB 1
Ġprogrammes 1
inda 1
Ġentities 1
ĠInterior 1
Ġprompting 1
Ġwire 1
Ġtheatre 1
%) 1
Ġheels 1
ĠJu 1
Ġdeposits 1
Ġtrash 1
mond 1
she 1
iana 1
Ġislands 1
ĠTommy 1
Ġpub 1
Ġdiscipline 1
ĠSW 1
Ġmusicians 1
Ġembassy 1
ĠQB 1
hander 1
UES 1
ĠFerguson 1
Ġblocking 1
ahn 1
Ġfines 1
Ġtactics 1
Ġbullet 1
Ġequipped 1
Ġescaped 1
ĠSil 1
ĠPack 1
ĠAthletic 1
ĠMic 1
ĠDoes 1
ĠCarr 1
ĠChargers 1
ĠKyl 1
Ġzones 1
µ 1
iki 1
Ġgreatly 1
ĠMD 1
Ġimmigrant 1
ĠConstruction 1
ĠBorn 1
iment 1
ĠWade 1
Ġvisa 1
Ġgenuine 1
Ġelectronics 1
ĠSat 1
Ġsponsors 1
ĠMontana 1
Ġspell 1
ĠSachs 1
ĠEt 1
Ġfoster 1
Ġlocker 1
Ġexplaining 1
ĠAge 1
Ġgunman 1
Ġsauce 1
Ġcry 1
Ġstimulus 1
Ġarray 1
Ġcompare 1
Ġboats 1
Ġext 1
iders 1
ĠAst 1
ĠParks 1
ester 1
Ġ94 1
Ġrelating 1
Ġvegetables 1
Ġaccountable 1
Ġhyper 1
ĠWim 1
Ġnewest 1
ĠRome 1
ĠChancellor 1
CBS 1
Ġbusinessman 1
ĠDelaware 1
Ġlands 1
court 1
aria 1
Ġapproaching 1
cker 1
ĠSalt 1
ĠMak 1
Ġtreating 1
Ġsubsequently 1
ĠEll 1
xton 1
Ġ180 1
Ġdetermination 1
ĠSalman 1
ĠJoel 1
Ġclassified 1
Ġspan 1
Ġearthquake 1
ranked 1
Ġ96 1
ĠTiger 1
Ġadvocacy 1
mit 1
Ġcolleges 1
ĠYeah 1
ĠCaptain 1
Ġorange 1
Ġprojections 1
Ġelectrical 1
ĠMA 1
olog 1
ĠNewcastle 1
oppers 1
Ġrepresentation 1
Ġlawsuits 1
just 1
aced 1
ĠRace 1
ĠAqu 1
ĠBills 1
Ġexclusively 1
ĠProfile 1
Ġhometown 1
ĠStan 1
Ġstarring 1
Ġdeciding 1
ĠRating 1
ĠMedicare 1
ĠTransport 1
Ġmystery 1
ĠTa 1
ĠPad 1
ĠSwedish 1
ĠCarroll 1
about 1
Ġtorn 1
Ġnurse 1
NE 1
Ġwaited 1
ĠJeffrey 1
ĠUntil 1
Ġbone 1
ĠBobby 1
Ġpronounced 1
Ġpharmaceutical 1
ĠGallery 1
ĠMatch 1
Ġeconomists 1
ĠMarketing 1
face 1
ĠPetroleum 1
ories 1
ĠMets 1
ĠCore 1
billion 1
Ġexamination 1
ĠPorter 1
2016 1
Ġgolden 1
Ġsem 1
ĠDuterte 1
ĠJefferson 1
ĠTehran 1
ĠLeicester 1
ĠDA 1
Ġadapt 1
ĠDame 1
ĠRic 1
Ġunchanged 1
ect 1
Ġsections 1
kg 1
igned 1
Ġfilings 1
Ġreact 1
Ġurgent 1
Ġvessels 1
Ġspark 1
Ġbutter 1
ĠCons 1
Ġstating 1
Ġcorporations 1
ĠHus 1
Ġdamaging 1
raw 1
Ġequality 1
Two 1
ĠMills 1
iu 1
Ġobligation 1
ĠBrook 1
arian 1
Re 1
Ġphotographs 1
Ġepic 1
ĠStudent 1
ĠTherefore 1
Ġgod 1
ĠFILE 1
iqu 1
Ġdescribing 1
Ġproceed 1
Ġcas 1
ĠKat 1
ĠBra 1
Ġadequate 1
Ġpassage 1
Ġthanked 1
USA 1
ĠNeither 1
ĠLegislature 1
Ġfinances 1
Ġinst 1
ĵ 1
ĠAngels 1
Ġvet 1
ĠDead 1
Ex 1
Ġkicks 1
force 1
Ġsoy 1
ĠWindsor 1
Ġenhanced 1
Ġ1993 1
ĠCzech 1
Ġgradually 1
ĠMagic 1
Ġshadow 1
Ġneighborhoods 1
ĠRivers 1
Ġrapper 1
ĠGirl 1
ĠRot 1
Ġcrackdown 1
fish 1
Ġpreventing 1
Ġproduces 1
ĠMi 1
Ġnotified 1
Ġunderground 1
WE 1
Ġadmits 1
Ġboxing 1
Ġrefer 1
Ġcommitments 1
ĠWoman 1
Ġdenies 1
col 1
ĠSide 1
Ġambulance 1
ĠRodgers 1
Ġaftermath 1
Ġdeck 1
irmed 1
Ġerrors 1
ĠConvention 1
Ġcurb 1
ĠShop 1
ĠThai 1
Ġma 1
Ġrespected 1
ĠMVP 1
Ġborrowing 1
Ġcruise 1
ĠSure 1
Ġsentencing 1
ĠObamacare 1
ĠIr 1
ĠSale 1
ĠPete 1
Ġopenly 1
Ġstartup 1
rock 1
Ġcargo 1
Ġtelecom 1
ĠDownload 1
Ġextending 1
ĠCurrent 1
Ġcompetitions 1
ĠKids 1
Ġshy 1
ĠKerry 1
ĠNever 1
ĠDevils 1
Ġprim 1
Con 1
Ġcurve 1
Ġassumed 1
Ġadjust 1
Ġimmune 1
UE 1
ĠUr 1
Ġconventional 1
Ġgrandchildren 1
ĠBol 1
Ad 1
ĠMaduro 1
fi 1
ĠUAE 1
ĠOrgan 1
Ġindicating 1
iem 1
ĠAgainst 1
ĠAmbassador 1
ĠSeoul 1
Ġcriminals 1
how 1
put 1
Ġreminded 1
Ġparked 1
lich 1
Ġcontinent 1
Ġmatched 1
ĠNicole 1
Ġgenetic 1
Ġhumanity 1
ĠTem 1
Ġindicator 1
Ġvessel 1
Ġdefendant 1
ĠGriffin 1
jan 1
Ġvend 1
boro 1
Ġbrokerage 1
ĠFall 1
Ġmere 1
VILLE 1
Ġlasted 1
ĠMind 1
Ġpatch 1
ĠInsider 1
ĠComm 1
Ġtechnique 1
ĠIM 1
ĠCavaliers 1
Ġshame 1
Ġmil 1
oot 1
irt 1
Ġcop 1
ĠLeon 1
Ġfrozen 1
Ġslip 1
pton 1
Ġpanels 1
Ġpitching 1
Ġleather 1
ĠLogan 1
ĠNearly 1
urch 1
Ġinstructions 1
ĠRow 1
ĠKurdish 1
this 1
Ġlegendary 1
su 1
Ġstabbed 1
sters 1
Ġteenage 1
def 1
Ġoversight 1
Ġvolatile 1
Ġtransmission 1
ĠSgt 1
ĠIndigenous 1
ĠOxford 1
ĠCasey 1
Ġcor 1
Ġsalaries 1
Ġsponsor 1
Ġprescription 1
mat 1
ĠLeeds 1
ĠPakistani 1
Ġevil 1
Ġtables 1
ĠAbdul 1
Ġexpectation 1
Ġlegislature 1
ĠLin 1
¹ 1
Ġcontractor 1
Ġshifting 1
Ġgenerous 1
ĠEddie 1
Ġpuck 1
utt 1
Ġdubbed 1
Ġnowhere 1
Ġbetting 1
Ġdisclose 1
Ĥ 1
ĠFashion 1
ĠHarper 1
handed 1
isha 1
ĠReds 1
Ġachievements 1
ume 1
Ġshootings 1
Ġadvisers 1
ĠEaster 1
Ġinternationally 1
ĠWi 1
ĠGandhi 1
ĠChristians 1
Ġrecruiting 1
Ġexperiment 1
Ġsol 1
Ġdifficulties 1
Ġinfluential 1
Ġhybrid 1
Ġformation 1
ĠBoulevard 1
Ġflags 1
Ġformula 1
front 1
Ġinclusion 1
ĠNone 1
ICE 1
Ġfilming 1
ĠLou 1
ĠReynolds 1
Ġpump 1
Ġexceptional 1
ANG 1
ĠCorporate 1
SAN 1
ĠHealthcare 1
ĠUkrainian 1
aron 1
Ġpants 1
Ġdrops 1
ete 1
ĠStudies 1
Ġwounds 1
END 1
Ġshower 1
Ġreviewing 1
ĠGreater 1
ĠÂ» 1
itors 1
alled 1
Ġsqu 1
ĠRonald 1
ĠInv 1
Ġtougher 1
Ġbalanced 1
Ġlined 1
Ġprinciple 1
Ġ1950 1
Ġleak 1
Be 1
Ġcircuit 1
Ġunfortunate 1
ĠGran 1
ĠFish 1
Ġfriendship 1
asp 1
OO 1
Ġobligations 1
Ġcoup 1
OK 1
Ġbreakdown 1
Ġhook 1
Ġresearcher 1
inated 1
ĠMarie 1
ĠGab 1
ĠWA 1
quez 1
General 1
ĠSwift 1
Ġgust 1
ĠCarol 1
ĠCentury 1
ĠOPEC 1
ĠRd 1
ĠCop 1
Ġsubjects 1
ĠComments 1
ases 1
Ġrelation 1
ĠEnvironment 1
ı 1
Ġgasoline 1
ĠLog 1
Ġicon 1
Ġprofitable 1
ĠRetail 1
ANC 1
Ġappealing 1
Ġvillages 1
Ġpizza 1
Ġmall 1
Ġtower 1
ĠLinda 1
Ġaccomplished 1
Ġpod 1
Ġleaked 1
ĠWed 1
Ġmer 1
Ġopposing 1
!' 1
Ġstomach 1
Ġrevealing 1
Ġho 1
DF 1
ĠSterling 1
Ġsolely 1
Ġpres 1
ĠCy 1
ĠLatest 1
ĠPitt 1
ĠThink 1
Ġcapability 1
aled 1
Ġexecuted 1
alling 1
ĠSilva 1
Ġrestricted 1
Ġdeclaration 1
Ġkilometres 1
rol 1
Ġidentifying 1
Ġdonors 1
vent 1
Ġcostly 1
ense 1
ĠSeeking 1
OURCE 1
iving 1
Ġplacing 1
tech 1
Ġbottles 1
writer 1
ĠSeahawks 1
oming 1
ĠArthur 1
ously 1
bin 1
ĠVa 1
Ġbias 1
Ġliability 1
ift 1
rak 1
aves 1
Ġcautious 1
ĠPrize 1
iley 1
ĠSharma 1
global 1
Ġwars 1
sm 1
ĠRemember 1
wind 1
ĠRichardson 1
ĠSum 1
ĠVincent 1
ĠRice 1
inf 1
Ġconsultation 1
range 1
Ġbacteria 1
Ġarchitecture 1
Ġpole 1
ĠMach 1
Ġcattle 1
Ġabused 1
being 1
ĠHERE 1
Ġfame 1
Ġhearings 1
ĠBrit 1
Ġjoins 1
ĠMcGregor 1
Ġoppose 1
Ġcheer 1
itting 1
imes 1
Ġusage 1
Ġstint 1
Ġoutlet 1
Ġshoppers 1
ĠBaptist 1
Ġinappropriate 1
ĠALSO 1
Ġstealing 1
Ġpledge 1
ĠRan 1
Ġphotographer 1
Ġprevented 1
Ġ01 1
ĠEngineering 1
ĠProducts 1
Ġuniverse 1
ĠMcCarthy 1
¿ 1
graded 1
Ġinspection 1
Ġind 1
Fi 1
aren 1
Ġprotections 1
Ġsorts 1
ĠWorks 1
Ġbillionaire 1
ĠGay 1
ĠiPad 1
IX 1
Ġdefendants 1
band 1
Ġfarms 1
Ġhom 1
gal 1
iant 1
Ġnortheast 1
ĠJoint 1
Ġcanceled 1
Ġtoys 1
Ġrein 1
ĠTumblr 1
pees 1
ĠAut 1
Police 1
Ġaide 1
Ġachieving 1
Ġmund 1
ĠCommercial 1
first 1
Ġanticipate 1
iac 1
Ġprobation 1
hem 1
Ġports 1
ĠKer 1
Ġsupplier 1
ĠFather 1
ĠAnti 1
ashed 1
ĠTable 1
bledon 1
Ġunf 1
ĠRash 1
ĠLeBron 1
Car 1
bu 1
ĠDerek 1
Ġaccounted 1
ĠPri 1
nings 1
Ġreceives 1
lev 1
Ġbilateral 1
ĠList 1
ĠLG 1
ĠJazz 1
Ġrestored 1
Ġbattles 1
ials 1
Ġoccupied 1
Ġrepairs 1
Ġradar 1
ĠMLB 1
ĠNC 1
Ġflexible 1
ĠCommand 1
Ġcoat 1
ĠVir 1
ĠColts 1
ĠBC 1
Ġtwin 1
Ġprisoners 1
Ġslowed 1
hop 1
ĠInn 1
Ġconflicts 1
Ġmeasured 1
Ġautonomous 1
ĠBow 1
Ġdisc 1
inson 1
ĠSche 1
aire 1
ĠSU 1
ĠPeterson 1
Ġdrafted 1
ĠPelosi 1
ĠSoon 1
Ġmechanism 1
Ġaccountability 1
ĠNortheast 1
Ġfo 1
Ġanalytics 1
ĠEverything 1
Ġperceived 1
bers 1
Ġcelebrations 1
Ġinstruments 1
Ġstrip 1
ĠJuventus 1
Ġunfortunately 1
ĠGA 1
Ġwrestling 1
Ġstatue 1
vis 1
five 1
Ġmarine 1
ĠSamuel 1
Ġresponsibilities 1
hill 1
Ġrecruit 1
Ġreferee 1
ĠRail 1
ĠEagle 1
ĠCongressional 1
Ġbreathing 1
Ġbass 1
hit 1
Ġspreading 1
Ġevacuated 1
Ġintellectual 1
Ġsovereign 1
ocked 1
Ġslammed 1
Ġformerly 1
Ġarch 1
Ġdifficulty 1
ĠAFC 1
ĠFresh 1
Ġinvite 1
oner 1
ĠMich 1
Ġpitches 1
stock 1
Ġinitiated 1
ĠKu 1
ĠFlorence 1
yd 1
ĠFast 1
Ġmusician 1
ĠChile 1
anga 1
Ġdairy 1
Ġcontractors 1
ador 1
ĠPlanning 1
Ġultra 1
Ġprayer 1
Ġsuggestions 1
ĠEk 1
Ġrandom 1
ĠSullivan 1
Ġsensor 1
Ġhomicide 1
ĠIncome 1
Ġsettings 1
Ġacknowledge 1
ĠStay 1
Ġterminal 1
Ġ1991 1
West 1
hard 1
arc 1
Ġcombine 1
Ġprivately 1
Ġbarrier 1
Ġmedian 1
Ġwhereas 1
ĠTitans 1
Ġincentives 1
Ġhistorically 1
Ġindictment 1
Ġhiding 1
ĠPDT 1
Ġrebuild 1
hol 1
Ġpour 1
Ġairports 1
ĠEdinburgh 1
Ġappoint 1
ĠJul 1
Ġconfusion 1
Ġdam 1
ork 1
Ġcalculated 1
Ġhood 1
ĠTemple 1
ĠYorkshire 1
EP 1
ented 1
Ġapology 1
awi 1
Ġfacilitate 1
ĠSheffield 1
Ġrides 1
Ġcompelling 1
ĠGonzalez 1
roll 1
ONG 1
UP 1
ĠAj 1
pen 1
ĠVar 1
ĠIPO 1
ĠAnimal 1
Ġshifted 1
Ġ140 1
Ġtobacco 1
El 1
ild 1
Ġuncertain 1
Un 1
Ġcaps 1
Ġrecreational 1
ĠTu 1
Ġenc 1
More 1
iko 1
ĠEverton 1
ĠWalk 1
Ġmurdered 1
Ġpur 1
Ġdivisions 1
ivo 1
Ġfarming 1
Ġcourage 1
ped 1
Ġcrying 1
Ġattributed 1
Ã©e 1
Ġimplementing 1
ĠWang 1
Ġspeeds 1
alk 1
aming 1
eries 1
Ġavoided 1
ĠMessi 1
Ġconsiderable 1
rt 1
Ġinauguration 1
ĠPH 1
Ġsoldier 1
Ġore 1
ollywood 1
otive 1
ĠAuburn 1
ĠSav 1
ĠPut 1
Ġemphasis 1
Ġaf 1
owed 1
Ġdiagnosis 1
Ġcart 1
Ġassisted 1
ĠOrder 1
ĠEstate 1
Ġintends 1
ĠCommon 1
Ġadventure 1
Ġbeliefs 1
Ġlasting 1
cel 1
Ġdeployment 1
tra 1
ĠStories 1
Ġquote 1
Ġfeared 1
Ġconvenience 1
Ġoptimism 1
Ġscientist 1
ĠEnterprise 1
ĠRex 1
ĠFel 1
Ġposes 1
Ġroot 1
Ġevacuation 1
Ġpresidents 1
ĠRather 1
Ġgrave 1
ĠHeights 1
Ġjumping 1
driven 1
Ġaluminum 1
Ġholders 1
Ġboot 1
iber 1
Ġprecious 1
uation 1
FP 1
uses 1
Ġcommentary 1
Ġadvances 1
ĠNissan 1
Ġbronze 1
Ġinspire 1
Ġstarters 1
ĠEvan 1
rah 1
body 1
Ġcrops 1
Ġseeds 1
Ġharsh 1
ĠHomeland 1
Ġenabled 1
ological 1
Ġworkshop 1
Ġchains 1
amps 1
Ġamongst 1
ĠBear 1
Ġcertified 1
ĠJulie 1
Ġmountains 1
VA 1
Ġfed 1
Ġbuyer 1
ahl 1
ĠBos 1
ĠCrystal 1
Ġquest 1
ĠStein 1
Ġacceptable 1
Ġunbeaten 1
iring 1
ural 1
Ġuncomfortable 1
Ġpartial 1
Ġsacrifice 1
ĠGrande 1
Ġarrangement 1
Ġpackaging 1
screen 1
Ġmirror 1
Ġsweep 1
Ġconnecting 1
Ġpanic 1
ĠJacksonville 1
ĠKremlin 1
Ġorigin 1
Brien 1
Ġnorthwest 1
Ġcarriers 1
ĠRiley 1
Ġaud 1
Ġappreciation 1
Ġeliminated 1
ĠAnalyst 1
CR 1
Ġfirearm 1
Ġaccommodate 1
Ġstructural 1
Ġappealed 1
Ġcharter 1
ressing 1
Ġalike 1
white 1
Ġslowdown 1
Ġweigh 1
ĠPalmer 1
ound 1
ĠConn 1
Ġbranches 1
Ġace 1
Ġinsists 1
yo 1
ĠLynn 1
ĠCC 1
ĠWithin 1
Ġcoll 1
Ġsustain 1
Ġemerge 1
ĠBattle 1
VER 1
Ġaviation 1
Ġenables 1
ĠProduction 1
ĠGrove 1
Ġnationally 1
ĠBaldwin 1
rent 1
Ġfirearms 1
irm 1
Ġconsiders 1
ĠCosby 1
ĠMcK 1
ĠEnt 1
Ġincumbent 1
iance 1
Ġgiants 1
Ġkan 1
Ġminimal 1
ivity 1
ĠSay 1
ĠNass 1
Ġlovely 1
ĠFurthermore 1
Ġdisplaced 1
Ġcontacts 1
NY 1
Ġtechnological 1
ancy 1
Ġant 1
ope 1
ĠFY 1
Ġfavorable 1
ĠVirgin 1
Ġcasual 1
ĠLat 1
Ġpopulations 1
Ġromance 1
Ġforgotten 1
Ġfleeing 1
Ġspecialty 1
Ġdrill 1
Ġapplying 1
Ġcocaine 1
rea 1
Ġheroin 1
Ġsweeping 1
ĠMaj 1
Ġtroubled 1
Ġcolleague 1
Ġedged 1
omes 1
ĠHappy 1
Â´ 1
Ġmilitant 1
boy 1
aver 1
Yes 1
llo 1
Ġsupporter 1
ĠSubscribe 1
ĠBird 1
ĠGibson 1
Ġhill 1
Ġnewspapers 1
ĠPHOTO 1
Ġouting 1
Ġdefine 1
Ġann 1
Ġrobot 1
Ġregret 1
ĠCould 1
raz 1
Ġceiling 1
Ġorganizers 1
ĠTw 1
Ġcriticised 1
ĠJoh 1
ĠJe 1
ĠBulls 1
Ġteeth 1
ĠRanch 1
ĠAndrea 1
Ġconservatives 1
Ġmag 1
vey 1
Ġpredecessor 1
ĠJPMorgan 1
Ġdraws 1
umber 1
Ġvaccine 1
ĠDas 1
Ġdisappeared 1
ĠIron 1
Ġlitigation 1
vert 1
Ġbelong 1
ĠRet 1
owers 1
rain 1
controlled 1
ĠKil 1
Ġrehab 1
ĠAustria 1
Ġprivilege 1
Ġbounce 1
Ġbout 1
ĠIslamist 1
Ġtaxi 1
ody 1
.'" 1
Ġdos 1
shire 1
Ġaccidents 1
Ġdemonstration 1
His 1
ĠBO 1
ĠICE 1
van 1
File 1
ĠManning 1
ounded 1
Ġdirections 1
lled 1
Ġoffences 1
Ġlaptop 1
ĠUniversal 1
Ġmilestone 1
ĠNarendra 1
Ġnotion 1
Ġuns 1
ĠLower 1
Ġmidfield 1
Ġoutper 1
trans 1
ĠJa 1
three 1
Adds 1
Ġpressures 1
Ġprohibited 1
Ġutilities 1
Ġbes 1
ĠReporter 1
Ġcommodities 1
leton 1
Ġslower 1
EE 1
auer 1
Ġtablet 1
sl 1
iously 1
Ġaiming 1
eland 1
ĠNEXT 1
tered 1
IVE 1
onic 1
May 1
ĠMilitary 1
Mark 1
Ġlender 1
mate 1
Ġaboard 1
they 1
Ġrespondents 1
Ġconversion 1
Ġsecuring 1
Ġentity 1
ĠHarbor 1
ĠCu 1
Ġcats 1
ĠACC 1
ĠIbrahim 1
GL 1
Ġinvitation 1
Ġcond 1
ĠRecords 1
ĠAdrian 1
Ġbrave 1
Ġmineral 1
Ġsooner 1
Ġsatisfied 1
Ġpets 1
Ġnotably 1
Ä± 1
Ġmarking 1
ĠRO 1
ĠHaw 1
ĠVis 1
Ġmarketplace 1
ĠNat 1
ĠForward 1
ĠLeft 1
Ġaggravated 1
ĠClose 1
acey 1
Ġlandmark 1
Ġdisruption 1
ĠChallenge 1
ĠDays 1
ĠCoun 1
ahan 1
Ġaides 1
South 1
ĠDylan 1
ĠRavens 1
ĠNature 1
lli 1
Ġdiplomats 1
350 1
ĠDrake 1
tag 1
Ġlicensed 1
ĠDenmark 1
Ġcancel 1
Ġinstant 1
DI 1
Ġpunch 1
ĠJenkins 1
Ġstrengthening 1
des 1
-$ 1
Ġallegation 1
Ġsizes 1
iza 1
Ġmentally 1
ĠResidents 1
acked 1
Ġsensors 1
,'" 1
illion 1
ĠChampion 1
Ġexcessive 1
Ġhum 1
ĠComp 1
rend 1
ĠLakes 1
Ġburst 1
Ġtrainer 1
Ġclearing 1
ĠSilicon 1
Ġ350 1
DE 1
ĠGates 1
ĠHorn 1
ests 1
ĠCourtesy 1
Ġbipartisan 1
Ġhabits 1
ĠAlexa 1
walk 1
Ġsnapped 1
ĠEight 1
itis 1
zel 1
Ġcustoms 1
Ġsouthwest 1
Ġvary 1
Because 1
Ġpayout 1
Ġaccelerate 1
ĠBarr 1
tu 1
Ġfined 1
cost 1
ĠTheater 1
ĠCorbyn 1
Ġstem 1
Ġundermine 1
.; 1
Ġstays 1
Ġbreakthrough 1
Ġturnover 1
hot 1
Ġtriumph 1
Ġpainted 1
ĠWinnipeg 1
ĠKas 1
ĠStuart 1
irk 1
Am 1
Ġtrusted 1
aze 1
ĠLate 1
Ġaccessories 1
Ġmemorable 1
ĠFool 1
Ġrotation 1
ĠBulldogs 1
ĠChen 1
Ġpoised 1
ĠMonte 1
ĠClarke 1
leading 1
Ġvenues 1
Ġbeneficial 1
ĠLiam 1
ĠBrothers 1
ĠNeed 1
Ġconc 1
olly 1
ĠJulian 1
ogue 1
Ġfounding 1
Ġsidelines 1
Ġdeclare 1
ĠMember 1
Ġexamine 1
abs 1
Ġboundaries 1
ĠBrisbane 1
Ġlaunches 1
lor 1
ĠGa 1
Ġthr 1
expected 1
wal 1
ĠBarnes 1
Ġclashes 1
content 1
ĠClemson 1
iger 1
Mar 1
Ġaccord 1
Ġsoutheast 1
ģ 1
ĠStarbucks 1
osing 1
Ġseasonal 1
icking 1
Ġloyalty 1
Ġtent 1
ĠDy 1
Ġevident 1
Ġlobby 1
Ġtours 1
Ġbombing 1
uations 1
Ġrises 1
Ġdemonstrations 1
ĠWATCH 1
pin 1
Ġdeb 1
ĠDraft 1
rog 1
Ġseal 1
ĠPerformance 1
ĠLGBT 1
Ġsed 1
Ġgig 1
nan 1
Ġrainfall 1
Ġfabric 1
Ġmanages 1
Ġlifting 1
ĠMagazine 1
ĠCriminal 1
Ġhikes 1
Ġcatching 1
Ġ1989 1
OG 1
Ġdisappointment 1
Ġir 1
ĠEV 1
stown 1
pass 1
120 1
Ġmedals 1
ĠSimmons 1
Ġinaugural 1
ĠCorn 1
Ġmotorcycle 1
lets 1
ĠSkype 1
Ã©t 1
Ġscary 1
opp 1
thirds 1
ĠMohamed 1
Ġteenagers 1
ANK 1
Ġserver 1
Ġouts 1
Ġdishes 1
four 1
dr 1
ĠOt 1
ĠSandy 1
ĠShane 1
orters 1
SH 1
Ġtouching 1
ĠNike 1
ĠHBO 1
driving 1
Ġplug 1
ĠBaseball 1
eling 1
hn 1
ulate 1
eed 1
ĠChristine 1
ĠGlobe 1
Ġethics 1
ĠTrevor 1
iya 1
Ġ360 1
Ġawaiting 1
Ġcounterpart 1
Ġsubsidies 1
pointers 1
Ġspy 1
ILL 1
Ġtakeover 1
ĠBeyond 1
Ġsurprisingly 1
TION 1
ĠSong 1
Ġni 1
Ġcommonly 1
Ġjack 1
Ġsubstitute 1
ews 1
Ġrecalls 1
ĠCommons 1
Ġsin 1
del 1
ĠMod 1
Ġpressing 1
ĠTelevision 1
ĠInside 1
ª 1
Ġbacklash 1
Ġcredible 1
ĠJenner 1
ĠPu 1
ĠStevens 1
ĠWE 1
Last 1
Ġinsurers 1
ĠJoin 1
bled 1
digit 1
Ġflooded 1
ĠShore 1
ĠTrophy 1
zing 1
ĠImmigration 1
Ġsuperior 1
IAN 1
Ġcasino 1
Ġenabling 1
Ġmeantime 1
Ġperformers 1
Ġproportion 1
Ġlawmaker 1
ĠConf 1
Ġconvert 1
Ġfarmer 1
Ġbu 1
ĠGE 1
ĠRepresentative 1
ĠBannon 1
ĠHelp 1
PT 1
formed 1
ĠSuperintendent 1
Ġfrustrating 1
ĠRegister 1
ĠPolitical 1
Ġboots 1
ĠRu 1
ĠSha 1
Ġinstrument 1
tor 1
ĠBelt 1
ĠWalsh 1
Ġrecipe 1
ilt 1
ĠClean 1
iors 1
Ġtwenty 1
iler 1
nder 1
Ġwinger 1
Ġwheat 1
ĠAviation 1
Ġcorrupt 1
Ġconnectivity 1
ĠVen 1
order 1
esc 1
break 1
Ġmetals 1
Ġtraditionally 1
Ġbell 1
Ġviolating 1
rough 1
Ġintroducing 1
Ġguided 1
ĠMol 1
Ġdesert 1
ĠBree 1
Le 1
ĠZone 1
ĠGlass 1
ĠEUR 1
ĠYahoo 1
Ġlaps 1
Ġdiffer 1
ĠHold 1
Ġtimely 1
Ġsuccessor 1
Ġcomic 1
Ġbears 1
Ġlicence 1
Ġreject 1
Ġsophisticated 1
Too 1
Ġobjectives 1
ĠId 1
urers 1
Ġraid 1
COM 1
Ġelect 1
ĠHampshire 1
Ġlens 1
Ġdesigners 1
Ġpresently 1
ĠRCMP 1
ĠEgyptian 1
ĠWalter 1
ĠWallace 1
Ġ2025 1
utics 1
ried 1
Ġrefuse 1
Ġsiblings 1
ĠNothing 1
Ġdressing 1
Ġnerve 1
AST 1
Ġuncertainties 1
Ġtale 1
ĠTalk 1
Ġissuing 1
shot 1
ĠTak 1
Ġacid 1
ĠNintendo 1
Ġwash 1
pd 1
ĠClaire 1
ĠScot 1
Ġsuits 1
ĠBayern 1
gest 1
Ġapplicable 1
Ġinteraction 1
ĠEnforcement 1
ĠRohingya 1
Ġjan 1
Ġunited 1
ĠCoalition 1
Ġlegislators 1
Ġdetectives 1
ĠSing 1
ĠBetween 1
ĠPoly 1
pool 1
mal 1
Ġreply 1
Ġschemes 1
ĠHolmes 1
ĠSenators 1
ĠVerizon 1
Ġwelcoming 1
ĠCricket 1
ĠMarco 1
ĠYears 1
ĠLiving 1
Ġcounterparts 1
ĠParadise 1
ĠTrad 1
# 1
iw 1
ĠSoccer 1
umbled 1
Ġdeceased 1
heim 1
Ġevaluation 1
Ġwrap 1
Ġmild 1
aji 1
ĠUCLA 1
ĠNative 1
president 1
ĠXbox 1
Ġenterprises 1
ĠSlam 1
oga 1
Rock 1
piece 1
ĠColeman 1
Ġcomparable 1
uba 1
Ġprovinces 1
ĠFormula 1
ipt 1
Ã´ 1
Ġtick 1
ĠIMF 1
anch 1
atta 1
rew 1
However 1
LS 1
etta 1
ĠCustoms 1
SU 1
Ġpublishing 1
Ġinch 1
Ġkills 1
¤ 1
ĠSus 1
ĠBeth 1
Ġsteam 1
jpg 1
pointer 1
Ġturnovers 1
Ġpowder 1
ĠUSB 1
ĠWildlife 1
ĠDirect 1
atively 1
ĠFerrari 1
Ġpleasure 1
ĠMatthews 1
Ġski 1
ography 1
ĠVermont 1
ĠMargaret 1
ĠMunich 1
Ġlayer 1
ĠProperty 1
Ġeconomics 1
ĠCrew 1
UK 1
Ġunnecessary 1
ĠGlasgow 1
Ġsealed 1
Ġclarity 1
Ġsurplus 1
ĠCanyon 1
ĠApart 1
Ġacceptance 1
ĠEllis 1
uster 1
rid 1
ĠHawks 1
Ġstatewide 1
Ġthreaten 1
ĠJail 1
Ġinclusive 1
Ġmud 1
Ġpat 1
Ġbitter 1
Ġalternatives 1
Ġaffiliate 1
Ġevaluate 1
ĠBaby 1
Ġperception 1
tim 1
Ġrefusing 1
Ġgrey 1
Ġarguably 1
Ġfirmly 1
ĠDark 1
Ġexcuse 1
ĠRaymond 1
Ġballots 1
inton 1
Ġ125 1
ĠCatherine 1
Ġsacks 1
ĠDeb 1
Ġworkout 1
web 1
Ġbatteries 1
breaking 1
ML 1
Ġunacceptable 1
ĠValentine 1
ĠYOU 1
ĠRT 1
Ġjurisdiction 1
Ġexamined 1
strom 1
ĠPocket 1
Ġcement 1
Ġuniversal 1
ĠOz 1
Ġkit 1
Ġchurches 1
Ġsuburban 1
ĠKushner 1
ĠDavidson 1
Sports 1
email 1
Ġrealistic 1
Ġintend 1
ĠGrey 1
,'' 1
Ġscholarship 1
Ġphilosophy 1
Ġwheels 1
Ġmotivation 1
eway 1
match 1
ĠDate 1
John 1
Ġcontrolling 1
750 1
aven 1
Ġfilmed 1
Ġ160 1
ĠBrock 1
ĠDetails 1
Ġlogistics 1
Ġassumptions 1
ĠStep 1
Ġfails 1
ĠNotre 1
Ġjuice 1
Ġcounting 1
Ġphotograph 1
Ġfortunate 1
Ġestablishing 1
ĠNJ 1
ĠWorkers 1
ĠQuinn 1
ĠHeather 1
Ġtimeline 1
Ġimported 1
ĠNASCAR 1
Ġexercises 1
Ġsearched 1
ĠRalph 1
alf 1
Ġgene 1
Ġdependent 1
Ã©n 1
iate 1
ĠBristol 1
Ġhung 1
Ġtropical 1
Ġintensity 1
ĠIdaho 1
ĠMull 1
Ġsuite 1
Ġblockchain 1
cz 1
ovich 1
Ġworn 1
ĠLE 1
AV 1
emi 1
Ġidentification 1
Ġtunnel 1
ĠARE 1
ĠArm 1
Ġoutrage 1
Ġtwist 1
uka 1
ĠGra 1
Ġjets 1
ĠThus 1
Ġcompound 1
Ġfinancially 1
2019 1
asse 1
Ġspare 1
ĠNoah 1
ĠMade 1
ĠMom 1
Ġphenomenon 1
Ġnurses 1
Ġoutlined 1
Ġpolit 1
ĠCarm 1
Ġleagues 1
Ġmath 1
Ġmodified 1
Ġwillingness 1
ĠAmanda 1
Ġgrandfather 1
Of 1
DR 1
Ġdip 1
ĠRAM 1
ĠChristie 1
Ġargues 1
ĠEX 1
ĠNine 1
ĠScroll 1
ĠTHIS 1
Pro 1
Ġkeys 1
Ġprocessor 1
Ġscam 1
ĠTraining 1
Ġhoney 1
Ĵ 1
Ġfacebook 1
ĠLegal 1
Ġaging 1
Ġspiritual 1
ĠHost 1
Ġlung 1
ĠUSC 1
Ġdirt 1
Ġfe 1
after 1
ĠDiana 1
Ġounce 1
date 1
ĠFinals 1
Ķ 1
Ġthorough 1
Ġviable 1
Ġanytime 1
Ġfost 1
orter 1
ware 1
ĠHolland 1
ĠMand 1
ĠSend 1
2013 1
ĠVolkswagen 1
Ġsuitable 1
ifies 1
Ġcomedian 1
Ġneighbours 1
ĠKnow 1
Ġcurious 1
ĠTwenty 1
ĠPrevention 1
ĠStephanie 1
Ġpilots 1
Ġstored 1
Ġdire 1
Ġfits 1
ision 1
ĠShell 1
Ġshifts 1
Ġpepper 1
Ġattendees 1
ĠName 1
hers 1
rip 1
Ġwatchdog 1
andy 1
Ġbio 1
Ġpublisher 1
powered 1
ĠCM 1
rian 1
ĠRand 1
wise 1
ĠJesse 1
Ġladies 1
ĠMetropolitan 1
ĠMicro 1
Ġkicking 1
Ġmeg 1
Ġclouds 1
Ġtrim 1
wear 1
ĠML 1
Ġconsists 1
Ġrig 1
Ġhonestly 1
GS 1
ĠNicholas 1
Ġcope 1
Ġpublish 1
working 1
bur 1
ĠNar 1
olds 1
aja 1
ĠSad 1
Ġclicking 1
Ġbids 1
ĠZuckerberg 1
Ġ900 1
Ġexam 1
ivers 1
Ġpray 1
Ġreader 1
ĠSeth 1
inem 1
Ġconfront 1
stra 1
AW 1
ĠGian 1
Ġaccordance 1
Ġinteract 1
ĠSharks 1
Ġfireworks 1
gment 1
illy 1
Ġconst 1
ARY 1
Ġprizes 1
Ġshoulders 1
Ġaccessed 1
Ġecosystem 1
Ġlicensing 1
La 1
Ġdedication 1
ĠdÃ© 1
Ġyouths 1
lem 1
Ġtoy 1
ĠProm 1
ounding 1
rod 1
Ġ1000 1
ishes 1
Over 1
Ġgaps 1
Ġmissions 1
Ġrailway 1
Day 1
orp 1
ĠSchumer 1
Ġeclipse 1
Ġshell 1
ĠBY 1
Many 1
ĠRecord 1
Ġdrunk 1
ayan 1
Ġsuggestion 1
Ġdefenders 1
ĠNewton 1
Ġdisputes 1
Ġevolution 1
Ġcredibility 1
ĠTenn 1
Ġplain 1
size 1
cont 1
Ġlone 1
Ġfingers 1
BUR 1
ĠInvestigation 1
ĠQualcomm 1
var 1
Ġcountless 1
ĠRebecca 1
½ 1
abi 1
Ġreflecting 1
ĠTurn 1
Ġinteractive 1
Ġincentive 1
second 1
offs 1
ĠBerkeley 1
ĠTexans 1
Ġheated 1
Ġscorer 1
ĠSharif 1
Ġmigrant 1
west 1
ĠHoliday 1
Ġwrist 1
Ġchairs 1
Ġrecommends 1
ĠWildcats 1
ĠPed 1
ĠQuarter 1
ĠIV 1
ĠArch 1
Ġstandings 1
Ġbombs 1
Ġcapped 1
Can 1
Ġcaring 1
ĠLah 1
lim 1
Ġdragged 1
ĠBeat 1
DB 1
Ġaired 1
Ġjeans 1
action 1
Ġgenerating 1
ĠGir 1
risk 1
lon 1
stage 1
âĤ¬ 1
earing 1
ĠTogether 1
Ġreun 1
ĠCorey 1
ĠBak 1
Ġprestigious 1
Ġapplicants 1
here 1
ĠMattis 1
Ġridiculous 1
ĠLess 1
Ġrains 1
Ġpresenting 1
anti 1
Ġdisabilities 1
Ġapartments 1
storm 1
ĠHem 1
Ġhabit 1
ĠRuth 1
ĠNPR 1
nut 1
Ġappreciated 1
Ġseparation 1
uda 1
Ġminus 1
ĠPhotos 1
Ġblew 1
ĠVoice 1
Ġrallies 1
Ġfond 1
ĠTaking 1
yt 1
FE 1
ĠTory 1
ressed 1
ĠLy 1
Ġrocks 1
ĠRah 1
Ġelementary 1
nis 1
ĠPresidential 1
Ġnutrition 1
Ġbaseman 1
Ġsuperstar 1
ĠWa 1
lar 1
Ġstaged 1
ĠLearn 1
Ġbroadcaster 1
Ġboasts 1
Ġdoubts 1
rum 1
Ġbare 1
cap 1
Ġclimbing 1
ĠSelect 1
ĠCant 1
ĠNord 1
ĠBeck 1
ĠKad 1
ello 1
Ġenforce 1
ĠZe 1
ked 1
elly 1
ĠLED 1
ĠOperations 1
ĠLuk 1
Ġcertificate 1
Ġdeter 1
Ġspill 1
Ġgrain 1
league 1
Up 1
ĠKid 1
using 1
ĠJays 1
Ġoccasionally 1
ĠMI 1
yes 1
Ġdetect 1
Ġpropaganda 1
Ġneighboring 1
sub 1
avan 1
ĠAstros 1
oti 1
threatening 1
Ġshorter 1
INGS 1
Ġfeeding 1
Ġelevated 1
ĠWenger 1
Ġundergo 1
Ġpsychological 1
Ġautom 1
NP 1
anks 1
ĠNokia 1
Ġdrones 1
Ġrecognised 1
Ġheroes 1
agen 1
Ġparole 1
ĠBah 1
Ġhomeowners 1
ĠSweet 1
Ġinstances 1
ĠParish 1
ĠSL 1
Ġunw 1
Ġdelicious 1
¯ 1
ĠInvestments 1
ĠPhilippine 1
inos 1
Ġmes 1
Ġbite 1
Ġcornerback 1
ĠHat 1
Ġdeserved 1
ologists 1
[ 1
Ġwrongdoing 1
ĠTrent 1
ĠVe 1
ĠDeal 1
Mr 1
Ġovers 1
Ġhonors 1
ĠITV 1
Ġpayroll 1
Ġconfused 1
Ġelaborate 1
ange 1
World 1
ĠResort 1
ilia 1
ĠKr 1
Ġconclude 1
First 1
ĠDR 1
Ġpeer 1
Ġrunway 1
ĠPotter 1
cons 1
bad 1
si 1
ĠClimate 1
ĠHoll 1
Ġweighing 1
Ġepidemic 1
ĠBible 1
Ġhon 1
Ġrenew 1
Ġgambling 1
ĠNationals 1
itable 1
ĠOutlook 1
Ġreactions 1
ĠCos 1
ĠDana 1
India 1
ĠAirbus 1
power 1
watch 1
Ġstyles 1
Ġordinance 1
Ġcam 1
Ġinvent 1
ĠDurant 1
Ġexchanged 1
Ġyoga 1
ĠMichel 1
ĠWyoming 1
ĠPhase 1
ĠHannah 1
Ġtem 1
Ġfare 1
omer 1
Ġtrails 1
Ġquietly 1
ĠFourth 1
Ġwise 1
Ġappetite 1
Ġpedestrian 1
Ġfierce 1
hin 1
ako 1
Ġvacant 1
Ġdynamics 1
Ġbust 1
ĠGT 1
century 1
Ġpermitted 1
Ġfog 1
Ġrecruitment 1
ĠDue 1
Ġbro 1
Ġsil 1
ĠOpp 1
Ġphrase 1
ĠChip 1
ĠBase 1
Ġjazz 1
Ġenemies 1
Ġremainder 1
bles 1
Ġ105 1
ĠGur 1
Ġretiring 1
ĠCour 1
ĠSi 1
Ġinevitable 1
ĠAdvisory 1
ĠCampaign 1
ĠPeninsula 1
base 1
Ġjustify 1
inen 1
North 1
Ġfreezing 1
Ġphotography 1
Ġappointments 1
ĠTree 1
Os 1
Ġdivide 1
ĠMMA 1
Ġdeclines 1
ĠAbbott 1
ACH 1
ĠJah 1
Ġspr 1
Ġskilled 1
ĠTry 1
ANT 1
ael 1
ĠMcN 1
Ġtariff 1
generation 1
ĠMans 1
Or 1
Ġraped 1
Ġdisability 1
Ġnominations 1
Ġhappiness 1
ĠLSU 1
ĠInterstate 1
ĠDance 1
ĠMaking 1
Ġbailout 1
oro 1
ĠObviously 1
Ġinbox 1
football 1
hy 1
ĠCase 1
Ġentertaining 1
Ġhardest 1
ĠOpposition 1
Ġflip 1
ĠPirates 1
anu 1
ĠKlopp 1
Ġballistic 1
Ġprinted 1
ĠNFC 1
UST 1
Ġglasses 1
Ġrum 1
ĠDuncan 1
hal 1
Ġpreview 1
BER 1
dec 1
Ġsustainability 1
Ġaff 1
Ġhungry 1
service 1
avi 1
Ġsometime 1
Ġmod 1
ĠLib 1
oko 1
Ġfundraiser 1
Ġcrowded 1
mates 1
Ġcreativity 1
ĠHell 1
Ġtreaty 1
ĠSoftware 1
ĠRandy 1
ĠPolish 1
sa 1
ardi 1
Ġcab 1
ĠCamera 1
Ġlicenses 1
Ġ1988 1
Ġcontinuous 1
Ġpaired 1
Ġtally 1
Ġgrip 1
cho 1
Ġsurged 1
Ġpodium 1
Ġcontrary 1
SL 1
ĠResearchers 1
cing 1
Ġmi 1
Ġdisputed 1
Ġgrades 1
Ġseverely 1
ĠMcL 1
ondo 1
Ġshelters 1
Ġdomain 1
ĠSwitch 1
Ġtestify 1
case 1
omet 1
atch 1
ĠAff 1
Ġcasting 1
berger 1
Ġintimate 1
erc 1
plan 1
ĠPast 1
ĠUt 1
Ġapologized 1
ĠDet 1
alle 1
Ġwhilst 1
Ġpel 1
Ġexecute 1
Ġharmful 1
ĠRB 1
onda 1
ĠFul 1
II 1
Those 1
Ġcryptocurrency 1
Ġrealise 1
ĠAthens 1
ĠApplication 1
ORD 1
Ġmidst 1
ĠSem 1
Ġmessaging 1
Ġcousin 1
ĠMarsh 1
ĠAlmost 1
uto 1
wire 1
ĠManaging 1
Ġsends 1
ĠDerby 1
Ġpad 1
Ġdevoted 1
ĠWorking 1
ĠWestminster 1
Ġdirty 1
ements 1
ĠLew 1
door 1
Ġadvisor 1
ival 1
Ġsubscribe 1
Ġcredited 1
Ġpressed 1
Ġbrick 1
Ġrehabilitation 1
Ġ"[ 1
erry 1
Ġtransformed 1
arp 1
Ġreceivers 1
ĠFan 1
ĠKris 1
ĠCharlottesville 1
Ġste 1
Ġconstructed 1
Ġbroadly 1
ĠBetter 1
ĠJanet 1
Ġenthusiasm 1
ĠIrving 1
ĠConst 1
Everyone 1
agn 1
ĠCrawford 1
Ġregards 1
ĠBurns 1
Ġjokes 1
erg 1
ARD 1
apped 1
Ġtravelled 1
ĠPoor 1
ĠHolly 1
Ġcontainer 1
Ġinfected 1
Ġlean 1
ĠWould 1
Ġmagnitude 1
ĠDou 1
minded 1
Ġpastor 1
Ġwherever 1
ulation 1
Ġ1986 1
ĠMegan 1
Ġgraphic 1
Ġtalents 1
Ġkn 1
ĠEC 1
ĠMcM 1
ĠKon 1
eni 1
ĠEsc 1
inas 1
ĠNom 1
Ġchasing 1
arl 1
ĠHungary 1
Ġmainland 1
ĠDist 1
utes 1
Ġrubber 1
iat 1
ĠMorrison 1
ushing 1
iny 1
Ġcopies 1
ĠFat 1
agged 1
Ġfloating 1
ĠCurtis 1
Ġfatally 1
ĠManuel 1
Ġgraduates 1
nar 1
ĠKenny 1
Ġretreat 1
Ġretro 1
ĠPierre 1
listed 1
ĠDale 1
ding 1
Ġintentions 1
Ġsentences 1
ĠSere 1
Ġinvasion 1
Ġpremiums 1
ĠGardner 1
Ġshipments 1
Ġcol 1
bell 1
ilo 1
Ġworthy 1
Ġinterceptions 1
Ġcomplain 1
icle 1
ĠTah 1
ĠMt 1
ĠSyracuse 1
Since 1
aches 1
ĠCand 1
Ġinteractions 1
ĠShawn 1
nc 1
Ġtheaters 1
ART 1
Th 1
Ġalter 1
aley 1
imo 1
Ġresponders 1
kan 1
ĠDarren 1
Ġdeliveries 1
PI 1
125 1
Ġlaughing 1
ĠPatterson 1
Ġinfections 1
Ġtur 1
130 1
Ġhackers 1
Ġwarn 1
Ġfreeze 1
Ġscreaming 1
ĠEcho 1
ĠDom 1
MAN 1
ĠJoy 1
Ġbeneath 1
ĠHalf 1
Ġpatent 1
Ġugly 1
Ġlip 1
Ġnominees 1
ĠGrade 1
Ġinfluenced 1
Ġabilities 1
Ġlimiting 1
Ġsmell 1
Ġesc 1
ĠBernard 1
cs 1
ĠMyers 1
oted 1
Black 1
Ġlim 1
Ġsworn 1
ĠBlair 1
anes 1
ĠEvent 1
Ġmature 1
Ġpositioned 1
Ġerupted 1
grand 1
ĠTell 1
Ġbackdrop 1
Ġyeah 1
ĠClear 1
Ġsignificance 1
Ġpatience 1
ĠWing 1
Ġhorrible 1
Ġdeploy 1
ipe 1
Ġbitcoin 1
Ġcommitting 1
Ġdismiss 1
ĠBlood 1
ĠMeyer 1
selling 1
Ġregarded 1
Ġlottery 1
ĠLuther 1
Ġpipe 1
Ġcro 1
ĠANC 1
ĠSolar 1
Ġsimilarly 1
Ġham 1
ĠHonor 1
tar 1
gin 1
ĠArmstrong 1
Ġbrowser 1
agon 1
via 1
Ġentries 1
Ġinfl 1
Ġgraduation 1
Ġalleges 1
ĠLoading 1
Ġsuperb 1
ially 1
Ġadministrator 1
uls 1
Ġartistic 1
ĠANGEL 1
ĠBang 1
Ġfossil 1
¨ 1
Ġpoly 1
ĠGuardiola 1
ĠPerth 1
Ġeducate 1
Cl 1
Ġcommittees 1
Ġforthcoming 1
Ġadjustments 1
count 1
Ġincoming 1
brook 1
ĠMinneapolis 1
Ġgown 1
ĠCroatia 1
host 1
Ġcompetitor 1
Ġlyrics 1
Ġbelonging 1
ĠFrances 1
ĠHaley 1
ĠBruins 1
Ġmask 1
ĠPv 1
dollar 1
Ġbowling 1
Ġjewelry 1
ĠJulia 1
Ġbroadband 1
ĠBhar 1
ĠArmed 1
vy 1
government 1
kov 1
Ġpremises 1
Ġjersey 1
Ġapplies 1
ĠFreeman 1
Ġgrows 1
ĠEquity 1
Ġmaterially 1
Ġfigured 1
ience 1
Ġmajors 1
ĠYe 1
ĠHey 1
oned 1
aping 1
Ġtoilet 1
ĠConnor 1
Ġavoiding 1
pos 1
Once 1
ĠRockets 1
ĠSnapchat 1
Go 1
Ġsolidarity 1
ĠAffordable 1
Ġdial 1
ĠOmar 1
xt 1
ĠVatican 1
anta 1
ĠSuperior 1
Ġbeaches 1
ĠKi 1
Ã¥ 1
KY 1
Ġgro 1
ĠEmpire 1
Ġoccurs 1
Ġjoked 1
Ġquotes 1
ĠSaskatchewan 1
pert 1
Ġmaintains 1
olt 1
Ġupgrades 1
ĠCho 1
ĠAlexis 1
ĠHundreds 1
ĠBud 1
Ġcenturies 1
ĠInvestor 1
ĠGomez 1
Ġconceded 1
Ġexpressing 1
ĠIBM 1
Ġadvancing 1
ĠDollar 1
jer 1
Ġexceed 1
author 1
rist 1
seat 1
ĠPrimary 1
ĠForbes 1
ĠAlzheimer 1
Ġdevastated 1
Ġawful 1
ĠStudio 1
Ġbullpen 1
Ġmobility 1
Ġanalyze 1
lie 1
AFP 1
iche 1
ĠRoyals 1
Ġcoupled 1
Ġdug 1
ĠRing 1
Ġenvironments 1
national 1
ĠCongo 1
Ġalleging 1
wn 1
ulating 1
Ġur 1
Ġreaches 1
ĠPine 1
Ġthreshold 1
Ġtournaments 1
Ġheating 1
ĠGard 1
ĠHamas 1
ĠÂ« 1
ĠHolding 1
Ġpossibilities 1
ĠHassan 1
ĠMohammad 1
Ġoffenders 1
Ġautomated 1
Ġrealised 1
ouse 1
building 1
ĠDub 1
ĠGeneva 1
Ġfacial 1
ĠRestaurant 1
ĠNg 1
Ġtot 1
Ġgrace 1
ĠCP 1
Ġposter 1
hart 1
ĠNi 1
Ġreaff 1
Ġprov 1
Ġ111 1
ĠAid 1
Ġscrap 1
izers 1
ogen 1
Ġtissue 1
Ġvibrant 1
Ġrider 1
CD 1
ĠKitchen 1
Ġgenre 1
¬ 1
depth 1
kind 1
Ġendorsed 1
Ġsimultaneously 1
Ġintern 1
ĠDrag 1
Ġembraced 1
Ġcounted 1
uj 1
ĠOg 1
Ġphysician 1
ĠIR 1
IST 1
ĠKir 1
Ġhacking 1
ĠSources 1
astic 1
growing 1
ĠWake 1
Ġhint 1
Ġcompiled 1
Ġreign 1
Ġcinema 1
Ġboosting 1
Ġaccommodation 1
ĠEuropa 1
Ġsubsidiaries 1
Ġclosures 1
ĠBil 1
ĠBou 1
wh 1
ĠAw 1
FT 1
hole 1
ĠNova 1
ĠNSW 1
Ġrap 1
Ġencourages 1
GR 1
ds 1
ĠMuk 1
ĠSurvey 1
ĠReagan 1
oning 1
Ġneighbouring 1
ĠMcCl 1
acht 1
Ġfinishes 1
ĠEsp 1
pat 1
Ġdestinations 1
ĠWagner 1
Ġconfronted 1
square 1
Ġpie 1
brand 1
hl 1
Ġabsent 1
Ġsurf 1
Ġrifle 1
ĠSS 1
ĠDeath 1
wich 1
Ġbeds 1
ĠLock 1
ĠAgu 1
atives 1
jee 1
Ġoral 1
Ġbudgets 1
Ġinspiring 1
IONS 1
works 1
Ġspirits 1
Ġcabin 1
Ġsatisfaction 1
Ġvoluntary 1
ĠMunicipal 1
Ġdeportation 1
ĠWriter 1
ĠVI 1
VERTISEMENT 1
/. 1
ĠSouthampton 1
aces 1
ĠHelen 1
ĠHum 1
110 1
Ġgarbage 1
through 1
Ġkingdom 1
MT 1
augh 1
Ġbizarre 1
ĠStarting 1
Ġwooden 1
ĠProgress 1
iron 1
sten 1
ĠSergio 1
ĠHR 1
Ġturnout 1
ĠAmericas 1
ĠSara 1
Ġagrees 1
apper 1
Ġbra 1
Ġrecycling 1
oom 1
Ġflee 1
Ġdistinct 1
IAL 1
aha 1
Ġfever 1
ĠPartnership 1
ĠYu 1
ĠPixel 1
ĠBlock 1
ĠMelissa 1
igg 1
Ġdecides 1
ĠNorman 1
Ġmas 1
held 1
ĠPD 1
Ġsheer 1
ĠDim 1
ĠCass 1
Ġcolumnist 1
ĠBros 1
Ġturnaround 1
ĠValue 1
ĠBachelor 1
awn 1
Ġassignment 1
ested 1
ĠJudiciary 1
Ġdiamond 1
Ġmus 1
Ġindigenous 1
lines 1
Ġ1984 1
igroup 1
ict 1
ĠJaguars 1
Ġlun 1
Ġprofiles 1
Ġcomputing 1
ĠBelgian 1
ĠLloyd 1
ĠGoing 1
Ġdisp 1
Ġ1987 1
eder 1
ĠVin 1
Ġgovern 1
Ġblend 1
ĠSebastian 1
ĠMidwest 1
iga 1
Ġspl 1
Ġtopping 1
Ġnetworking 1
ĠEmer 1
Ġoxygen 1
ĠInterest 1
ĠMoy 1
Ġtrader 1
Ġbay 1
Ġsticking 1
ĠMovement 1
Ġbidding 1
tax 1
Ġacademy 1
ĠMO 1
ĠSpirit 1
Ġhealing 1
wen 1
ĠPrix 1
cal 1
ĠOperating 1
Ġinstantly 1
ĠTonight 1
Ġsacked 1
Ġautomation 1
umps 1
ĠNey 1
March 1
ĠBuck 1
Ġconcentration 1
Here 1
Ġtravelers 1
Ġprotective 1
ĠMoody 1
Ġentrepreneur 1
Ġfac 1
kowski 1
Ġpreparations 1
Ġdominate 1
Ġspray 1
Ġdisturbing 1
ĠFraser 1
ĠCody 1
ashi 1
ĠPel 1
Ġrisky 1
Ġawkward 1
ĠVA 1
ails 1
Ġangle 1
Ġundergoing 1
Ġalbums 1
Ġafterwards 1
ĠNaw 1
uge 1
enter 1
ĠSussex 1
ĠRecently 1
Ġlikelihood 1
large 1
Ġsnaps 1
ibr 1
ĠMalcolm 1
Ġcru 1
Ġaltogether 1
Ġsetup 1
Ġtorture 1
Ġfiber 1
Ġquarterbacks 1
ĠGetting 1
ipping 1
ĠNorwegian 1
ĠMiles 1
ĠArnold 1
ĠDisease 1
Ġtends 1
ife 1
ĠCaroline 1
Ġnavigate 1
Ġbrush 1
ĠAssociates 1
Ġbath 1
ĠCenters 1
ĠMC 1
Ġtaxpayer 1
comp 1
Ġaccomplish 1
ĠTraffic 1
ĠBru 1
Ġgreenhouse 1
ĠMalaysian 1
ĠPur 1
ased 1
ĠKnicks 1
aters 1
Ġalt 1
ICK 1
Ġcalculations 1
Ġmindset 1
unch 1
Ġgu 1
Ġsteadily 1
Ġfiction 1
ĠPap 1
forming 1
ĠActor 1
ĠBerry 1
imp 1
ĠUpper 1
Ġassessed 1
Ġlawn 1
ĠRoh 1
Ġclearance 1
funded 1
Ġpret 1
ĠHom 1
VS 1
ĠTourism 1
ĠRy 1
ĠGonz 1
ĠStudios 1
Ġanchor 1
Ġrecognise 1
Ġcooperate 1
enny 1
aza 1
ĠMeet 1
Ġeventual 1
SW 1
ĠCounsel 1
ĠSave 1
Ġlucrative 1
Ġslim 1
ĠGreens 1
Ġchemistry 1
ĠSheikh 1
Ġbridges 1
business 1
ĠSaf 1
ĠGy 1
Ġprotocol 1
Ġnephew 1
ĠBrands 1
ĠCulture 1
orship 1
Ġ(Â£ 1
ĠDell 1
astics 1
Ġproving 1
ĠMann 1
aca 1
Ġindoor 1
ĠUganda 1
ĠRomney 1
ĠStage 1
Ġward 1
ĠAmber 1
haw 1
Ġtw 1
Ġbullying 1
ĠCAR 1
Ġassociates 1
ĠHopkins 1
Ġsuburb 1
Ġaggressively 1
Ġpostponed 1
Ġbas 1
Ġburglary 1
ĠFound 1
Ġfloors 1
Any 1
Ġjam 1
Ġvisibility 1
Ġbenefited 1
ĠAud 1
aying 1
iku 1
ĠPas 1
ĠGPS 1
ĠOwens 1
Ġreluctant 1
ĠOlivia 1
ols 1
Ġemotion 1
ĠHeavy 1
Ġhostile 1
Ġfavorites 1
Ġfeat 1
ĠCord 1
ĠGO 1
Ġindicted 1
idal 1
ĠIL 1
Ħ 1
acer 1
ICH 1
oda 1
Ġrecipients 1
Ġtribal 1
Ġresist 1
ĠCritics 1
Ġsang 1
ĠMath 1
ĠBrighton 1
ĠKw 1
Ġlimitations 1
Ġinterception 1
onde 1
ĠRobertson 1
Ġenjoys 1
site 1
Ġwings 1
ĠCeltic 1
Ġrelaxed 1
Share 1
Ġwarrants 1
oco 1
Ġcritically 1
GC 1
Ġcute 1
Ġlaying 1
itude 1
ĠMediterranean 1
Ġwatches 1
Ġdisagree 1
ĠReturn 1
ARC 1
people 1
Ġtwelve 1
Ġoverdose 1
ĠLot 1
ĠFROM 1
ĠPeters 1
Ġadministrators 1
Ġslam 1
jar 1
OH 1
ĠInitiative 1
Ġteamed 1
ĠMajority 1
June 1
ĠPlaza 1
lake 1
Ġglimpse 1
Ġrings 1
Ġos 1
Ġmentor 1
have 1
Ġlanguages 1
Ġuncle 1
agu 1
ĠWine 1
ĠCategory 1
ĠIng 1
Ġcontests 1
ĠRosen 1
ĠWhatever 1
Ġdenying 1
ean 1
Ġspec 1
Ġgrad 1
Ġtenants 1
show 1
ĠGregory 1
Ġcontention 1
Ġunanimously 1
ĠPin 1
fa 1
ĠPink 1
Ġswitched 1
acre 1
ĠTrading 1
VP 1
ĠMaple 1
Neill 1
Ġdiscounts 1
alls 1
Ġsounded 1
Ġrumours 1
ĠCre 1
hall 1
ĠTele 1
Ġthankful 1
Ġsurveyed 1
UB 1
Ġdignity 1
Ġnod 1
Ġmisleading 1
ĠTX 1
ĠBurke 1
Ġmounting 1
Ġskies 1
Ġbesides 1
ĠGarrett 1
tha 1
Ġintelligent 1
Ġtanks 1
apping 1
ĠRat 1
aint 1
Ġentertain 1
ĠAbdullah 1
Ġsink 1
ĠLan 1
ĠManufacturing 1
NFL 1
Ġthemes 1
ĠHaven 1
ĠDavies 1
ĠKerr 1
ĠLen 1
Ġcourtroom 1
Ġfailures 1
Ġlately 1
ĠElectronics 1
Ġgorgeous 1
Ġnotification 1
Ġ2030 1
aved 1
Ġdeer 1
economic 1
ĠStatistics 1
Ġconfrontation 1
Ġgovernors 1
ĠHaram 1
ĠLGBTQ 1
Ġprocessed 1
ĠDuchess 1
Ġdowns 1
Ġpork 1
Ġhumor 1
ocese 1
Ġneeding 1
Ġmidterm 1
ĠOval 1
Ġcorners 1
Ġtablets 1
eds 1
vere 1
Ġattacker 1
Paul 1
pee 1
ĠAlice 1
Ġrenowned 1
Ġ09 1
ocking 1
Ġcreditors 1
ĠPedro 1
ĠPhone 1
Ġsurveys 1
ĠWelsh 1
Ġcow 1
Ġbuilds 1
Ġ000 1
ĠAzerbaijan 1
ĠYad 1
Ġinfant 1
Ġmotorists 1
Ġpoorly 1
Ġmedications 1
Ġstupid 1
ĠCastro 1
user 1
antly 1
alty 1
ĠCond 1
issa 1
ĠIvan 1
Ġcostume 1
Ġ08 1
Ġhence 1
Ġdangers 1
Ġbullish 1
Life 1
Ġflavor 1
ĠCharleston 1
Ġbikes 1
Ġworkshops 1
Ġarranged 1
Ġcontender 1
Ġsequel 1
ĠPlant 1
Ġdonor 1
Ġfactories 1
rict 1
ellen 1
Ġrobots 1
ĠWor 1
ĠDirectors 1
ĠPeru 1
Ġqueen 1
ĠTimothy 1
ĠToo 1
Ġobservers 1
Ġears 1
Ġbel 1
link 1
uns 1
Ġhomers 1
Ġadjacent 1
Ġconfidential 1
Ġstunned 1
iden 1
illed 1
ESS 1
Ġconvenient 1
ĠLindsey 1
por 1
upp 1
Ġborrow 1
ĠAhmad 1
ORT 1
Ġrelate 1
ĠSelf 1
ĠVanguard 1
utter 1
ĠBranch 1
ĠBolton 1
bat 1
Ġoutright 1
fighters 1
ĠBed 1
Ġpes 1
inski 1
Ġgunshot 1
Ġprinting 1
ĠSent 1
vern 1
Ġharvest 1
Ġbubble 1
Ġrefund 1
Ġfuels 1
Ġdive 1
Ġdiplomat 1
Ġpile 1
ĠVery 1
rot 1
ĠSearch 1
ĠJoyce 1
ĠPruitt 1
ĠLevel 1
ĠBP 1
ĠLac 1
had 1
Ġexpenditure 1
ĠMadd 1
Ġpockets 1
ĠClippers 1
ĠDear 1
ĠGive 1
Ġhal 1
Ġvertical 1
Ġwholesale 1
what 1
ĠSpringfield 1
ayed 1
ĠSom 1
Ġsecrets 1
Ġcharts 1
iar 1
ibility 1
LAND 1
Ġbearing 1
Ġprom 1
Ġtab 1
Ġsheets 1
ĠGL 1
Ġendless 1
opening 1
ĠOwen 1
Ġunderneath 1
ĠErik 1
ĠDACA 1
Ġsteering 1
Ġfootprint 1
ĠRoma 1
ĠDucks 1
ĠEllen 1
ĠProfessional 1
ĠGardens 1
Ġgoalie 1
Ġshine 1
Ġturmoil 1
Ġhunger 1
ĠâĢĭ 1
active 1
hey 1
Ġblessed 1
ason 1
oping 1
ĠThousands 1
Ġdose 1
ĠLor 1
Ġevolved 1
Ġcharities 1
ĠPE 1
ĠRub 1
ws 1
Ġmist 1
ĠShen 1
Ġbiological 1
ĠTweet 1
Ġcollections 1
Ġsubstantially 1
inner 1
Ġbattled 1
ĠCong 1
Hold 1
wp 1
Ġwells 1
Ġsake 1
Ġunrest 1
ĠKurt 1
Ġripped 1
itation 1
Ġneighbourhood 1
Ġinv 1
Ġcad 1
ĠCuban 1
ĠWealth 1
Ġtuition 1
Ġdeclaring 1
sch 1
orne 1
Ġwondered 1
ĠChaff 1
Ġdealer 1
ĠNumber 1
Mobile 1
Ġscratch 1
Ġprepares 1
ĠSens 1
ĠIstanbul 1
ĠPanama 1
ĠCay 1
Ġallocation 1
itutional 1
Ġhar 1
ĠNazi 1
ĠSund 1
Ġwarehouse 1
Ġbackyard 1
ĠIll 1
Ġunlawful 1
ĠReform 1
Ġbasement 1
ĠHi 1
ĠPictures 1
Ġtransfers 1
ĠSell 1
Ġfluid 1
Ġambitions 1
wife 1
Ġintensive 1
Ġsteals 1
Ġfestive 1
ĠHayes 1
Ġrestoration 1
Ġbranded 1
Journal 1
Ġmacro 1
Ġconsole 1
ĠMelania 1
ĠRahul 1
Ġdisposal 1
Ġcult 1
Ġpetrol 1
Ġtires 1
Ġkidnapping 1
Ġ115 1
Ġswap 1
ĠSud 1
Ġblown 1
ĠHindu 1
ĠBeckham 1
ĠGul 1
Ġfixture 1
Ġwisdom 1
Ġmines 1
fort 1
Ġrivers 1
ĠCyber 1
Ġtouches 1
race 1
Ġrelax 1
Ġcrashes 1
Ġconstituency 1
Ġ1979 1
Ġbureau 1
Ġinterface 1
Ġdetected 1
ĠBio 1
Ġhighlighting 1
ames 1
Ġcorresponding 1
great 1
Ġgray 1
Ġadvantages 1
ĠME 1
ĠAbbas 1
Ġnaked 1
rington 1
.), 1
ĠFace 1
third 1
Ġtranscript 1
ples 1
Good 1
ĠArctic 1
Ġtolerance 1
reat 1
green 1
ĠMik 1
Ġoutreach 1
Ġrolls 1
Ġgen 1
Ġsupplied 1
Ġguarantees 1
aug 1
Ġsemif 1
ounds 1
running 1
Ġfitting 1
ĠRisk 1
iveness 1
family 1
Ġti 1
ĠIsaac 1
Ġdump 1
ĠPatricia 1
Ġpassport 1
ĠRhode 1
Who 1
log 1
Ġstat 1
Ġrat 1
ango 1
SB 1
ĠMaur 1
Ġsmiling 1
Ġstrikeouts 1
Ġpupils 1
Ġcomplications 1
ĠAdvanced 1
ĠMonetary 1
ĠTall 1
ĠALL 1
Ġcontributor 1
ĠAdvertising 1
Ġhorrific 1
Ġcompeted 1
ĠKenneth 1
Ġhailed 1
Ġbones 1
Ġbolster 1
ĠBoss 1
Ġhospitalized 1
ĠTelegraph 1
ĠIndependence 1
Ġdr 1
ĠHang 1
Ġdocumented 1
Ġsubtle 1
invest 1
Ġbounced 1
ĠMAN 1
Ġprofession 1
Ń 1
Ġexcellence 1
ĠInspector 1
ĠBL 1
Ġdisrupt 1
ĠWinston 1
ĠCommunist 1
ĠSharon 1
Ġmechanical 1
Ġtreats 1
Ġdesperately 1
ĠIndy 1
ĠGi 1
ĠComposite 1
ĠHeath 1
aser 1
ĠCardiff 1
ilit 1
Ġeased 1
Ġprospective 1
Ġcommissioned 1
Ġtire 1
Ġalign 1
Ġgesture 1
Ġweakened 1
URE 1
SN 1
Ġnationals 1
Ġrelies 1
ĠIRS 1
ĠCount 1
Ġmedicines 1
Ġcongress 1
Ġstranger 1
Qu 1
lessly 1
ĠQueens 1
ĠAlleg 1
uing 1
ĠWy 1
ĠMiguel 1
idi 1
Ġcivic 1
ĠPetro 1
endo 1
Obviously 1
Ġreflection 1
ĠStop 1
ĠFitzgerald 1
placed 1
shore 1
Ġcorrectly 1
ĠNE 1
amy 1
ĠCT 1
some 1
ĠMb 1
oi 1
ĠHogan 1
ĠInnovation 1
ĠVilla 1
ĠCAN 1
ĠCemetery 1
into 1
Ġquestionable 1
Ġcreator 1
rug 1
Ġsemifinals 1
mission 1
Ġcle 1
ĠWaters 1
ĠNixon 1
ĠBT 1
Ġassuming 1
ĠJer 1
ĠClay 1
pack 1
ĠCool 1
may 1
Ġdecor 1
Ġspike 1
ĠSomalia 1
ĠKarn 1
ĠDamascus 1
Shares 1
Ġsus 1
ĠMoss 1
Ġ1985 1
Ġsuperintendent 1
ĠResults 1
Ġspends 1
prom 1
Ġshipped 1
Ġlaundering 1
ĠLeslie 1
Ġmeteor 1
Ġabandon 1
Ġdeliberately 1
ĠSentinel 1
Ġfascinating 1
Ġenrollment 1
ĠExperts 1
ĠSimilarly 1
ĠCuomo 1
bor 1
Ġune 1
neutral 1
Ġhamstring 1
Ġnegotiated 1
zes 1
ĠLeo 1
ĠDoctor 1
Ġcurriculum 1
ĠFocus 1
Ġtravels 1
Ġbeverage 1
ĠIncluding 1
tz 1
type 1
ĠRange 1
Ġfloods 1
Ġcoached 1
Ġdominance 1
letico 1
ĠRafael 1
Ġpredictions 1
Ġprosperity 1
ĠCav 1
Ġclinics 1
ĠBanking 1
ĠComing 1
ears 1
ĠKaepernick 1
ĠBlvd 1
Ġretained 1
isions 1
Ġko 1
Ġensemble 1
Ġprecise 1
Ġcompact 1
MD 1
ĠJet 1
ached 1
ĠTru 1
ĠBass 1
ĠIcon 1
Ġexcluding 1
sur 1
Ġconstruct 1
Ġvoiced 1
pan 1
Ġinability 1
Ġexc 1
Ġmate 1
Ġtrailing 1
Ġsuccessive 1
Ġbets 1
Ġgauge 1
Ġminorities 1
ĠIND 1
ĠVel 1
ĠGP 1
oid 1
bon 1
Ġpred 1
Ġdash 1
Ġperformer 1
Ġoccasional 1
aken 1
mes 1
America 1
Ġliver 1
Sp 1
Big 1
Ġwildfires 1
ĠJackie 1
ĠLed 1
ĠFinland 1
Ġjurors 1
olic 1
urance 1
ĠEdge 1
open 1
Ġscenarios 1
Ġglory 1
entry 1
ĠCoffee 1
rep 1
ĠChand 1
ĠVas 1
ĠIslamabad 1
Ġbur 1
ĠFle 1
ĠEdition 1
Ġshoe 1
ï¸ı 1
** 1
tle 1
ĠEb 1
keeping 1
ĠBasketball 1
ĠVon 1
ĠCF 1
MENT 1
amm 1
ĠFernando 1
Ġcompares 1
ĠDouble 1
Ġconvictions 1
Ġatop 1
Ġcops 1
Ġremembers 1
Ġlacking 1
dom 1
itate 1
ĠBeauty 1
Ġdevelops 1
ĠGor 1
Ġfunctional 1
ĠCOUNTY 1
ĠUpon 1
Ġsprint 1
Ġinjection 1
Ġminors 1
ĠTamil 1
ĠGat 1
101 1
ety 1
Ġdrum 1
Ġtasked 1
Ġpact 1
Ġ170 1
MR 1
ĠRamos 1
Ġcandy 1
Sc 1
iced 1
Ġsupermarket 1
Ġworrying 1
Ġsellers 1
ĠTag 1
.: 1
Ġmixture 1
oting 1
Bl 1
ĠLl 1
ĠJal 1
ican 1
ĠBid 1
country 1
ĠStrategy 1
Ġadverse 1
Ġplunged 1
ĠMit 1
Ġstark 1
aton 1
Ġbooking 1
Tr 1
Ġcontainers 1
Ġvintage 1
ĠPit 1
Ġsurfaced 1
Ġindependently 1
Ġdetection 1
ĠBeyon 1
Ġcasualties 1
Ġstabbing 1
oved 1
Ġbarred 1
Ġthereby 1
Ġpartnered 1
Ġposing 1
ĠShannon 1
ĠChapel 1
Ġtechnically 1
uous 1
Â» 1
ometer 1
Ġwildfire 1
share 1
heart 1
Ġammunition 1
Ġthrive 1
ĠStre 1
GP 1
cÃ© 1
ĠMonaco 1
goal 1
ĠUm 1
ĠHSBC 1
ĠHilton 1
ĠViv 1
ĠKell 1
Ġdecisive 1
Ġmotive 1
amo 1
feld 1
ĠWH 1
iry 1
ulu 1
ĠSchneider 1
Ġcampaigning 1
Ġseparately 1
igo 1
ĠED 1
ĠRamirez 1
Ġmetro 1
ĠPatel 1
ĠChi 1
ĠAudi 1
Ġcharacteristics 1
Ġrestart 1
Ġkeyboard 1
ĠSD 1
his 1
biz 1
ĠSoft 1
ĠGrammy 1
Ġcontested 1
Ġweekends 1
Ġ112 1
Ġcycling 1
Ġhealthier 1
ija 1
Ġheader 1
Ġemploy 1
İ 1
Ġshortages 1
ĠAsk 1
ĠIvanka 1
Ġpartisan 1
Ġflowing 1
Ġcave 1
ENS 1
Ġups 1
read 1
ouch 1
Ġ102 1
Ġforming 1
bot 1
bie 1
Ġenrolled 1
Ġconcussion 1
Ġaffidavit 1
Ġmysterious 1
uries 1
ĠMang 1
Ġauthentic 1
Ġmetrics 1
ĠTwins 1
Ġprep 1
IJ 1
Ġdesired 1
ĠDiv 1
wall 1
ĠTab 1
Ġcompet 1
Ġrelied 1
Ġinequality 1
Ġmanual 1
ĠBucks 1
agging 1
Ġcorporation 1
Ġbanner 1
Ġgraphics 1
Ġaccurately 1
ĠMeeting 1
Ġconsult 1
ser 1
Ġprotesting 1
Ġhurting 1
omed 1
tes 1
Ġrode 1
Ġstartups 1
Ġhanding 1
ĠNest 1
Ġconsistency 1
anned 1
dem 1
ĠLyon 1
ĠCompetition 1
Ġtricky 1
Ġcos 1
ĠBengals 1
arry 1
Ġunderwent 1
ĠKit 1
à 1
uploads 1
Ġskate 1
Ġ'' 1
Ġjun 1
ĠContent 1
focused 1
lat 1
ĠExp 1
ought 1
Ġnightmare 1
ĠExpect 1
Ġprecisely 1
ĠMonica 1
Ġlobbying 1
ĠChester 1
ĠInvest 1
Former 1
Ġimminent 1
ĠNL 1
Ġcomparing 1
ĠChes 1
ede 1
ĠNobel 1
mers 1
ĠKin 1
ĠBoko 1
ount 1
Ġthoroughly 1
Ġscattered 1
sharing 1
markets 1
ĠMis 1
Ġambition 1
Ġpreference 1
Ġeffectiveness 1
rio 1
Ġheavyweight 1
Ġovert 1
anya 1
ĠKanye 1
ishi 1
Ġrewards 1
uled 1
bach 1
Ġemphasized 1
Ġapologize 1
ĠRecent 1
!! 1
Ġanimated 1
ĠExxon 1
Ġfruits 1
Ġstripped 1
fold 1
ĠIndonesian 1
ller 1
Ġdementia 1
Ġkidney 1
Ġhalted 1
years 1
Ġconcerts 1
Ġrefers 1
ĠFri 1
Your 1
irl 1
Ġleap 1
jud 1
ĠHugh 1
ĠFO 1
Ġsore 1
Ġkil 1
ĠMate 1
cci 1
Ġsetback 1
Ġtightening 1
keeper 1
ĠAlbany 1
Ġpolicymakers 1
Ġdisorders 1
ĠCBC 1
ĠDiaz 1
Ġmaps 1
Ġroutinely 1
Ġverify 1
Ġbash 1
ĠJinping 1
Ġdisasters 1
ĠMonroe 1
ĠLouise 1
JP 1
ĠNevertheless 1
Ġconcessions 1
ĠPog 1
going 1
ĠFifth 1
ĠJill 1
ICT 1
ĠFM 1
ĠSugar 1
ĠBarb 1
Ġmidway 1
Ġtin 1
ĠPic 1
ĠPL 1
Ġleaks 1
Ġgrief 1
Ġtattoo 1
` 1
Ġment 1
ĠNu 1
Ġmarry 1
Ġdiving 1
Ġ1982 1
Ġcoin 1
ĠPoc 1
Ġstarred 1
ĠRiverside 1
Ġsidelined 1
Ġminers 1
STON 1
Ġbelongs 1
ĠSantos 1
ĠTechnical 1
aco 1
Ġadvise 1
Ġstreams 1
Ġcooler 1
ĠHE 1
Ġordering 1
ĠTask 1
ĠACT 1
ĠAnton 1
Ġcertification 1
ĠLeafs 1
ĠTS 1
ĠSerbia 1
azi 1
inks 1
ĠEST 1
Ġrelay 1
Â° 1
Ġdisappearance 1
ĠRomania 1
Ġoven 1
Ġowed 1
ĠStrip 1
ulated 1
UC 1
ITE 1
bling 1
Then 1
ppy 1
Ġunlimited 1
Ġcalories 1
Ġmerchandise 1
Ġblonde 1
ĠSpicer 1
performing 1
Ġimpl 1
Ġplates 1
Ġmosque 1
Ġdemon 1
Ġought 1
Ġdumped 1
Ġtracked 1
even 1
Ġstabil 1
imet 1
ĠLiga 1
ugh 1
ther 1
agar 1
Ġarchitect 1
Ġallocated 1
ĠJoey 1
Ġmarathon 1
master 1
ĠBert 1
Ġast 1
ĠEbola 1
ĠConservation 1
nic 1
Ġparallel 1
Ġinmate 1
Ġlocate 1
Ġdistribute 1
guard 1
Ġtackling 1
ential 1
Ġvi 1
Ġcups 1
Ġrhythm 1
Ġendured 1
ĠHub 1
ois 1
ĠLiberals 1
ĠRedskins 1
ĠEP 1
ĠKnox 1
fr 1
Ġmassacre 1
oka 1
Ġcompl 1
raft 1
ĠPublished 1
Ġattraction 1
ĠStephens 1
ility 1
ĠPul 1
ĠCapt 1
Ġexploded 1
Ġexceeded 1
lying 1
Ġcal 1
Mart 1
Ġpaintings 1
inate 1
ĠBrendan 1
Ġfortune 1
onductor 1
Ġphysicians 1
ĠStudy 1
ĠBul 1
ĠModern 1
HD 1
ĠBour 1
Ġtying 1
Ġ1967 1
Ġlighter 1
Ġtoss 1
inspired 1
Ġgreeted 1
Ġcycl 1
Ġverified 1
Ġmerit 1
sign 1
lder 1
Ġdebts 1
ĠSnyder 1
Ġamendments 1
Ġindicators 1
ĠDortmund 1
then 1
ĠListen 1
ĠFB 1
ref 1
ĠIoT 1
ĠBrewers 1
ĠLeadership 1
ĠNicolas 1
ĠBody 1
Ġsam 1
ĠAdvisor 1
Ġcord 1
Ġabuses 1
ĠPortuguese 1
Ġflown 1
VR 1
Ġconsumed 1
Ġreass 1
Ġalien 1
Ġrivalry 1
ĠREPORT 1
ĠRush 1
Ġdirecting 1
Ġsearches 1
ĠHP 1
ĠRoll 1
ĠFay 1
ĠClare 1
Ġhaul 1
Ġriot 1
Ġsettlements 1
Ġnorm 1
Ġaccelerated 1
ĠLok 1
Ġclever 1
Ġhyd 1
Ġstats 1
ĠHull 1
kers 1
Ġbuys 1
uter 1
Ġfue 1
https 1
UD 1
Ġisolation 1
Ġsuspend 1
ĠRules 1
ĠCircle 1
ĠHopefully 1
played 1
âĢ³ 1
ĠPRE 1
sim 1
edd 1
ĠProperties 1
Ġbeans 1
Ġrevive 1
ĠBir 1
oug 1
Ġmob 1
Ġshowdown 1
iman 1
Ġpap 1
Ġvol 1
wu 1
Ġdiver 1
Ġpill 1
ĠMarlins 1
ĠLamar 1
Ġpersistent 1
Ġcondolences 1
ĠThor 1
Ab 1
Ġimpress 1
ĠRaptors 1
Ġreferences 1
Ġstiff 1
ĠBash 1
eding 1
Ġmurders 1
ĠGene 1
ĠManila 1
Ġbrokers 1
Ms 1
start 1
ĠDhabi 1
etz 1
Ġsubmission 1
ĠSchmidt 1
ĠPersonal 1
ĠBeverly 1
ĠMovie 1
ĠLamb 1
Ġplacement 1
Ġfolk 1
Ġfrequency 1
Ġplanted 1
Ġtwins 1
prov 1
rec 1
Ġpermanently 1
Ġcoordination 1
ĠCart 1
Ġobstacles 1
Ġliterature 1
Ġtu 1
Ġchill 1
ĠReserved 1
Ġlovers 1
ĠOutside 1
Ġslideshow 1
ĠGru 1
Ġty 1
Ġsalad 1
Ġlaboratory 1
ĠHolt 1
Ġ103 1
urb 1
ĠOrganisation 1
ĠAndrews 1
Ġrecipient 1
arch 1
Ġbleeding 1
ĠPand 1
Ġoverturned 1
Ġlistened 1
Ġclause 1
Ġnationalist 1
Ġresumed 1
ĠCout 1
ĠPride 1
Ġlayers 1
ĠBella 1
Ġreversed 1
Ġpriest 1
ĠFX 1
Ġalbeit 1
Ġhalfway 1
Ġcotton 1
ĠCarey 1
ĠTE 1
OCK 1
Ġbuck 1
ributes 1
ea 1
Ġfancy 1
ĠBuc 1
Ġbans 1
uters 1
Ġliabilities 1
ĠSou 1
ĠBernie 1
Ġintervene 1
food 1
ĠNDP 1
Ġinsist 1
Ġcontracted 1
hawk 1
)," 1
ĠDawn 1
Ġmol 1
Ġcommissioners 1
Ġstranded 1
Ġoverwhelmed 1
Ġrecipes 1
Ġva 1
Ġrad 1
Ġscare 1
rez 1
Ġeliminating 1
Ġresc 1
ĠBreak 1
chn 1
Ġdelight 1
iot 1
Ġfreely 1
TI 1
ĠBluetooth 1
ĠMonth 1
ĠFlor 1
ĠFreddie 1
Ġtrailed 1
Ġinvestigative 1
Ġimposing 1
Ġattracting 1
awk 1
ĠSherman 1
Ġsucceeded 1
Ġvent 1
Ġreconciliation 1
ĠCel 1
ĠThroughout 1
ĠDowntown 1
ĠBrother 1
Ġtraditions 1
Ġmir 1
Ġstamp 1
tery 1
etti 1
isch 1
tic 1
Ġbanning 1
loss 1
ĠSpeedway 1
Ġstalled 1
ĠEN 1
ASH 1
thing 1
ĠAppeals 1
rac 1
Ġdistress 1
ĠConservatives 1
ĠPremium 1
usa 1
Ġslump 1
imm 1
ĠSupp 1
ĠWong 1
Ġdistant 1
Ġ104 1
Ġtide 1
ĠNorfolk 1
ĠYang 1
Ġsmashed 1
ĠBarrett 1
inho 1
Ġrobbed 1
ĠFarmers 1
filled 1
BT 1
Ġautumn 1
Ġtemple 1
ĠJacobs 1
Ġprecipitation 1
ĠHours 1
ĠFlight 1
Ġbeside 1
ĠOre 1
!) 1
ĠTurnbull 1
Ġpig 1
Ġcooling 1
Ġservers 1
oriented 1
Ġlocks 1
ĠSears 1
aving 1
ĠQuick 1
ĠGlob 1
ĠMining 1
Ġhorizon 1
arians 1
ĠOm 1
writing 1
Ġbelieving 1
Ġbon 1
Ġmounted 1
Ġpunt 1
ucci 1
uzz 1
cul 1
Ġkiss 1
ĠOnt 1
ĠCyprus 1
Ġrelying 1
Ġpiano 1
Ġcure 1
Ġcontinuously 1
ĠNobody 1
ĠBund 1
osis 1
ĠAurora 1
ĠBach 1
ĠKendall 1
Ġechoed 1
iable 1
Ġconscious 1
Ġmonster 1
omo 1
proof 1
ĠNate 1
Ġfilmmaker 1
ĠNaj 1
Ġvendor 1
ĠFoot 1
ĠChang 1
ĠFest 1
Ġselfie 1
Ġenters 1
ĠConor 1
ĠMosul 1
ĠWHAT 1
Ġwa 1
ĠGamb 1
osta 1
Ġcautioned 1
ĠTucker 1
ĠAirways 1
Ġvisitor 1
ĠÂ· 1
ĠRevolution 1
aching 1
Ġearliest 1
ĠQuality 1
Ġshorts 1
ube 1
ĠOperation 1
ĠSabha 1
Ġstrengths 1
ikes 1
Ġsexy 1
Ġrot 1
ibles 1
Ġcolours 1
THE 1
ailed 1
Ġwoke 1
ĠEmbassy 1
Ġinfamous 1
rov 1
State 1
âĢ¦. 1
Ġpond 1
Ġcapt 1
fore 1
De 1
Ġedited 1
self 1
Hey 1
Ġportrait 1
ĠManufact 1
ĠStand 1
Ġcontenders 1
': 1
acker 1
Ġwithdrawn 1
ĠBraves 1
ĠHosp 1
changing 1
ĠBag 1
Ġadjustment 1
ĠCousins 1
ĠAAP 1
Ġfi 1
Ġoutdoors 1
Ġlacked 1
BM 1
ĠWHO 1
ĠPST 1
ĠLuck 1
Ġassisting 1
ĠGround 1
ĠTeen 1
ĠOle 1
Ġembarrassing 1
ĠWalt 1
ĠVision 1
ĠFal 1
ĠZoo 1
ĠWorth 1
ĠFloyd 1
ĠGujarat 1
Ġtipped 1
Ġfam 1
ĠDad 1
Ġworship 1
Ġtyre 1
Ġrebuilding 1
Ġqualities 1
ĠLives 1
Ġbeats 1
Ġ450 1
Ġexisted 1
ĠGeorg 1
Ġpoured 1
rows 1
ĠOx 1
ĠSid 1
Ġmac 1
Ġteaches 1
ĠEli 1
alla 1
Ġdownside 1
ĠBend 1
non 1
ĠArmenia 1
Ġcultures 1
ĠMae 1
Ġduration 1
ĠAthletics 1
Ġjuvenile 1
Ġlid 1
Ġbankers 1
Ġoverview 1
wy 1
Ġorbit 1
Vs 1
because 1
Ps 1
ĠFran 1
Ġtouring 1
Ġwary 1
Ġ106 1
Ġlaser 1
ĠVij 1
âĦ¢ 1
Ġsurrender 1
press 1
rees 1
NO 1
ĠShortly 1
ĠKor 1
edu 1
Ġhatred 1
Ġtee 1
Ġfamously 1
Ġkeeper 1
ND 1
Ġreduces 1
HC 1
Ġhay 1
Ġunnamed 1
ĠTes 1
Ġattackers 1
ĠFew 1
ĠRichards 1
Ġ1968 1
Ġspeeches 1
Ġcybersecurity 1
ĠInfrastructure 1
Ġ07 1
ENCE 1
uties 1
Ġanxious 1
ĠGang 1
Ġannouncements 1
lette 1
oret 1
ĠRockies 1
ĠEmployees 1
ĠThrones 1
Ġhugely 1
Ġclin 1
ĠHob 1
Ġfraction 1
ĠOfficial 1
ĠMariners 1
ĠElse 1
Ġsanctuary 1
ĠPhotograph 1
Ġreopen 1
lf 1
hm 1
vest 1
Ġspeeding 1
Ġtooth 1
ĠShi 1
ĠTitle 1
ĠMes 1
ĠJobs 1
fair 1
ĠDanish 1
ĠMalik 1
Ġlaughed 1
Ġnavy 1
ĠActress 1
ĠWilliamson 1
overs 1
Ġreckless 1
Ġjo 1
otic 1
Ġassaulting 1
Ġpri 1
ĠPi 1
Ġlesser 1
Ġtit 1
Ġdat 1
Ġnail 1
ĠMarathon 1
ĠGren 1
ĠDol 1
Ġjointly 1
Ġamended 1
mine 1
ĠBashar 1
ĠHyundai 1
Ġuncovered 1
Ġeducated 1
atti 1
pres 1
ĠBRE 1
Ġya 1
Bank 1
odd 1
lit 1
ĠLinks 1
Ġswitching 1
itte 1
ĠSind 1
erved 1
Ġ** 1
Ġpositively 1
Ġfrankly 1
Ġrevenge 1
ĠTrinity 1
ĠCDC 1
Ġthreatens 1
Ġhammer 1
NET 1
ĠMut 1
Ġsy 1
Ġunidentified 1
icken 1
Ġdrills 1
Ġtense 1
Ġforeigners 1
OST 1
Ġethical 1
ĠDurham 1
ĠQual 1
Ġterritories 1
Ġid 1
hor 1
enders 1
Mc 1
OV 1
percent 1
Ġdom 1
Ġupward 1
Ġamb 1
Ġvisas 1
zan 1
Ãĥ 1
Ġundocumented 1
Ġsuburbs 1
Ġhydro 1
ĠJob 1
ĠAdelaide 1
oya 1
ĠSR 1
ĠMick 1
Ġconsolidation 1
Ġemotionally 1
ĠHop 1
Her 1
Ġloses 1
ĠMoto 1
eled 1
Ġregulated 1
ental 1
Ġencountered 1
Ġhop 1
ĠTrafford 1
Ġsticks 1
Ġveto 1
Ġexpose 1
Ġstretched 1
fin 1
inance 1
chair 1
ĠGareth 1
ĠPil 1
ĠHammond 1
Ġserial 1
omy 1
Ġcellphone 1
ĠClara 1
Ġreacted 1
ĠNic 1
ĠHomes 1
ĠBroadcasting 1
ĠFut 1
ĠSupply 1
assing 1
ĠNewman 1
Ġcharitable 1
ĠClayton 1
Ġsovereignty 1
Ġconvincing 1
ĠPrincipal 1
ĠHigher 1
ĠCut 1
ĠCarrie 1
ĠSpot 1
Sometimes 1
ĠJar 1
ĠConsider 1
ieu 1
Ġrefinery 1
Ġbloody 1
wheel 1
Ġcryptocurrencies 1
Fund 1
ĠSunderland 1
ĠEvents 1
âĢĭ 1
Ġaccidentally 1
deep 1
Ġfranc 1
bec 1
ĠHartford 1
Ġstellar 1
wright 1
kick 1
UG 1
ĠBeast 1
Ġrefusal 1
ĠRoberto 1
ĠDixon 1
ĠDiane 1
name 1
asts 1
ĠCharter 1
Ġfueled 1
Ġcontents 1
Ġaccessing 1
Ġtroubles 1
Ġtops 1
Ġdebuted 1
icating 1
Ġinvestigator 1
Ġsubscribing 1
Ġcoordinated 1
ĠFil 1
six 1
teen 1
Ġwithdrew 1
ĠGilbert 1
Ġ1983 1
arsity 1
Ġimagination 1
Ġhandgun 1
ĠAlibaba 1
Ġbug 1
Ġ107 1
ĠCOMP 1
ĠSomething 1
Ġreliability 1
ĠFCC 1
ĠFowler 1
Ġsingled 1
nom 1
Ġknocking 1
Ġmeddling 1
Ġdetermining 1
reports 1
Ġshade 1
ĠSN 1
anto 1
Ġcomplaining 1
ĠNan 1
WS 1
Ġyoungsters 1
Il 1
ĠKaw 1
ĠProp 1
ĠCell 1
ĠHurricanes 1
Ġpublicity 1
ĠXin 1
rial 1
ICO 1
Ġsupervision 1
ĠSpotify 1
ĠNewport 1
Ġprince 1
anche 1
Ġsubscriber 1
ĠVic 1
ACT 1
ĠRaf 1
ĠActing 1
Ġcollusion 1
pet 1
isl 1
Ġcommerce 1
Health 1
ĠAbraham 1
pri 1
Ġlightweight 1
Ġinsurer 1
Like 1
Ġhelmet 1
Ġevac 1
look 1
ĠNaval 1
160 1
ĠFleet 1
vol 1
Ġexpired 1
ĠKlein 1
ĠEmmy 1
ABLE 1
ĠMorocco 1
ĠTrip 1
uted 1
Ġnos 1
ĠVista 1
mas 1
ĠRocky 1
ĠFlint 1
enberg 1
ĠBrow 1
Ġsignatures 1
Ġpolar 1
ajo 1
Ġendorsement 1
Ġreservations 1
LIN 1
anny 1
elli 1
last 1
Ġoversee 1
cm 1
ĠOilers 1
Are 1
Ġjudiciary 1
onte 1
ĠTrack 1
Ġsupervisor 1
erk 1
isher 1
Ġintact 1
Ġslid 1
icals 1
paid 1
ĠMAR 1
lement 1
ĠLiu 1
ĠLarge 1
ĠWings 1
pect 1
ĠRum 1
Ġanalyzed 1
Ġemploys 1
arte 1
ims 1
ĠEventually 1
Ġaffiliated 1
Ġhospitality 1
ĠSprint 1
Ġresolutions 1
Ġliquor 1
ĠNAFTA 1
ANY 1
Ġradiation 1
ĠProv 1
Ġpause 1
ĠTMZ 1
Ġelbow 1
Ġresilience 1
ĠParents 1
mus 1
ĠSafe 1
Ġinterpretation 1
Ġraced 1
IND 1
KR 1
Ġhinted 1
ĠErin 1
ĠBahrain 1
Ġcredentials 1
eless 1
Ġprocurement 1
ĠWebb 1
ĠLowe 1
ĠNak 1
ĠLearning 1
zh 1
Ġdipped 1
ĠSuite 1
Ġmisdemeanor 1
ALE 1
Ġstrengthened 1
ĠSophie 1
Ġconfirms 1
Ġrac 1
gey 1
Ġshootout 1
Ġble 1
Ġcircles 1
ĠChef 1
Ġcomprised 1
ĠSantiago 1
Ġfeud 1
beat 1
Ġstaffers 1
Ġacute 1
ski 1
Ġpolled 1
ĠKur 1
ĠJen 1
ĠUltimately 1
anded 1
ĠHoney 1
Ġannounces 1
Ġamateur 1
around 1
Ġfunctioning 1
group 1
ĠSqu 1
Where 1
Ġvoid 1
ĠSandra 1
isers 1
Ġhelicopters 1
ĠGym 1
ĠWol 1
mouth 1
Ġsubjected 1
ici 1
ually 1
ĠWash 1
ĠLindsay 1
ĠVers 1
Ġjumps 1
Ġneglect 1
ĠKuwait 1
fund 1
ĭ 1
ather 1
lly 1
ei 1
Although 1
.'' 1
Ġunhappy 1
Ġpills 1
Ġmagical 1
Ġdro 1
Ġinviting 1
ĠJohnston 1
oving 1
450 1
ĠMerc 1
Ġadmitting 1
Ġinsisting 1
ĠCru 1
ĠResource 1
oir 1
Ġcomplexity 1
ĠRoth 1
ĠCher 1
July 1
raf 1
Ġaggregate 1
Ġhelm 1
uclear 1
olan 1
Ġoffenses 1
ĠWolves 1
ĠFu 1
ĠPierce 1
Ġemailed 1
ĠStra 1
Ġpedestrians 1
ĠER 1
ĠConway 1
Ġblowing 1
CLOSE 1
hab 1
ĠGreene 1
Ġconfessed 1
ĠTorres 1
ĠHolocaust 1
Ġrepay 1
Ġdemonstrates 1
ĠPool 1
gent 1
Ġdeleted 1
Ġ$$ 1
ĠSO 1
Ġdri 1
ĠNeg 1
ĠVP 1
ĠPF 1
ĠPrep 1
Ġorganizing 1
icker 1
Ġmanufactured 1
enson 1
adas 1
Ġwines 1
Ġmachinery 1
Ġspecialists 1
ĠDetective 1
ĠDL 1
Op 1
Ġquicker 1
ĠPenguins 1
Engine 1
zone 1
Ġsequence 1
ĠLost 1
Ġwarmer 1
ĠEthiopia 1
Ġaffirmed 1
fest 1
resses 1
Ġsoap 1
Ġbooth 1
Ġnotorious 1
amin 1
Ġpursued 1
ĠCer 1
ĠSB 1
Ġlivestock 1
Ġtrace 1
Ġrespects 1
arden 1
April 1
Ġ128 1
ĠSaid 1
ennial 1
Ġnamely 1
ĠBot 1
Ġ108 1
ĠLem 1
nell 1
Ġconfirming 1
Ġlogged 1
Ġprofound 1
elo 1
ĠChambers 1
RT 1
Ġnewer 1
Ġsideline 1
ĠCardinal 1
este 1
Ġnarrowly 1
Ġcompromised 1
Ġpolicing 1
Ġporn 1
Ġarc 1
Ġlearnt 1
INE 1
step 1
ĠDomin 1
Ġwaist 1
Ġboycott 1
mitted 1
iffs 1
ground 1
ĠMaterials 1
Ġceasefire 1
Right 1
ĠZen 1
estyle 1
Thank 1
ĠOnePlus 1
ĠMLS 1
Ġconstituents 1
oster 1
ĠProsecutor 1
Ġpriorit 1
ĠDebbie 1
ĠExpand 1
uv 1
Ġintegrate 1
Ġimmun 1
Ġdisciplinary 1
ĠImm 1
Ġja 1
Ġgardens 1
ĠHim 1
obe 1
Ġhitter 1
Ġbullets 1
Ġevolving 1
ĠScientists 1
Michael 1
ĠDO 1
Ġunbelievable 1
Ġlooming 1
Ġdownturn 1
Ġmentality 1
Ġreopened 1
Ġash 1
ĠChapman 1
Ġloop 1
ĠUT 1
ĠTier 1
Ġunaware 1
Ġgratitude 1
Ġperforms 1
olk 1
Ġ"( 1
Ġlacks 1
Ġinstructed 1
ĠRecreation 1
sample 1
Ġrequesting 1
Canada 1
Ġsupposedly 1
ĠHardy 1
Ġholder 1
change 1
ĠDominic 1
ĠXavier 1
Ġlig 1
Ġcandid 1
ĠRab 1
Ġconferences 1
ĠBurton 1
Dr 1
Ġmunicipalities 1
Ġcrushed 1
Ġseekers 1
ĠCitizens 1
Ġheightened 1
ĠCasino 1
Ġdesktop 1
Ġwhoever 1
ĠImpact 1
Ġcocktail 1
Ġphilanthrop 1
ĠSAN 1
ĠPreston 1
Ġobesity 1
Ġrestrict 1
ĠKab 1
ĠProvidence 1
Ġscar 1
ĠChart 1
Ġbosses 1
ĠRate 1
Ġsav 1
pay 1
Ġtransplant 1
ĠNoble 1
child 1
Ġconclusions 1
FI 1
Ġsack 1
Ġexperimental 1
holder 1
oca 1
herty 1
ĠMT 1
Ġcatcher 1
LY 1
Ġgrams 1
reet 1
Ġadaptation 1
Ġhumble 1
Ġbot 1
Ġidentical 1
ication 1
ifer 1
ĠCrow 1
Ġregain 1
ĠLightning 1
Ġkg 1
Ġcomposed 1
Ġcorrespondent 1
Ġreunion 1
Ġobserve 1
Ġcomprising 1
Ġimpeachment 1
Ġresh 1
Ġlemon 1
ĠSnap 1
Ġproprietary 1
een 1
ourt 1
Ġdetective 1
Ġlabels 1
Ġcorridor 1
ĠClinic 1
Ġarra 1
ĠPearl 1
Ġinformal 1
ĠUnd 1
ĠVenezuelan 1
Ġpeninsula 1
Ġdefeating 1
Ġsyndrome 1
iere 1
Ġspite 1
bag 1
aran 1
Ġspecialized 1
ĠAA 1
ĠLyn 1
Ġinstrumental 1
Smith 1
Ġpivotal 1
Ġnightclub 1
ĠCob 1
Ġcolorful 1
Ġartwork 1
Ġ1981 1
Ġdawn 1
erville 1
uated 1
ief 1
Ġlinking 1
ĠOw 1
Ġappreci 1
Ġreductions 1
elling 1
Ġsalmon 1
bb 1
ĠPhillip 1
yle 1
Ġassure 1
Ġdiscretion 1
Ġefficiently 1
ĠMau 1
abil 1
Ġintentionally 1
Ġactivated 1
Ġimmense 1
ĠStrategic 1
Ġcheating 1
ĠTrend 1
ĠSamantha 1
Ġcomple 1
Ġhack 1
ĠSerie 1
ĠText 1
Ġstylish 1
ĠFaith 1
ĠGST 1
Ġexterior 1
Ġblessing 1
Ġblanket 1
Ġcooked 1
Ġretaliation 1
Ġtro 1
Ġshelves 1
rose 1
ĠGram 1
Ġsho 1
ĠArgentine 1
Ġclerk 1
specific 1
Ġagreeing 1
Ġstandout 1
black 1
Ġtrending 1
Ġviolate 1
Get 1
Ã±o 1
ĠOpt 1
ĠFrankfurt 1
ĠFranco 1
eness 1
Ġlining 1
Ġzoo 1
oil 1
lia 1
rab 1
Ġorganize 1
Ġwoods 1
Ġscan 1
Ġurgency 1
Ġoccurring 1
Ġreliance 1
Ġconcepts 1
Ġeligibility 1
0000 1
ĠBrief 1
Ġabusive 1
ĠBench 1
Ġrub 1
ĠDil 1
Ġmount 1
Ġmaturity 1
ĠNut 1
nee 1
enc 1
Ġgunfire 1
ĠKill 1
Ġgates 1
Ġflower 1
iol 1
Ġshaped 1
Ġundoubtedly 1
Ġbackgrounds 1
ĠComplex 1
":{" 1
Ġnaming 1
Ġmonument 1
Ġoh 1
Ġembedded 1
Ġbang 1
ĠKro 1
Ġaggression 1
ĠMits 1
During 1
ĠEp 1
iners 1
ĠAnaheim 1
Ġrom 1
Ġoutgoing 1
Ġfulfill 1
Ġreminds 1
Ġren 1
à¤ 1
ĠSue 1
Ġrefresh 1
Ġlif 1
Ġfil 1
ĠLead 1
Ġregulate 1
ĠTeachers 1
Ġclarify 1
obs 1
Ġblasted 1
ĠAx 1
Ġflavors 1
Ġmega 1
Ġhurdles 1
Ġinspector 1
ĠSalvador 1
Ġprescribed 1
Ġrenovation 1
OUR 1
Ġutil 1
ĠBradford 1
Ġwasted 1
Ġlineman 1
Ġpalm 1
icate 1
Ġoverseeing 1
otted 1
ĠRapids 1
Ġjustified 1
aby 1
Ġextends 1
Ġoath 1
bow 1
ĠRivera 1
Jan 1
ĠImran 1
Ġforests 1
ĠShel 1
ĠBrun 1
Ġaerial 1
ĠNOW 1
PAR 1
Ġbeverages 1
ettel 1
Ġfragile 1
Ġcodes 1
Į 1
abel 1
Watch 1
road 1
Ġdismissal 1
ĠRosa 1
Ġcrunch 1
² 1
Ġinnovations 1
Ġhabitat 1
Ġforefront 1
ĠKoch 1
ĠChevrolet 1
Ġwheelchair 1
Ġconsiderably 1
Ġexpenditures 1
Ġtexts 1
Ġprompt 1
Ġskating 1
Ġpetroleum 1
ĠICC 1
Ġvit 1
fit 1
Ġprolonged 1
ĠLucy 1
Ġcho 1
Ġrocked 1
ĠBrom 1
Ġfreed 1
Ġyours 1
ĠEden 1
Ġmonitored 1
asted 1
Ġoversees 1
ieri 1
Ġideology 1
ĠFine 1
tering 1
Top 1
Ġdamp 1
uta 1
Ġlethal 1
Ġpurple 1
udge 1
ĠChemical 1
ĠPetersburg 1
Ġwarns 1
Ġcollectively 1
Ġâ 1
Ġplaintiffs 1
ĠBoris 1
Ġsheep 1
oves 1
ĠAuthor 1
Ġcampuses 1
Ġdestroying 1
Ġgloves 1
Ġcease 1
Ġdelegates 1
Ġpreceded 1
realDonaldTrump 1
Ġforwards 1
erton 1
ĠBuzzFeed 1
Ġoccupation 1
ĠLegion 1
Ġstir 1
Ġshale 1
Ġterrific 1
Ġnewborn 1
Ġstandoff 1
OWN 1
Ġmuscles 1
ĠHerman 1
ĠLiz 1
ĠExperience 1
ĠSuccess 1
ĠHispanic 1
ĠCCTV 1
Ġcomplement 1
ĠBing 1
Ġprem 1
ĠJohannes 1
Ġdent 1
itar 1
ĠHein 1
ĠNicola 1
Ġconcludes 1
ĠKhal 1
Ġparish 1
Ġshaking 1
ĠSchw 1
mod 1
ĠLil 1
Ã±a 1
ĠBog 1
ĠFight 1
Ġgre 1
Ġfel 1
Ġheal 1
err 1
TM 1
airo 1
health 1
Ġswings 1
Ġtier 1
anka 1
ribune 1
emouth 1
ĠBloom 1
Ġowing 1
Tech 1
Ġdough 1
Ġbatch 1
ĠLion 1
ĠZamb 1
Ġcrashing 1
ĠXL 1
ppers 1
ĠDoctors 1
ĠSor 1
video 1
Ġcigarettes 1
ĠBoxing 1
Ġconstitute 1
Ġconcentrate 1
ĠArmenian 1
Ġsemester 1
position 1
emic 1
ĠNYC 1
ĠCampus 1
Ġalternate 1
Ġexped 1
Ġpublishers 1
2015 1
Ġunanimous 1
ĠPrevious 1
Ġwellness 1
ĠCreative 1
edy 1
AGE 1
ĠCavs 1
Ġ1978 1
Ġfu 1
ĠTata 1
ĠChoice 1
Ġwoes 1
ĠCable 1
Ġ~ 1
ĠGem 1
Ġconsolidated 1
ĠManitoba 1
Cloud 1
Ġrounded 1
ĠVentura 1
Ġshark 1
Ġdresses 1
Ġtraction 1
eda 1
Ġdiv 1
Ġdental 1
Wh 1
ĠGig 1
ĠBoyd 1
ĠTransit 1
Ġtelevised 1
SON 1
ĠVince 1
Ġcloses 1
apt 1
ĠWheeler 1
ĠTyson 1
Ġforensic 1
Ġpunished 1
Ġseas 1
Ġnavigation 1
Ġprecedent 1
Ġextremist 1
Ġcomposite 1
PO 1
Ġsurvivor 1
ĠVale 1
gars 1
HT 1
ĠRiyadh 1
Ġrevival 1
ĠPayne 1
Ġcollaborative 1
ĠCustomers 1
ĠPf 1
Ġproves 1
erve 1
Ġelev 1
ĠPaper 1
Ġchore 1
Ġthriller 1
Ġstraw 1
cock 1
Gu 1
Ġaligned 1
ĠChronicle 1
Ġshouting 1
Ġ1976 1
Ġlightning 1
Ġworlds 1
ĠOpening 1
enton 1
ĠAna 1
ĠGol 1
ĠTechn 1
lis 1
Ġorientation 1
ĠArri 1
ĠPG 1
ross 1
Ġsank 1
LOS 1
ĠAllison 1
Ġsmiles 1
USD 1
Ġkits 1
Bar 1
ĠBri 1
Ġounces 1
ĠNielsen 1
eno 1
Ġ109 1
Ġnorms 1
Ġskip 1
180 1
Ġmonitors 1
2012 1
Ġincorporate 1
Ġmechanisms 1
ĠHack 1
ĠBomb 1
ĠGavin 1
ĠNatalie 1
Ġdiscusses 1
Ġassembled 1
Ġcognitive 1
owner 1
Ġgenuinely 1
Ġdisappear 1
ĠAK 1
Ġstal 1
Ġsoup 1
ĠFinn 1
Ġcares 1
Ġfinest 1
Ġtuned 1
ende 1
ĠStefan 1
Ġaccompanying 1
Ã® 1
Maybe 1
Ġoffender 1
TT 1
Ġ212 1
Ġvolleyball 1
needed 1
Ġquo 1
Ġdim 1
ĠHistorical 1
ĠLance 1
gmail 1
ĠGate 1
Ġdemonstrators 1
Ġdy 1
cia 1
ĠSteele 1
ĠJoan 1
ĠKerala 1
KA 1
ĠElectoral 1
Ġpaths 1
Ã¸ 1
Ne 1
Ġaccepts 1
Ġlowering 1
Ġportions 1
ĠValencia 1
Ġfestivals 1
Ġgeneric 1
usk 1
ĠVernon 1
ĠOrioles 1
Ġrenewal 1
Ġbelonged 1
Ġbreathe 1
Ġ220 1
Ġrecruited 1
Ġlogic 1
Ġrecreation 1
Ġverbal 1
ĠHaz 1
double 1
Ġfavourites 1
Ġfundamentals 1
ĠSoc 1
360 1
SO 1
Ġalerted 1
Ġbriefed 1
ĠBruno 1
Ġseating 1
Ġfreight 1
ĠAmer 1
Ġwished 1
table 1
growth 1
ĠWent 1
Ġhilarious 1
Ġthroat 1
bet 1
gon 1
Ġample 1
hee 1
ĠHood 1
ĠIceland 1
ĠAnkara 1
iang 1
Ġpracticing 1
azer 1
Ġleaf 1
Ġhottest 1
Ġmarginal 1
Ġrevelations 1
ĠPrices 1
ĠLar 1
times 1
Ġhandles 1
ĠNaz 1
Ġinstitute 1
Ġtranslate 1
ĠJP 1
Ġsoared 1
Ġconsume 1
ĠTap 1
ĠCelebrity 1
ĠMayweather 1
ĠOracle 1
Ġmor 1
ANA 1
Ġpaperwork 1
aste 1
Ġdil 1
Ġdecorated 1
Ġpromotional 1
ĠMerrill 1
Ġappliances 1
ĠCOP 1
Ġlips 1
ĠBrennan 1
ĠMile 1
ĠNetworks 1
ĠComment 1
ĠIb 1
ĠAgg 1
IDE 1
Ġinitiate 1
Ġknockout 1
Ġbargain 1
Ġaccordingly 1
bee 1
ĠGerald 1
Ġproblematic 1
Ġtrap 1
Ġfinalists 1
addy 1
would 1
Ġstrictly 1
ĠRamsey 1
Ġdownward 1
Ġextract 1
Ġfamed 1
ĠOUT 1
Ġinduct 1
ĠAuckland 1
Ġpoetry 1
mos 1
ĠGuinea 1
management 1
ohan 1
ĠGuide 1
aily 1
umping 1
Ġenacted 1
ĠEye 1
vision 1
umi 1
aped 1
Ġbicycle 1
ĠHouth 1
ĠNAS 1
Ġtapped 1
wer 1
otti 1
EA 1
Ġsurprises 1
ĠUpdate 1
ĠPun 1
ĠMiz 1
ĠOro 1
Ġcostumes 1
title 1
Ġsurviving 1
According 1
themed 1
ĠPeoples 1
Se 1
Ġassociations 1
hett 1
Time 1
Ġessay 1
Ġmu 1
ĠScore 1
ĠSpani 1
ĠSEE 1
Ġmales 1
Ġrage 1
EU 1
ĠYellow 1
rupt 1
Ġapparel 1
Ġsweat 1
Ġnearest 1
zman 1
Ġanticipation 1
Ġinjuring 1
Ġousted 1
chan 1
ĠAlert 1
Ġber 1
atal 1
Com 1
Ġ04 1
Ġafterward 1
edge 1
ĠBooker 1
lex 1
ĠWhole 1
Ġtoughest 1
ĠMaharashtra 1
lier 1
ĠTennis 1
Ġhandy 1
ĠMetal 1
ĠiTunes 1
ĠDiscovery 1
Ġcompassion 1
ĠLIVE 1
Ġeconomically 1
Ġendangered 1
GO 1
Ġmound 1
word 1
ĠTouch 1
ogo 1
Ġincomes 1
when 1
ĠAside 1
Ġscandals 1
Ġfunctionality 1
ĠAer 1
Ġcouncils 1
Ġdenial 1
140 1
Ġimplied 1
Ġoutfits 1
Ġsuited 1
Ġ1973 1
ĠPizza 1
Ġdebates 1
record 1
Ġhype 1
ĠRus 1
ĠRobbie 1
Ġtouted 1
ĠSharp 1
Ġbeings 1
Ġslavery 1
encies 1
ĠRooney 1
Ġnan 1
Ġraids 1
Ġinstructor 1
Market 1
Ġshook 1
Ġdeliberate 1
ĠNorthwestern 1
ĠEss 1
Ġwhatsoever 1
ĠConfederate 1
YS 1
ĠCameroon 1
ĠFlip 1
Yeah 1
Ġwashing 1
mand 1
ĠLex 1
Ġissuance 1
Ġniche 1
Ġfold 1
ĠWendy 1
Ġhy 1
Ġbucket 1
ĠVW 1
ĠCairo 1
ĠSK 1
ĠKang 1
Ġintake 1
Ġhills 1
anz 1
Â© 1
ugu 1
ĠFortunately 1
ĠMarqu 1
Ġimprisonment 1
oking 1
Ġdistributors 1
zie 1
Ġstip 1
ĠWire 1
Ġcouncillors 1
Ġsue 1
ĠRegardless 1
ĠEnc 1
Ġbaking 1
ĠVenture 1
Ġintriguing 1
Ġupheld 1
ĠActive 1
Ġgenes 1
ĠDawson 1
ĠPreviously 1
ĠRac 1
Ġmetric 1
Files 1
ĠiPhones 1
ĠWelcome 1
Ġburns 1
ĠScreen 1
ashes 1
ĠApr 1
Ġtheories 1
san 1
ĠRenault 1
ĠSinger 1
Ġfounders 1
Russian 1
ĠBelfast 1
Ġimagined 1
ĠPlanet 1
ĠCatalan 1
ĠRochester 1
Ġevolve 1
ĠOT 1
Ġpassword 1
Ġhomelessness 1
Ġbacklog 1
Ġpresenter 1
Ġfal 1
ISH 1
ĠEM 1
icked 1
Ġunlock 1
city 1
Ġnegotiation 1
Ġdancers 1
dan 1
ĠCOL 1
VC 1
boat 1
Ġoverly 1
deal 1
lander 1
Ġdiss 1
ICS 1
Ġfifty 1
Ġowe 1
Ġprisons 1
ifications 1
wo 1
ĠAu 1
Ġapiece 1
ĠCourtney 1
Ġ1975 1
Ġsurpass 1
Ġidentities 1
Ġintegral 1
Ġdocumentation 1
Ġelegant 1
ĠIg 1
Ġdear 1
Ġ113 1
ĠGupta 1
Ġcontentious 1
rish 1
Ġclues 1
Ġadditions 1
Ġep 1
rus 1
Ġcentered 1
ĠPhillies 1
father 1
Ġborough 1
Ġbuttons 1
Ġdeported 1
ĠREC 1
ĠAlready 1
eh 1
hur 1
Ġupbeat 1
omen 1
Ġdetailing 1
Ġwr 1
Ġvaried 1
ĠEconomics 1
Ġensures 1
ĠCivic 1
Ġunpaid 1
sold 1
ĠHil 1
ĠMult 1
ĠRising 1
ĠMini 1
Ġneuro 1
Ġpenal 1
Ġneighbour 1
ĠChavez 1
Ġjew 1
ĠVIP 1
Connor 1
ĠTalking 1
Ġcorrection 1
Ġstandpoint 1
roads 1
ĠWool 1
Ġverification 1
Ġmic 1
olf 1
Ġexemption 1
Ġfilter 1
Ġballoon 1
leases 1
ician 1
ĠSpr 1
Ġtoe 1
Ġunconstitutional 1
Ġmanslaughter 1
Ġtossed 1
ĠMeg 1
ATIONS 1
ACK 1
ĠRouge 1
ĠHansen 1
ĠHook 1
Out 1
ĠHorse 1
ĠBath 1
ĠAlways 1
Ġincorporated 1
Ġconjunction 1
ĠFit 1
Ġexamining 1
Ġwallet 1
Ġensured 1
Ġacclaimed 1
ippers 1
Ġbeneficiaries 1
Ġunexpectedly 1
Ġexploit 1
ĠWillie 1
Ġcomb 1
ĠWalton 1
rica 1
icky 1
Ġate 1
ĠPadres 1
Ġrib 1
Ġsnacks 1
ĠFernandez 1
ĠMachine 1
ction 1
Ġillnesses 1
ĠHoffman 1
ĠSpaceX 1
Ġju 1
Ġswift 1
Ġembark 1
ĠRailway 1
Ġmeasuring 1
agers 1
arsh 1
Ġessence 1
angle 1
Ġolive 1
ĠCommander 1
iggs 1
Ġrewarded 1
Ġdispatched 1
Ġplayground 1
Â½ 1
ĠProgramme 1
Ġstudios 1
Ġskeptical 1
ĠOlymp 1
ĠKeys 1
ĠSunshine 1
amba 1
ĠDonna 1
Ġlightly 1
Ġobtaining 1
Ġpoisoning 1
Ġaz 1
Ġ1972 1
Ġunconscious 1
ECT 1
Ġlied 1
ĠKaz 1
Ġ06 1
ĠMoving 1
Ġnum 1
oral 1
Ġassessments 1
Ġscholarships 1
Ġevacuate 1
ĠSunni 1
Ġquake 1
Ġfort 1
ques 1
ĠAlonso 1
Ġthread 1
Ġsqueeze 1
arat 1
oly 1
ĠAlphabet 1
uting 1
icio 1
ĠRetirement 1
ither 1
Ġasleep 1
Ġpairs 1
Ġmanufacture 1
ĠHazard 1
Ġsidewalk 1
Ġwears 1
ĠCraft 1
emen 1
ieth 1
Ġbypass 1
ĠLancaster 1
Ġflour 1
charge 1
ĠCLICK 1
Ġpotatoes 1
ĠKarachi 1
Ġvalley 1
Ġsights 1
Ġfallout 1
ords 1
BN 1
Ġsunshine 1
Ġundertaken 1
Ġcontestants 1
Ġaccomplishments 1
Ġconditioning 1
Ġcel 1
ĠHalifax 1
Ġaccent 1
*** 1
Ġpitchers 1
Ġadopting 1
Ġjustices 1
Ġrip 1
ince 1
Ġelimination 1
Ġaerospace 1
ĠBeer 1
ĠBasin 1
Ġunwanted 1
goers 1
isco 1
ĠTwin 1
ĠDesert 1
rix 1
Ġdarkness 1
ĠDunn 1
City 1
pop 1
Ġ1969 1
ataka 1
Ġtal 1
Ġautism 1
ĠMcLaren 1
ĠUEFA 1
Ġclassrooms 1
ĠLeave 1
Americans 1
las 1
Ġqui 1
Ġundefeated 1
otto 1
ĠNRA 1
ĠPorsche 1
Ġnuts 1
oys 1
ĠMethodist 1
Ġatt 1
Ġtweeting 1
children 1
eller 1
Ġinquiries 1
Ġmillennials 1
ĠWembley 1
INS 1
Ġautopsy 1
ĠElon 1
ĠHicks 1
ugg 1
Ġwreck 1
ĠComcast 1
Ġstones 1
public 1
ĠKem 1
bedroom 1
ļ 1
itated 1
Ġsemic 1
uman 1
Cal 1
ANN 1
ĠGaz 1
Ġundisclosed 1
ĠPlanned 1
ĠYale 1
ĠIST 1
lies 1
ĠStanding 1
Ġrelieved 1
EO 1
Ġgraduating 1
park 1
ĠâĢķ 1
Ġpensions 1
rave 1
ĠWonder 1
AZ 1
Ġcosting 1
Ġeditors 1
Ġtotaled 1
Ġspacecraft 1
meter 1
Ġ02 1
ĠNikki 1
sworth 1
ĠCrit 1
asha 1
Ġknees 1
Ġhats 1
uity 1
ĠPanther 1
Ġtan 1
ĠBuzz 1
ĠGlad 1
ĠPleasant 1
SM 1
Ġtricks 1
Ġplac 1
ĠDanielle 1
Ġours 1
Ġwashed 1
haven 1
Ġdrain 1
ĠUttar 1
Ġapple 1
Ġjunk 1
Ġturkey 1
ĠDug 1
Ġdiplomacy 1
Ġempire 1
Ġpinch 1
Ġferry 1
ĠDustin 1
Ġ03 1
Ġelder 1
Everything 1
ĠProgressive 1
ution 1
VI 1
dam 1
Ġlever 1
ĠAustralians 1
Ġconsequence 1
itan 1
Ġcondemn 1
Ġneg 1
ĠOverview 1
Ġsuccesses 1
Ġprobable 1
ĠMirror 1
mor 1
verse 1
Ġevaluating 1
ĠBes 1
Ġimm 1
Ġharness 1
Ġresilient 1
ĠBuild 1
Ġstraightforward 1
ADE 1
Ġgrandparents 1
Ġmarched 1
ĠKiev 1
Ġchiefs 1
oha 1
Ġvest 1
kn 1
enda 1
ĠSev 1
Ġbatters 1
ĠJos 1
ĠQue 1
ĠCourse 1
ĠCorner 1
ĠMess 1
Ġmourn 1
keepers 1
ĠRegina 1
Everybody 1
Ġtrajectory 1
Ġdefenseman 1
ĠArticles 1
Ġspur 1
ĠPhD 1
Ġpipes 1
Ġduck 1
Ġcombining 1
ĠHit 1
ĠGeorgetown 1
ĠBee 1
Cor 1
Ġcomposition 1
Ġconnects 1
ĠMARK 1
taker 1
Ġcertainty 1
Ġhefty 1
ĠHezbollah 1
ĠShip 1
Ġmalicious 1
AI 1
Ġbits 1
Ġstyl 1
Ġimpaired 1
ĠCBI 1
Despite 1
othe 1
ĠRyder 1
ĠAlf 1
ifa 1
Ind 1
Ġblaming 1
ĠToledo 1
EW 1
ĠEssex 1
iated 1
ĠAberdeen 1
ANCE 1
Ġpossess 1
Ġsuperhero 1
Ġoverhead 1
quet 1
ĠRicky 1
Ġdock 1
ĠTelecom 1
Ġshelf 1
³ 1
Ġmaritime 1
Ġportrayed 1
ĠYesterday 1
Ġcollided 1
Ġcookies 1
ĠCul 1
Ġindexes 1
Ġnaval 1
oval 1
105 1
ĠWeber 1
chief 1
arma 1
ĠRey 1
Ġauditor 1
ĠMarion 1
ĠMartha 1
ĠSally 1
Ġsedan 1
ĠAlison 1
nce 1
Es 1
ĠParade 1
Ġpharmacy 1
ĠKre 1
loe 1
cks 1
Ġmitigate 1
Ġdesigning 1
Ġ2024 1
Ġportable 1
Ġimproves 1
ĠAMD 1
Ġexcluded 1
CON 1
ĠOscars 1
Ġfixtures 1
comb 1
ĠBerg 1
Ġbother 1
Ġboring 1
Ġobservation 1
ĠCad 1
Ġrecordings 1
ĠCultural 1
Ġweaken 1
Ġaccuse 1
ĠAbd 1
abor 1
115 1
uffle 1
Ġhighways 1
atham 1
empt 1
ĠDeer 1
ĠEDT 1
ĠWait 1
athan 1
Ġaccumulated 1
Ġguilt 1
Ġexempt 1
Ġdiluted 1
ĠJamal 1
Ġshit 1
cross 1
Ġeve 1
Ġshirts 1
Ġsatisfy 1
ĠPaulo 1
AH 1
sic 1
ĠChloe 1
ĠCities 1
ĠSwansea 1
Ġprecision 1
ĠTracy 1
ping 1
Ġcontinually 1
Ġdemographic 1
Ġcliff 1
Ġjaw 1
isted 1
ĠDevelop 1
ĠAJ 1
Ġaisle 1
ĠLionel 1
Ġpredominantly 1
Ġmel 1
Ġlifelong 1
hs 1
Ġshouted 1
lad 1
Ġdest 1
Ġpacks 1
ĠKath 1
ĠCruise 1
fired 1
oder 1
hua 1
Ġgoodbye 1
Ġinterfere 1
eca 1
ĠrÃ© 1
atum 1
itas 1
ĠLodge 1
ĠWald 1
Ġmidday 1
umble 1
asting 1
© 1
ĠLeg 1
ĠNepal 1
Ġchased 1
idge 1
Ġconv 1
Ġfraudulent 1
Ġopera 1
Ġshr 1
ĠUniverse 1
ĠJerome 1
Ġ1977 1
ĠDancing 1
ĠRS 1
± 1
eks 1
Ġchic 1
Ġpunish 1
Ġpropose 1
arin 1
ĠChop 1
ĠAhead 1
ĠGallagher 1
ĠBangkok 1
ĠShelby 1
ĠNS 1
Ġcheek 1
onia 1
Ġrelegation 1
ĠHind 1
ĠCory 1
Ġfingerprint 1
Ġstrive 1
Ġmm 1
igs 1
Ġholy 1
Ġfavored 1
ĠSomeone 1
ĠLatino 1
ĠPatt 1
Ġchallenger 1
ĠCotton 1
Sw 1
itten 1
ĠXI 1
ĠStat 1
ĠDIS 1
Ġautomakers 1
Ġevaluated 1
ĠArc 1
Ġpersuade 1
Af 1
Ġreunited 1
Ġabs 1
Ġbride 1
Ġpurely 1
uce 1
uded 1
Ġsettling 1
Ġlodged 1
Ġfixing 1
Ġsuccession 1
ĠAlfred 1
ĠAlvarez 1
mac 1
ĠFont 1
Ġcontra 1
affle 1
Ġcopied 1
Ġmasses 1
ĠElections 1
ĠThan 1
Ġsoaring 1
jay 1
Ġsuing 1
Ġconcentrated 1
Ġconvey 1
Ġ240 1
gs 1
ĠNeal 1
Ġnasty 1
ĠLB 1
odi 1
ĠSergei 1
Ġthumb 1
Ġservants 1
Ġrevelation 1
Ġdischarge 1
ĠBright 1
ĠBent 1
ĠChrysler 1
mill 1
ĠImagine 1
Ġreceptions 1
Ġpersonalities 1
Ġsilly 1
ĠLoc 1
ĠZero 1
HI 1
rice 1
Ġgar 1
far 1
enh 1
ĠBiden 1
ĠEntreprene 1
Ġassumption 1
Ġnicely 1
ĠEither 1
| 1
ĠNW 1
ĠKens 1
ĠNolan 1
Ġowning 1
atures 1
ĠPastor 1
ĠRegistration 1
Ġexperiments 1
Ġassurance 1
Ġhashtag 1
oint 1
ĠBin 1
Ġqualification 1
center 1
Ġausterity 1
ĠPers 1
Ġscoop 1
Ġpros 1
ĠFields 1
Ġfur 1
ĠJas 1
Ġplanting 1
security 1
ĠTrain 1
ĠKathy 1
demand 1
ĠLev 1
Ġtut 1
tier 1
QU 1
Ġexploitation 1
Ġignoring 1
ĠSex 1
Ġadapted 1
Ġdisastrous 1
Ġempower 1
Ġcreators 1
ĠLay 1
ĠDragon 1
ĠWyn 1
Ġ1974 1
acious 1
performance 1
ĠTiffany 1
isting 1
Ġindividually 1
ĠLeading 1
ĠSask 1
Ġcatastrophic 1
Ġpunched 1
ĠVienna 1
Ġsurgical 1
Gr 1
odo 1
Ġgem 1
ĠMinority 1
Ġmice 1
ĠHistoric 1
ĠKot 1
caster 1
Ġsuff 1
journal 1
Ġpresumably 1
ĠBit 1
inary 1
Ġbre 1
Ġenhancing 1
Ġgru 1
ĠRunning 1
hardt 1
Ġtroubling 1
Ġpumps 1
ĠProspect 1
etic 1
Ġmartial 1
Ġcouncillor 1
atra 1
ths 1
ĠSark 1
ĠChamp 1
scoring 1
ĠWel 1
rup 1
Ġterrifying 1
ĠCatch 1
Ġinspections 1
Ġpornography 1
bra 1
ĠKeeping 1
Ġbanker 1
angers 1
ĠCrimea 1
ĠDisclosure 1
iba 1
Ġturf 1
Ġschedules 1
ĠJorge 1
ĠAcross 1
Ġsolving 1
Ġsensation 1
ĠWW 1
cial 1
atz 1
Ġlion 1
Ġcertificates 1
itive 1
ĠWes 1
ĠPrison 1
ĠPlayStation 1
duty 1
Ġvariable 1
Ġstrangers 1
istrates 1
vs 1
Ġreigning 1
Ġsliding 1
ĠShin 1
Ġtelecommunications 1
Ġinstalling 1
Ġrecogn 1
Ġsubway 1
too 1
ĠMcKin 1
ĠStoke 1
Ġsensitivity 1
bas 1
Ġsan 1
Ġ(- 1
ĠSuarez 1
Ġaverages 1
ammu 1
ĠFen 1
Ġrefined 1
outh 1
Ġcob 1
ĠLaz 1
essa 1
Ġpositioning 1
Three 1
Ġoils 1
Ġassaults 1
Ġcompanion 1
ĠFlash 1
ĠMam 1
ĠTill 1
Ġblues 1
ĠJae 1
ĠPier 1
Ġbedrooms 1
ĠHawkins 1
ĠCornell 1
Ġanswering 1
Ġsec 1
Ġrecognizes 1
Red 1
ĠJamaica 1
Ġinsurgents 1
Ġbrace 1
Ġra 1
ĠTai 1
ocation 1
ignment 1
Ġreasonably 1
inating 1
Ġbonuses 1
Ġsandwich 1
Ġinadequate 1
Ġdelicate 1
Ġadorable 1
Ġpalace 1
Ġsmallest 1
Ġpractically 1
ĠCrosby 1
Ġlevy 1
Ġlend 1
boards 1
shaped 1
Ġvulnerability 1
ĠKelley 1
Ġsponsorship 1
ract 1
Ġslew 1
Ġfederation 1
ĠLal 1
acies 1
ĠFamilies 1
Ġproposing 1
Ġhyp 1
elected 1
inkle 1
ĠSays 1
ĠApollo 1
ĠWis 1
imer 1
Ġcombines 1
Ġtim 1
ĠQuestion 1
Ġborrowers 1
Ġswiftly 1
ĠMagn 1
Ġheadphones 1
Russia 1
Ġtongue 1
Ġbye 1
nn 1
Ġseller 1
ĠWord 1
Tom 1
ĠDevin 1
ĠSurrey 1
Ġquad 1
Ġcourthouse 1
gi 1
ĠGrill 1
> 1
Ġrational 1
ĠFlames 1
ĠCham 1
Ġvacuum 1
ĠRays 1
Ġescalating 1
Ġouter 1
Ġstretches 1
ĠSpeed 1
Ġnegatively 1
Ġabsorb 1
ĠAustrian 1
Ġslice 1
ĠDiet 1
Ġbun 1
Ġtactical 1
ĠCBD 1
Ġedges 1
Ġnest 1
Ġstrained 1
ulates 1
ĠTina 1
Net 1
ķ 1
ĠGos 1
God 1
White 1
Ġproudly 1
usion 1
ĠArlington 1
ĠNear 1
ĠMaxwell 1
Ġbomber 1
Ġcared 1
Ġapprovals 1
Ġexams 1
ĠEconomy 1
Ġposters 1
ĠHampton 1
ĠPere 1
ĠContract 1
Ġhoused 1
Ġinstruction 1
ĠJess 1
Ġacre 1
Ġcongestion 1
ĠGener 1
Ġdioxide 1
Ġvar 1
ĠAlexandria 1
ĠSpider 1
Ġcoins 1
Ġ225 1
Ġterritorial 1
ĠSPD 1
Ġfloat 1
null 1
Ġcalculate 1
ĠDin 1
eto 1
Ġcows 1
Ġpunct 1
Ġexpire 1
Ġkidnapped 1
Ġcou 1
Ġattitudes 1
ĠLeh 1
ĠHero 1
ĠKabul 1
Ġcubic 1
Ġdigits 1
ĠRES 1
Ġpipelines 1
icide 1
ĠSingle 1
Ġhurts 1
ĠMaz 1
ĠPak 1
Ġslate 1
Ġmultimedia 1
ADA 1
Mexico 1
ĠRelease 1
chard 1
Ġgarlic 1
ĠFletcher 1
Ġaforementioned 1
Ġ05 1
ĠParkway 1
Ġfirefighter 1
Ġcounseling 1
utions 1
Cap 1
Ġconsultants 1
ĠMeh 1
ouring 1
ĠDI 1
mic 1
phones 1
Ġencounters 1
ĠHapp 1
Ġcartoon 1
flight 1
Ġundertake 1
ĠHans 1
Ġplunge 1
ĠParenthood 1
Ġkickoff 1
ĠCelsius 1
ĠRas 1
ĠDund 1
ounce 1
Ġpurse 1
Ġmortality 1
Ġbrains 1
Ġconglomerate 1
ĠObserver 1
ĠSector 1
ĠApparently 1
Ġblank 1
iston 1
Ġweighs 1
gro 1
ĠPaw 1
ĠCOM 1
ĠPurdue 1
Ġnetted 1
ĠLinux 1
Mike 1
Ġfaithful 1
Ġmagazines 1
Ġheadquartered 1
ĠIps 1
Ġindications 1
Look 1
ĠElite 1
Ġsupreme 1
Ġchunk 1
ĠSz 1
ĠVine 1
rise 1
ĠYas 1
general 1
ĠOpera 1
Ġpriests 1
Assad 1
Ġaunt 1
Ġwhopping 1
enzie 1
Ġvegan 1
Ġinflux 1
ĠConsult 1
Ġwaiver 1
Having 1
inning 1
Ġproximity 1
Ġclassical 1
ĠIslanders 1
Ġadvertisers 1
ĠCe 1
ĠSochi 1
Ġmemoir 1
ĠPlaying 1
yers 1
Ġstud 1
Ġobservations 1
Ġadmire 1
Ġhiking 1
Ġbatter 1
Ġconfusing 1
Ġprecaution 1
kil 1
clusive 1
opoulos 1
ĠWestbrook 1
ĠTanzania 1
ĠCedar 1
usted 1
Ġdestructive 1
ĠIndies 1
osi 1
ĠAmid 1
Ġintercepted 1
Ġpartnering 1
Ġsubstances 1
ĠSuns 1
Ġpromotes 1
bird 1
Gen 1
aper 1
ĠEy 1
Ġterrain 1
Ġ1930 1
zon 1
Ġbreed 1
broken 1
uchin 1
ĠPrim 1
ĠRoland 1
Ġfitted 1
Ġprotects 1
Ġ114 1
RP 1
Ġdisrupted 1
ĠBaylor 1
oren 1
ĠKeen 1
Ġmansion 1
Ġgrassroots 1
ĠVictory 1
Ġbarn 1
Ġdepreciation 1
oped 1
immer 1
Ġgarnered 1
ĠLip 1
ĠTob 1
Ġcreatures 1
ooter 1
Ġconsortium 1
obi 1
ĠMonster 1
arks 1
turn 1
Ġsketch 1
Ġpredicting 1
Ġminimize 1
ĠEthan 1
anson 1
ĠAdjusted 1
ĠHornets 1
ĠNZ 1
ĠKathleen 1
ĠKier 1
ĠMercury 1
Ġghost 1
Ġhaw 1
ĠDemand 1
ĠCollection 1
ĠFortune 1
Ġcruel 1
Ġfurious 1
ĠKun 1
ĠSalem 1
Ġunsuccessful 1
ĠLomb 1
ĠFury 1
ahi 1
Ġenthusiastic 1
Ġsurgeries 1
ACE 1
Ġroller 1
ĠStamford 1
Being 1
Dec 1
check 1
Ġaffection 1
Ġgifted 1
Ġenerg 1
Ġvarying 1
ĠCharl 1
Ġsolved 1
ĠNV 1
Ġlaptops 1
Ġkindness 1
mart 1
ĠPenny 1
Ġ116 1
ĠFeder 1
ĠCisco 1
Ġeducators 1
Ġminim 1
Ġgangs 1
Ġfestivities 1
ĠOriginal 1
yre 1
rying 1
Ġtighter 1
ĠMalta 1
Ġshield 1
interest 1
Ġbuoy 1
Ġsupplement 1
ĠSof 1
Ġok 1
Ġprosecuted 1
Ġinterventions 1
Ġseize 1
Ġcaravan 1
ĠCarlson 1
ĠEnterprises 1
ĠChristina 1
ĠWellington 1
Ġaltered 1
TP 1
Ġexpresses 1
Ġcomfortably 1
Ġstaffing 1
afa 1
itu 1
saving 1
Ġinflammation 1
hatt 1
ĠMiranda 1
icious 1
Ġgrabbing 1
ĠANY 1
Ġobjections 1
Ġdot 1
cle 1
Ġrelates 1
Ġtribe 1
Ġboarding 1
ĠEpisode 1
ĠEnjoy 1
arding 1
Ġathletics 1
Ġflies 1
Ġmortgages 1
ruct 1
Ġink 1
ĠKC 1
ĠSecondary 1
Ġfer 1
ĠQaeda 1
OA 1
Frank 1
track 1
ĠChandler 1
Ġenv 1
ĠLeaders 1
ĠKemp 1
Ġunsafe 1
sponsored 1
San 1
ĠUsers 1
PE 1
ĠAccount 1
otta 1
ĠMix 1
ĠCindy 1
En 1
Ġ175 1
Ġoverlooked 1
Ġpublications 1
Ġrewarding 1
Ġexplicit 1
Ġnotch 1
Ġspecifics 1
Ġdesignation 1
ĠAppeal 1
Ġcontingent 1
Ġcage 1
ĠKol 1
ĠJohns 1
ĠReach 1
ĠTin 1
ĠAfricans 1
Ġprec 1
ĠRural 1
ĠDw 1
Ġuphold 1
Ġsuffers 1
Ġweed 1
inst 1
Ġcancellation 1
ĠShaun 1
Ġleve 1
Ġdivisive 1
Ġhel 1
Ġfatigue 1
ĠSchwartz 1
ĠKirst 1
Ġarise 1
Ġgrandson 1
ĠLawson 1
Ġcollaborate 1
Ġparticipant 1
ĠBryce 1
Ġinfield 1
mid 1
Ġut 1
Ġnotices 1
Ġsneak 1
ĠPAR 1
Chris 1
Ġutilize 1
ĠByron 1
ĠZhang 1
PF 1
Ġoverwhelmingly 1
Ġvegetable 1
Ġabsurd 1
ĠChem 1
etime 1
Ġenvoy 1
Ġlover 1
length 1
Ġrevolutionary 1
ĠYam 1
Ġshutting 1
mt 1
super 1
ĠToby 1
ĠCoca 1
Ġproposition 1
Ġembracing 1
Ġversatile 1
ĠWalking 1
Ġillicit 1
Ġnude 1
Ġunpredictable 1
take 1
Ġgotta 1
ĠXiaomi 1
Ġinstit 1
ĠPep 1
ĠPearson 1
Ġrejection 1
stead 1
Ġmut 1
Ġoutspoken 1
ĠBaghdad 1
ĠFly 1
Ġwholly 1
ĠRM 1
ĠFa 1
Ġcleaner 1
frey 1
ĠHab 1
ĠLiber 1
Ġwhereabouts 1
Ġchefs 1
Ġalumni 1
Ġstopp 1
dd 1
forward 1
rast 1
ĠNash 1
ĠCort 1
Ġpotent 1
Ġmold 1
Ġdistinctive 1
chip 1
ĠBrunswick 1
Ġpopulist 1
Ġplagued 1
eka 1
ĠIOC 1
ugs 1
ĠDob 1
Ġmagn 1
asser 1
hew 1
Ġcapturing 1
oos 1
Ġcrystal 1
Ġalarming 1
Ġ135 1
iating 1
Ġnap 1
umar 1
ĠExpl 1
Ġupgrading 1
Ġdecl 1
Ġoverturn 1
ARK 1
linked 1
ĠContinued 1
Ġslumped 1
ĠGaga 1
iful 1
ĠPosted 1
ĠRecommended 1
Ġsnake 1
Ġexplosives 1
Ġhind 1
Ġcontempt 1
Ġmock 1
NBA 1
Ġstall 1
Ġorganisers 1
Ġingredient 1
Ġblockbuster 1
ĠStream 1
ĠLeah 1
Pic 1
Ġventures 1
oman 1
Ġweakening 1
Ġmaximize 1
Ġdigging 1
uez 1
Ġdistinction 1
ĠMali 1
Ġcontaminated 1
Ġhij 1
Ġcrafts 1
Fl 1
Ġcloset 1
ĠRapp 1
Ġtowers 1
Ġamenities 1
Ġopioids 1
Ġcontend 1
load 1
ĠJol 1
ĠBooks 1
Ġsim 1
Ġthrilling 1
Ġmeter 1
ĠMultiple 1
Ġarbitration 1
Ġcracked 1
Pl 1
Ġphotographers 1
Te 1
ĠSidd 1
Ġexplored 1
170 1
Ġpleasant 1
ĠCapitals 1
ĠRi 1
ĠRandall 1
overed 1
Ġchar 1
ĠEverybody 1
ĠPolitics 1
Ġmoisture 1
Ġthriving 1
ĠScotia 1
arded 1
imb 1
ĠFantasy 1
Ġcemetery 1
ĠPath 1
eur 1
ĠSec 1
ĠPlatform 1
Ġdeparted 1
ĠVIDEO 1
ĠPant 1
ĠSyn 1
Ġ230 1
bleacher 1
live 1
Ġprob 1
Ġgymn 1
Ġjudged 1
orns 1
Ġstemming 1
umbling 1
ĠHew 1
ĠCheryl 1
Ġconsciousness 1
cos 1
ĠTate 1
CNN 1
Ġrecognizing 1
meg 1
Ġpant 1
ulk 1
MM 1
ĠPrescott 1
ĠMarcel 1
anas 1
Ġhappier 1
mag 1
ĠLov 1
Ġspreads 1
ĠSample 1
Ġpopped 1
HR 1
ĠMitt 1
Ġ00 1
Ġlabeled 1
Ġaspirations 1
?) 1
Ġloads 1
ĠBritt 1
hurst 1
ĠTeams 1
Ġextremists 1
ĠClement 1
lings 1
shirts 1
cheon 1
ĠDEL 1
ĠLocation 1
Ġpresentations 1
ĠFalcon 1
Ġtoddler 1
kl 1
Ġprone 1
Ġcommemor 1
ĠStanton 1
201 1
Ġranges 1
Ġfielder 1
Ġattends 1
rade 1
Ġproactive 1
Ġhostage 1
ĠGriffith 1
ockey 1
ĠAdding 1
ĠAFL 1
gas 1
istics 1
Ġsurgeon 1
Ġtsunami 1
2014 1
Ġconstraints 1
cu 1
Ġsurrendered 1
azed 1
ĠAirbnb 1
650 1
zed 1
Ġinjustice 1
dog 1
full 1
ĠHear 1
Ġsprawling 1
Ġhomeland 1
ĠSG 1
anced 1
Ġpools 1
ĠCE 1
Ġbeers 1
AE 1
ĠJac 1
Ġrecurring 1
Writing 1
Ġgenius 1
ĠFrost 1
Ġgrounded 1
Ġallege 1
lessness 1
Ġjumper 1
Ġvicious 1
Ġsecretly 1
Ġhacked 1
ĠAmsterdam 1
ibu 1
Ġ1971 1
ĠRosenstein 1
nick 1
arge 1
Ġladder 1
elled 1
Ġsatellites 1
Ġassassination 1
ĠDepot 1
built 1
Ġunrelated 1
maid 1
ĠDod 1
ĠVanderbilt 1
Ġboundary 1
ĠStafford 1
ĠBry 1
Ġtribunal 1
Ġoutings 1
Ġquantity 1
imming 1
ĠBlacks 1
Br 1
eri 1
uffed 1
Ġexplicitly 1
ĠBieber 1
AKING 1
Ġphotographed 1
ĠPolit 1
Ġpremature 1
hered 1
ĠVi 1
Ġmarsh 1
casters 1
ĠKra 1
Ġdried 1
Ġcafe 1
eting 1
Ġshaping 1
aram 1
orf 1
Ġrichest 1
Ġhurricanes 1
Ġcommands 1
Gl 1
anth 1
Ġstunt 1
Ġyearly 1
Ġdefeats 1
Ġconsultancy 1
call 1
Ġlag 1
adh 1
ĠPalestine 1
Ġcustomized 1
ĠScar 1
ĠWesley 1
ready 1
Ġpersist 1
Ġpacking 1
ono 1
Ġdischarged 1
Ġpouring 1
sburg 1
Ġreconsider 1
ĠMethod 1
enez 1
cill 1
Ġsecular 1
pers 1
Ġple 1
ELS 1
ĠMine 1
Ġpushes 1
Us 1
Ġframes 1
ĠNets 1
ĠSiem 1
ĠHitler 1
kill 1
Ġrented 1
Ġcharm 1
Ġpulls 1
ĠTide 1
Ġinsufficient 1
itted 1
Care 1
iera 1
Ġcouch 1
aders 1
ext 1
ĠCitizen 1
Ġlogical 1
ĠMeadows 1
ĠDenis 1
ĠDrivers 1
Ġrepublic 1
Ġadvising 1
Ġparamedics 1
insky 1
illard 1
encia 1
Ġkh 1
Ġrh 1
Ġfinalized 1
Ġreins 1
ĠFarrell 1
Ġsteer 1
Ġproxy 1
unes 1
ĠSoul 1
ĠCopper 1
ĠKenyan 1
amped 1
conference 1
sted 1
ĠLon 1
Ġreplay 1
ĠBle 1
Ġvibe 1
Ġportfolios 1
sea 1
Ġbeautifully 1
Ġairs 1
ĠRap 1
ĠKatrina 1
Ġberth 1
gold 1
ĠIsaiah 1
iques 1
elson 1
Ġrelentless 1
ĠHighland 1
ĠPhilippe 1
ĠFol 1
Ġenduring 1
enz 1
Ġaer 1
icing 1
ĠHTC 1
Ġdoping 1
ĠAlb 1
Ġsom 1
icia 1
Ġcoroner 1
Ġdamn 1
Ġ119 1
Ġwiped 1
ĠAuditor 1
hern 1
ĠJew 1
endra 1
osp 1
ĠRory 1
Ġshapes 1
ĠPablo 1
Ġforemost 1
ĠHos 1
ĠCunningham 1
145 1
ĠRecovery 1
!!! 1
western 1
Ġimaging 1
ĠRookie 1
ĠMTV 1
Ġunc 1
ĠSporting 1
Ġpatrons 1
ĠCoverage 1
ĠObservatory 1
Ġfishermen 1
ĠProvince 1
ĠAston 1
ĠOsh 1
ĠWeekend 1
Ġrecruits 1
Ġdensity 1
FM 1
ĠGorsuch 1
ĠErie 1
lining 1
Ġshowcased 1
ĠRubio 1
Ġchaotic 1
Ġattractions 1
Ġhug 1
ĠHerbert 1
ĠRespond 1
Ġhappily 1
Ġtor 1
ĠOTHER 1
runner 1
ĠShakespeare 1
Ġstretching 1
ĠJudy 1
wyn 1
ĠCafe 1
Ġgreens 1
ĠHend 1
Ġglam 1
iation 1
ĠKingston 1
Ġincremental 1
Live 1
ĠBraun 1
USS 1
reb 1
Ġimperative 1
Ġsympathy 1
Ġrefuge 1
Ġadministered 1
rance 1
ĠLiberia 1
Ġmobil 1
heads 1
Ġinevitably 1
ĠEugene 1
ĠBerkshire 1
ĠHarbour 1
ĠTrends 1
TB 1
Ġdeficits 1
Ġlistings 1
Ġreadings 1
Ġtumor 1
Ġoffic 1
opy 1
Ġdistracted 1
Ġappropriately 1
ĠWillis 1
Ġskirt 1
ĠTea 1
Ġshades 1
Ġbargaining 1
Ġretention 1
ĠConcert 1
ĠMeteor 1
ĠCustom 1
Ġinputs 1
ĠSah 1
enta 1
Love 1
ĠBurg 1
ĠCynthia 1
ĠMoses 1
ubb 1
Ġpeoples 1
dh 1
ĠFro 1
bean 1
Ġcigarette 1
tta 1
umm 1
Ġphenomenal 1
Ġyelling 1
Ġinaug 1
Ġconven 1
ĠGore 1
request 1
Ġcolonial 1
ĠAleppo 1
Ġdemolition 1
Ġamounted 1
Ġstaggering 1
Ġclips 1
Ġinconsistent 1
ĠMilton 1
ĠWireless 1
ĠReno 1
ĠPerkins 1
Ġunusually 1
Ġmemor 1
Ġhectares 1
Ġlat 1
central 1
ĠDig 1
ĠMarina 1
ĠPartner 1
daily 1
your 1
Reilly 1
Ġpope 1
phy 1
Ġassessing 1
ĠRodrigo 1
wi 1
Ġcompatible 1
imate 1
Ġgentle 1
ĠRhodes 1
Brexit 1
ieve 1
Ġbreaches 1
Ġchopped 1
Ġcancers 1
VEL 1
Ġsluggish 1
ĠUltra 1
ĠUl 1
Ġcrises 1
ONE 1
ĠEquipment 1
Ġcater 1
Ġadjourn 1
Ġreadily 1
ĠRolling 1
ĠBott 1
inel 1
ĠRule 1
Ġgrind 1
ĠHussain 1
ussie 1
Ġdepressed 1
ĠImperial 1
ongo 1
Ġuniforms 1
Ġ117 1
Ġchambers 1
ĠDum 1
ifi 1
ĠBetty 1
ĠTA 1
Ġpromotions 1
itary 1
Ġcried 1
Ġbranding 1
ĠBahamas 1
ĠDat 1
Ġantibiotics 1
ĠAus 1
Ġumbrella 1
Ġgradual 1
Ġaltercation 1
Ġlure 1
ĠJakarta 1
Ġunified 1
chin 1
ettes 1
ĠRwanda 1
ulations 1
Ġbrink 1
Ġbroadcasting 1
ĠArtist 1
Ġrecon 1
Ġaqu 1
ĠServ 1
999 1
ĠParticipants 1
ĠVentures 1
fight 1
Ġactivism 1
Ġstructured 1
Ġportal 1
Ġtendency 1
ĠAssociate 1
Ġcalf 1
ĠOrd 1
ĠTi 1
ĠFrancois 1
uary 1
ĠVik 1
urchase 1
Ġfried 1
Ġbooming 1
Ġparticles 1
amas 1
INA 1
Super 1
supp 1
urring 1
ĠWatts 1
affer 1
ĠDEC 1
Ġroadway 1
border 1
Ġsequ 1
entially 1
ieg 1
Ġcamping 1
Ġ750 1
Ġcycles 1
ĠReese 1
ĠFellow 1
isters 1
ĠVehicle 1
kies 1
ĠJonas 1
Ġfoundations 1
ĠNigel 1
Ġstab 1
Ġcongressman 1
ĠWichita 1
antes 1
Ġprogression 1
Ġditch 1
lik 1
Ġsid 1
Ġele 1
ĠMund 1
Ġstairs 1
lete 1
Ġlingering 1
Ġsadly 1
Ġay 1
Em 1
Ġdeadliest 1
soon 1
Ġtangible 1
Ġabusing 1
Ġcomprises 1
vil 1
ĠBun 1
Ġdoubling 1
Ġcommun 1
Ġslogan 1
Ġloading 1
Ġshallow 1
Ġattributes 1
Che 1
Ġcheering 1
Ġrefuses 1
cam 1
bes 1
hon 1
ĠSpartans 1
cept 1
ĠComputer 1
ĠCanberra 1
ĠWARNING 1
Ġstuffed 1
block 1
ĠJennings 1
ĠAU 1
atin 1
Ġom 1
Ġbachelor 1
Ġprediction 1
ĠWinner 1
agne 1
Ġrob 1
ĠKatherine 1
Ġli 1
ĠHumph 1
ĠPEOPLE 1
IRO 1
Cola 1
Ġguitarist 1
isen 1
ĠHighlights 1
Ġwelcomes 1
Ġprisoner 1
Ġpsychology 1
Ġextradition 1
Ġrou 1
ĠLund 1
Ġthoughtful 1
RY 1
orman 1
Alex 1
Ġlaughter 1
Ġfumble 1
Ġsynthetic 1
Ġdigit 1
ĠRoc 1
ĠFactory 1
ellery 1
ishment 1
ilar 1
ĠEarl 1
ĠSutton 1
ĠJur 1
ĠAllan 1
ĠKoreans 1
uki 1
Ġculinary 1
PU 1
Stock 1
stars 1
ĠDayton 1
beck 1
Ġinstability 1
ĠBring 1
Ġbreeding 1
Ġmiracle 1
bons 1
Ġdonating 1
ĠKick 1
ĠSag 1
afi 1
Ġharassed 1
asm 1
Their 1
inity 1
Ġacademics 1
Ġstatute 1
ĠAmit 1
Ġpressured 1
east 1
"), 1
iso 1
220 1
Ġairplane 1
ĠMcCabe 1
ctions 1
ĠMesa 1
Ġsensational 1
ĠFE 1
ĠNeigh 1
Ġbribery 1
Ġflaws 1
Ġfemales 1
Ġmisses 1
ĠColor 1
ĠVietnamese 1
ĠMental 1
Unfortunately 1
ĠPont 1
Ġ1940 1
dry 1
ĠGazette 1
ĠAns 1
Ġwhistle 1
Ġsymbolic 1
Ġpossessions 1
ĠDriver 1
Ġbracket 1
ĠReign 1
oji 1
Ġoct 1
Ġtube 1
ĠFelix 1
Ġtranslated 1
Ġpromptly 1
ĠErnest 1
arth 1
Ġdumb 1
Ġinfluences 1
taking 1
Ġprivat 1
erers 1
Ġmalware 1
Ġpredictable 1
Ġtighten 1
Ġheights 1
Ġfairness 1
facing 1
Ġrematch 1
Ġpoet 1
Ġfundamentally 1
Ġcoveted 1
Ġlivelihood 1
ĠABOUT 1
Ġsourced 1
Ġdeferred 1
Ġslashed 1
ĠSchultz 1
Ġtriggering 1
ĠShiv 1
Ġlithium 1
ahead 1
Ġleisure 1
Ġbackpack 1
ilateral 1
ĠNuclear 1
ĠLeone 1
ĠNice 1
Ġenthusiasts 1
September 1
Ġenroll 1
ĠWear 1
erey 1
angs 1
such 1
Ġunpopular 1
Ġdisciplined 1
Ġshrinking 1
ĠBrewing 1
ĠReally 1
Ġdirective 1
175 1
Ġnotifications 1
Ġfortunes 1
ĠHour 1
ĠGan 1
ĠChurchill 1
ĠDodge 1
ĠJeep 1
Ġsour 1
Ġderived 1
Ġft 1
riv 1
Ġlaundry 1
Ġfentanyl 1
ĠSioux 1
achi 1
workers 1
Ġworkload 1
rooms 1
ĠQU 1
ĠTruth 1
Ġdefenses 1
Ġdunk 1
Ĳ 1
Ġderby 1
ĠMotion 1
ĠMayo 1
ĠIke 1
Ġpreferences 1
Ġped 1
elman 1
moon 1
Ġshoots 1
ĠNoel 1
Ġmilit 1
ĠCambodia 1
ĠMLA 1
Ġhonoured 1
fast 1
Ġalgorithms 1
Ġstormed 1
NT 1
Benz 1
Ġvaccines 1
Ġmarching 1
Ġ118 1
ĠWilmington 1
GM 1
coin 1
Ġunderwater 1
ĠClearly 1
Ġorgans 1
mir 1
Ġdenounced 1
pless 1
imal 1
ĠKom 1
Ġfatalities 1
Ġyoungster 1
Ġthirty 1
Ġinternally 1
222 1
Ġdemonstrating 1
Ġbusiest 1
Ġperpetrators 1
Ġstun 1
Both 1
ĠMcCoy 1
gn 1
ĠDalton 1
ĠDAY 1
Ġsacred 1
Ġconsuming 1
Ġ(+ 1
ĠPioneer 1
ĠApplications 1
ĠBolt 1
ĠBarkley 1
ĠExpo 1
ĠLore 1
ĠPrivacy 1
ĠHarley 1
Ġtractor 1
Ġtenth 1
ĠHaiti 1
ÃŃn 1
ĠTVs 1
ĠCathedral 1
Ġunite 1
Ġbinding 1
oks 1
ĠJenny 1
Ġcaller 1
ĠIngram 1
ĠPrairie 1
Ġrunoff 1
Ġasserted 1
icit 1
ĠSie 1
102 1
ĠMB 1
Ġobstruction 1
Ġgroom 1
Ġtolerate 1
Ġcans 1
forth 1
Ġvillain 1
Ġdefining 1
ĠFrenchman 1
otte 1
Ġcontr 1
clock 1
onder 1
Ġprolific 1
ĠElectronic 1
ĠSak 1
annie 1
ASS 1
Ġmultinational 1
Associated 1
IZ 1
ĠBelle 1
Ġmand 1
asis 1
Mac 1
Ġpretend 1
ĠCommunication 1
Ġheartbreaking 1
ĠShepherd 1
ĠBIG 1
mph 1
ĠShield 1
ĠLiv 1
ĠStatus 1
Ġbikini 1
Ġranch 1
Ġpeacefully 1
ITCH 1
bourne 1
ĠVariety 1
Ġstationed 1
Ġhed 1
Ġexhausted 1
Ġsurpassed 1
Ġcatalyst 1
Ġsmuggling 1
uating 1
Ġ123 1
Ġdup 1
ĠSul 1
conf 1
jit 1
Ġmaiden 1
asta 1
ĠCalvin 1
borne 1
Ġgrim 1
Ġtort 1
cott 1
olas 1
NR 1
Ġbreakout 1
ĠHun 1
ĠGuatemala 1
Ġhistorian 1
ĠLawyers 1
ĠDisplay 1
Ġobstruct 1
ĠOsborne 1
Ġtherapies 1
ĠAub 1
Ġinjunction 1
stroke 1
Ġseafood 1
Ġhazardous 1
ĠWolver 1
ĠViolence 1
ĠBillion 1
ĠLetter 1
ĠWorldwide 1
Real 1
Ġexpires 1
Ġflawed 1
European 1
Ġrigorous 1
ĠSimilar 1
ĠSurface 1
ĠEF 1
mys 1
ĠFunds 1
ographer 1
Ġtribes 1
Ġspouse 1
Ġunsure 1
aways 1
Ġtrainers 1
arie 1
ĠZar 1
ĠComedy 1
ĠLit 1
ĠNoon 1
Ġgallon 1
Ġconsulate 1
ĠBras 1
iology 1
onies 1
ĠBelichick 1
ĠRoot 1
ĠLux 1
ĠSed 1
ĠTos 1
Ġinherited 1
tw 1
Ġdeaf 1
Ġdriveway 1
jah 1
ĠScientific 1
ĠNottingham 1
both 1
awan 1
Ġnut 1
ĠLebanese 1
ĠAAA 1
ĠSuzuki 1
ĠBU 1
ells 1
Ġspecify 1
ĠNotes 1
Ġvoluntarily 1
ĠMolly 1
Ġoutskirts 1
Ġbehaviors 1
Ġmilitia 1
Ġsplash 1
Ġpersonalized 1
ĠFiat 1
ĠKind 1
ĠTruck 1
py 1
ĠWIN 1
dist 1
itational 1
APP 1
ĠPelicans 1
ĠGam 1
mel 1
Ġmandated 1
Ġbalances 1
ĠWizards 1
iary 1
ĠAvailable 1
Ġkay 1
jin 1
eyed 1
Ġsterling 1
Ġconcealed 1
ĠFedEx 1
ĠPO 1
ĠJacqu 1
anted 1
eme 1
ĠDefensive 1
manship 1
Ġreliever 1
Ġshortstop 1
Ġphot 1
ĠGain 1
ĠConcern 1
due 1
Ġalgorithm 1
fell 1
ĠMountains 1
icians 1
Ġhonoring 1
Ġuploaded 1
Ġtore 1
GH 1
orde 1
ĠCoin 1
ĠAven 1
Ġliterary 1
Before 1
Ġtactic 1
Ġsocially 1
ĠSik 1
Ġthermal 1
Ġhor 1
price 1
Ġrooted 1
arrow 1
Ġcirculating 1
Ġlaughs 1
ĠLines 1
lig 1
Ġjudgement 1
.... 1
Ġsewer 1
Ġdancer 1
ĠPens 1
Ġsig 1
ische 1
wives 1
Ġgran 1
ĠBron 1
ĠHyde 1
yards 1
Ġcandidacy 1
Ġhey 1
Ġcontributors 1
ĠUpdated 1
Ġ190 1
Ġhalls 1
Ġemphas 1
ĠCherry 1
Ġrim 1
Ġbilled 1
Ġbaked 1
ĠPopular 1
lb 1
Ġgravity 1
Under 1
Ġreservation 1
organ 1
ĠPict 1
ĠWhitney 1
Ġonboard 1
NEY 1
ĠBreaking 1
Ġflagged 1
rar 1
ĠBasic 1
ĠDomestic 1
ĠPent 1
Ġvigilant 1
Ġzoning 1
Fire 1
Ġcorrected 1
isbury 1
ĠLaure 1
ĠDevon 1
print 1
ĠTopics 1
ĠFuel 1
Ġcirculation 1
ĠPratt 1
Ġskiing 1
Ġtornado 1
dep 1
ĠUnless 1
ifting 1
Ġfool 1
should 1
Ġinspectors 1
Ġprotested 1
Ġba 1
ussia 1
Ġspun 1
grass 1
phone 1
Ġpotato 1
ĠBehind 1
cil 1
Ġconcession 1
Ġapplause 1
ĠChin 1
Ġceremonies 1
pit 1
Ġtraumatic 1
Ġbasics 1
Ġparameters 1
ĠMoz 1
ĠAIDS 1
Ph 1
Ġjudging 1
Ġlecture 1
Ġmunicipality 1
Ġcardiac 1
ogan 1
pir 1
could 1
Channel 1
Ġshattered 1
ĠAV 1
continental 1
chie 1
ibi 1
ĠOy 1
Mon 1
ĠCN 1
WC 1
Ġdistributor 1
ĠSavannah 1
Ġcleaned 1
ĠFlores 1
Ġembarrassed 1
Ġclay 1
Ġvolcano 1
Ġstressful 1
Ġsummoned 1
ĠSeg 1
Ġstatistical 1
ĠShak 1
Ġadequately 1
worthy 1
fighting 1
alan 1
Ġnecessity 1
Ġresidency 1
Ġsober 1
arius 1
ĠTaj 1
mount 1
wards 1
Ġaesthetic 1
Coin 1
ĠDew 1
were 1
SK 1
Ġpowerhouse 1
Ġcleanup 1
ĠWITH 1
ĠHers 1
ĠRao 1
ĠFlyers 1
Ġdominating 1
issued 1
ĠMcGr 1
Ġinsurgency 1
Ġburial 1
ĠPlains 1
ensive 1
ĠPresent 1
Mo 1
Ġnerves 1
Ġsmoothly 1
staff 1
Ġrestoring 1
ĠGeneration 1
Ġcommuters 1
ĠLegend 1
ĠGad 1
lied 1
Ġissuer 1
ĠDozens 1
Ġphases 1
ĠWu 1
ĠTunisia 1
ĠPacers 1
Ġdur 1
ĠIG 1
annon 1
sided 1
Ġvo 1
ĠNI 1
Ġvitamin 1
Ġsoc 1
Ġimmunity 1
Ġgenerates 1
ĠMcGu 1
Ġexplores 1
Ġassistants 1
Ġstems 1
ushed 1
ĠZak 1
ĠOwners 1
Ġvariant 1
ardy 1
ĠNewark 1
ĠCatalonia 1
Ġautonomy 1
Ġgreet 1
Ġawait 1
ĠLuckily 1
ĠTicket 1
ĠSTOR 1
asy 1
Ġincorrect 1
Ġconsisting 1
Ġperspectives 1
ĠQuint 1
Ġtotaling 1
Ġnortheastern 1
Ġcharacterized 1
Ġsurfaces 1
nation 1
Ġprevents 1
ĠSho 1
Ġelectorate 1
Ġshortfall 1
chy 1
aws 1
ĠAddress 1
Ġdefensively 1
quel 1
chester 1
Ġterr 1
ahu 1
lined 1
ĠNev 1
unn 1
Def 1
pc 1
ĠSig 1
Ġnonetheless 1
ĠSundays 1
ĠBAS 1
Ġpolicemen 1
ĠGoal 1
apa 1
Ġrope 1
Ġoutage 1
ĠPaso 1
Ġsadness 1
ĠGrowing 1
ĠKyr 1
Ġale 1
ĠBreitbart 1
ĠVia 1
ĠBrig 1
idence 1
Ġ145 1
quire 1
Ġdistraction 1
ĠOdd 1
ĠSimply 1
ĠNin 1
Ġcompetent 1
ded 1
iper 1
ĠKaty 1
ĠSolomon 1
Ġfeeds 1
ĠMort 1
ĠRica 1
affe 1
Ġcooperating 1
Ġarrivals 1
Ġdelete 1
ĠAth 1
Ġtrustees 1
Ġtub 1
Ġsaga 1
otes 1
ĠCJ 1
Ġexited 1
stakes 1
Ġinflu 1
2000 1
ĠDonovan 1
ĠNur 1
Ġoutline 1
Ġaudition 1
oked 1
ĠJag 1
money 1
Ġcardiovascular 1
song 1
ĠOften 1
ĠGoff 1
ĠOaks 1
Will 1
acon 1
Ġ? 1
Har 1
ĠLambert 1
atoon 1
ĠAF 1
ĠMavericks 1
nia 1
ĠChennai 1
"}," 1
Ġpairing 1
mad 1
ause 1
ĠRide 1
111 1
ĠFallon 1
ĠHyder 1
ĠPiper 1
Ġfilmmakers 1
icon 1
ĠBeau 1
Ġbutt 1
lot 1
Ġrifles 1
Ġsunglasses 1
ĠTRA 1
Ġmagnetic 1
arty 1
ĠYo 1
ĠWeight 1
?! 1
ether 1
Ġaspir 1
Ġhunters 1
Ġcontamination 1
Ben 1
political 1
]," 1
ĠBever 1
Ġmonuments 1
won 1
auc 1
Ġexpressions 1
Ġlakes 1
iao 1
abin 1
Ġpleading 1
Ġdiscounted 1
Ġdisappoint 1
ĠTW 1
craft 1
Ġsocieties 1
ĠAugusta 1
Ġbott 1
Ġmarker 1
ĠWrestling 1
CBC 1
athy 1
ĠAZ 1
Ġfabulous 1
valued 1
Ġoptical 1
Ġshaken 1
OSS 1
ĠImp 1
ĠAUD 1
inals 1
Ġrevital 1
Ġcontroller 1
Ġgrasp 1
uling 1
ĠFrederick 1
ague 1
bull 1
ĠLadies 1
Ġdisruptive 1
Ġbenefiting 1
Ġverge 1
ĠDak 1
Ġgrabs 1
ĠPAC 1
GN 1
ĠMcMahon 1
rob 1
ĠEspecially 1
ĠChrome 1
ĠBundesliga 1
104 1
Ġliberty 1
ĠSF 1
Ġvarieties 1
East 1
Ġgrowers 1
Ġsocialist 1
Ġunemployed 1
AMI 1
Ġtotals 1
ĠGib 1
Ġdefect 1
ĠOrtiz 1
ĠPerfect 1
Ġpraying 1
ISS 1
Ġul 1
Ġthrust 1
osc 1
ĠOtherwise 1
Ġobsessed 1
Ġ650 1
ĠWebsite 1
Ġspectators 1
ĠScout 1
ĠBoone 1
ĠDillon 1
Ġabortions 1
lect 1
utz 1
Ġvillagers 1
Ġaccelerating 1
Ġslap 1
Ġvague 1
Ġjurisdictions 1
League 1
ĠUruguay 1
Ġobstacle 1
Ġmanufactures 1
Ġcampaigned 1
ĠAdvance 1
ĠNort 1
emer 1
Ġ1964 1
Ġirre 1
Ġprog 1
ĠFeatured 1
Ġcommute 1
Ġhandset 1
akis 1
ĠArs 1
tail 1
iker 1
Ġcrafted 1
Ġupl 1
ĠMarcos 1
Looking 1
Ġseated 1
ĠBoat 1
Ġreadiness 1
ĠLLP 1
otechnology 1
facebook 1
ĠScouts 1
ĠEar 1
ĠAdv 1
ĠDemocracy 1
NI 1
oci 1
ĠSnapdragon 1
Saturday 1
ĠPra 1
ĠCoastal 1
ĠVoters 1
ĠLeigh 1
ohn 1
orry 1
Ġtechnicians 1
armed 1
Ġshrink 1
Ġspinning 1
agram 1
320 1
liner 1
ĠContest 1
ĠCountries 1
Ġfarewell 1
ĠCW 1
aris 1
Ġstorytelling 1
Ġpasser 1
Ġsailing 1
control 1
Ġdissent 1
ĠRih 1
Ġedit 1
Ġspoilers 1
itched 1
ĠBentley 1
Ġcant 1
mn 1
ĠMacy 1
Ġindefinitely 1
Ġvill 1
Ġmeth 1
ĠEL 1
Ġoptional 1
Ġremark 1
ĠVanessa 1
Ã£ 1
Ġmasks 1
ĠProvincial 1
Ġculprit 1
ĠTol 1
Ġsnack 1
ĠInfinity 1
ĠPub 1
Ġbrakes 1
Ġclar 1
Ġinception 1
love 1
Ġwonders 1
Ġforged 1
ĠCEOs 1
Ġspecifications 1
irst 1
ension 1
ĠMarin 1
det 1
Ġordeal 1
ĠFeed 1
December 1
Ġstrokes 1
fect 1
orial 1
Ġshowcasing 1
Ġstack 1
UAL 1
ĠAlexandra 1
Ġpoison 1
ĠFry 1
ĠCars 1
Ġprototype 1
ĠUSDA 1
ĠIF 1
flows 1
Ġtailored 1
ĠGear 1
Ġmyth 1
Ġplatinum 1
seven 1
founded 1
encing 1
ĠTip 1
ĠMald 1
Ġgeopolitical 1
112 1
Ġenqu 1
ĠNR 1
ĠNadu 1
leen 1
ĠTat 1
Ġcolon 1
ĠSize 1
Ġvis 1
Ġbere 1
ĠAnnie 1
ĠWatkins 1
Ġpumping 1
cur 1
ĠBates 1
Ġslug 1
miss 1
Ġforecasting 1
source 1
Ġacknowledges 1
Ġprosecute 1
Ġtestament 1
Ġcum 1
ems 1
Ġsocks 1
ĠSame 1
Ġcompetitiveness 1
Ġdefinitive 1
Ġintensified 1
Ġsatisfying 1
Ġphysics 1
ĠHarden 1
Ġsubsidy 1
Men 1
ĠPaddock 1
Ġworkouts 1
ĠSaw 1
Ġcrisp 1
ĠBezos 1
ĠVote 1
Ġguiding 1
anged 1
Ġstaple 1
ŀ 1
ules 1
ĠAvengers 1
Ġoptim 1
ĠBuffett 1
Ġtimetable 1
oust 1
HE 1
ĠGrab 1
Have 1
cca 1
Ġwaived 1
Ġretaining 1
Ġaber 1
Ġoffline 1
Ġvigil 1
books 1
ĠRein 1
Ġacknowledging 1
ĠDoyle 1
Ġproteins 1
Ġmixing 1
ĠAlcohol 1
ĠJD 1
Ġsyn 1
Ġthieves 1
Ġhomemade 1
Ġfeminist 1
ĠRoosevelt 1
ĠCoal 1
Ġwishing 1
ĠSIGN 1
ĠLad 1
Ġempathy 1
ĠBrooke 1
ĠMash 1
inations 1
'' 1
ulators 1
Ġdrastically 1
Ġfloral 1
ĠGuild 1
Ġundercover 1
ĠLaboratory 1
ĠRank 1
Ġrestraining 1
Ġparagraph 1
Ġpersona 1
ĠEmployment 1
ogs 1
ĠGw 1
ĠMedal 1
Ġwildly 1
fare 1
ĠCNBC 1
photo 1
Ġtransforming 1
Ġtermination 1
still 1
INT 1
Ġbal 1
ĠEconom 1
ĠLarson 1
Ġheck 1
Ġquantitative 1
Ġemergence 1
esta 1
Ġknot 1
Ġwhale 1
ĠðŁĺ 1
Ġperimeter 1
Ġempowerment 1
Ġmg 1
Ġrents 1
Ġrefreshing 1
Ġleasing 1
Ġpatents 1
andi 1
Ġfathers 1
Ġunse 1
Ġprocessors 1
Down 1
Ġreversal 1
veh 1
andal 1
ĠKov 1
Blue 1
Ġspecializes 1
Link 1
ĠConsidering 1
ĠEdmund 1
Ġneo 1
agger 1
rg 1
Ġseverity 1
Ġcour 1
RL 1
ĠTeresa 1
Ġgallons 1
Ġacquitted 1
Ġaccompl 1
Ġcracks 1
Ġsciences 1
Club 1
Ġpredicts 1
ĠVu 1
Ġhints 1
ĠZack 1
Ġrefurb 1
Ġdestabil 1
ĠSamar 1
ĠInfo 1
fs 1
Ġratios 1
Ġinherent 1
ĠContinental 1
Ġtreasure 1
Ġcaucus 1
Ġenact 1
orporated 1
ineries 1
Ġtastes 1
main 1
Ġsq 1
ickson 1
corruption 1
ulture 1
ĠGoodman 1
ĠLing 1
ĠSup 1
Ġexposing 1
immers 1
Ġresponds 1
heimer 1
Air 1
ĠFigures 1
Ġlongstanding 1
ĠAnalytics 1
Ġenforced 1
Ġnickname 1
Ġclinch 1
ĠCarpenter 1
ĠPharma 1
Ġconstructive 1
Ġgel 1
ĠSham 1
ĠTOP 1
ĠDerrick 1
Ã¶r 1
birds 1
ĠTong 1
ĠBatman 1
ĠRouhani 1
ĠOlive 1
ĠRiv 1
Ġdessert 1
Ġguides 1
Ġsag 1
Ġchemotherapy 1
Ġslept 1
ĠFranc 1
ĠDunk 1
writers 1
ĠÃĹ 1
Ġ401 1
Ġoutfielder 1
ĠHamburg 1
izu 1
Ġscr 1
Ġcomparisons 1
Ġwhites 1
Ġtraits 1
Ġcollateral 1
LEY 1
ideshow 1
Ġstatutory 1
Ġruin 1
Ġsituated 1
tem 1
Ġinject 1
rage 1
550 1
Ġfactions 1
ĠNaomi 1
cutting 1
Ġcommunicating 1
Ġrailroad 1
Ġsparking 1
Ġrespiratory 1
ĠWebster 1
ĠCarbon 1
Ġundertaking 1
Ġcomposer 1
ĠFigure 1
Ġspecified 1
Video 1
uber 1
Ġsexuality 1
lected 1
ĠBurger 1
ĠCards 1
SR 1
ĠLie 1
Ġrecount 1
Ġexceeding 1
Ġquoting 1
ĠJama 1
ĠVictorian 1
Ġsway 1
ĠGes 1
ĠSI 1
ĠKazakhstan 1
Ġaccusation 1
etr 1
Ah 1
Ġproc 1
Ġlamb 1
ĠMorales 1
ĠLily 1
Ġderail 1
Ġcontributes 1
iddle 1
ĠConcord 1
Ġelectr 1
Ġequip 1
Ġquantum 1
Ġthereafter 1
Ġarrange 1
Ġraided 1
ĠMove 1
ĠSang 1
ĠGaming 1
Ġbiology 1
ĠAmnesty 1
Ġdemise 1
ĠBarton 1
Ġqualifier 1
ANI 1
Ġundersc 1
Ġroyalty 1
ĠINC 1
Ġsne 1
ariat 1
ĠWan 1
Ġcluster 1
quin 1
Ġwhales 1
ĠFear 1
ĠBrew 1
Ġdeport 1
airs 1
Ġcensus 1
OUS 1
Ġrespectful 1
bone 1
Ġwaivers 1
friend 1
Ġsystemic 1
ĠDion 1
James 1
ĠAdmission 1
Ġstigma 1
ĠTIME 1
Ġunderpin 1
ĠWitnesses 1
Ġdigs 1
Ġgenocide 1
Ġstaging 1
rolled 1
Ġspecially 1
oop 1
Ġbaseline 1
ĠRF 1
avis 1
Ġvocals 1
COL 1
LD 1
Ġimpending 1
ĠCaldwell 1
Ġaluminium 1
Ġstra 1
ĠTayyip 1
Ġadmissions 1
falls 1
Ġrealizing 1
oen 1
ĠRV 1
ĠMog 1
Ġadvocating 1
ĠPepper 1
lived 1
ĠWick 1
Facebook 1
ĠSpect 1
Ġshout 1
Ġfractured 1
vet 1
Ġ1966 1
Ġcompensate 1
ĠVolume 1
Ġcategor 1
ĠHuntington 1
Free 1
OUGH 1
local 1
Sch 1
uti 1
Ġburger 1
Ġbush 1
Ġimpacting 1
Ġfrost 1
tti 1
ĠFresno 1
onz 1
shaw 1
ĠLibyan 1
Ġassert 1
ĠLegacy 1
ĠIE 1
ĠKinder 1
ĠHorizon 1
Ġtum 1
Ġsignaled 1
ĠFors 1
Ġspeedy 1
rang 1
ĠFT 1
Ġselecting 1
Ġpale 1
WD 1
Ġprobability 1
OUND 1
istrate 1
Ġsens 1
ocating 1
Ġinterpret 1
Ġpuzzle 1
Ġinland 1
Ġmanipulation 1
Sal 1
Ġfulfilling 1
ĠMcMaster 1
Make 1
jun 1
giving 1
ĠNiagara 1
Ġscholars 1
ALT 1
ĠSteam 1
omin 1
ĠSau 1
ĠDowning 1
Ġgy 1
ĠTit 1
ĠLav 1
ĠPepsi 1
Ġdumping 1
ĠDetect 1
ĠTDs 1
ĠKob 1
ĠSY 1
Ġpioneer 1
Ġ_ 1
Ġclarified 1
ĠTests 1
opic 1
ĠMN 1
ĠBowman 1
umin 1
Ġwidow 1
Ġrallying 1
ĠPull 1
Ġprojection 1
Ġescalation 1
Ġlibraries 1
ĠFounder 1
ĠHugo 1
ĠStyle 1
Ġfreelance 1
Ġlisteners 1
Ġdiscovering 1
ĠPlans 1
Ġfranchises 1
ĠPam 1
Ġfarther 1
UI 1
opers 1
103 1
ublished 1
keys 1
aky 1
Ġinnov 1
¦ 1
ĠDrum 1
Ġwraps 1
ĠCongressman 1
ĠVenus 1
fake 1
ĠBronx 1
ĠDinner 1
faced 1
Ġbackward 1
inge 1
Ġarsenal 1
ĠAce 1
uden 1
fre 1
Ġspa 1
ĠSaunders 1
ĠMatter 1
ĠSpons 1
Ġconsultations 1
ĠRuss 1
Ġsculpture 1
Ġuncommon 1
Nov 1
pg 1
otherapy 1
Ġgol 1
ĠBlazers 1
Ġadvises 1
ĠRegulatory 1
ĠBoyle 1
Äģ 1
Ġcuisine 1
Ġencouragement 1
yp 1
eny 1
ĠOrchestra 1
ĠChicken 1
Ġ1965 1
ĠPret 1
ĠCooperation 1
ĠDevices 1
ĠRodney 1
ĠHonduras 1
ĠEgg 1
Ġchurn 1
Ġclutch 1
ĠBernstein 1
Ġain 1
Ġformidable 1
ĠFacility 1
Ġpag 1
mons 1
bol 1
Ġliteracy 1
Ġsubmissions 1
ĠHulu 1
ĠConstitutional 1
ĠIsh 1
ĠPaula 1
olve 1
Ġabundance 1
ĠAla 1
ĠEcuador 1
Ġreconstruction 1
Ġcrush 1
reek 1
ĠÂŃ 1
ibo 1
Ġpracticed 1
Ġpac 1
rett 1
Ġpasta 1
Ġresp 1
ĠFlag 1
pal 1
Ġcommenting 1
Ġrecap 1
âĢĶâĢĶ 1
ĠToy 1
ĠMeredith 1
Ġreceipt 1
Ġseparating 1
ĠMap 1
Ġmogul 1
ĠBurlington 1
Ġger 1
Ġcoordinate 1
grad 1
Ġescalated 1
Ġproceeded 1
turned 1
Ġupt 1
hum 1
ĠWere 1
Whether 1
Ġenjoyable 1
energy 1
Ġprohibit 1
Ġhurdle 1
Ġdivorced 1
Ġcommentator 1
GT 1
ATH 1
Ġtravellers 1
Ġpopulated 1
ĠVo 1
ĠRebels 1
Ġspurred 1
Ġideological 1
Ġelephant 1
keyes 1
Pat 1
Ġlinger 1
Ġreps 1
Ġcocktails 1
ĠKristen 1
istically 1
Ġgunmen 1
Ġ1920 1
Ġquart 1
National 1
Ġexceptions 1
kat 1
priced 1
ĠHarold 1
ĠPistons 1
Ġcompounds 1
Ġmouse 1
Ġexhibits 1
ĠBurk 1
Ġclassmates 1
Ġcirculated 1
Ġattributable 1
ĠBaton 1
Ġorganizer 1
Ġdurable 1
Ġsingers 1
ĠOman 1
Ġhydrogen 1
Ġslash 1
Ġaccidental 1
ĠAbrams 1
KS 1
itty 1
Ġrust 1
Ġselections 1
porting 1
ĠEmanuel 1
XX 1
ĠThornton 1
Ġcolumns 1
Ġsentiments 1
fun 1
Ġplight 1
ĠSister 1
ĠMaggie 1
hya 1
Daniel 1
Ġplung 1
orio 1
ĠYorker 1
ĠSaturdays 1
Ġloc 1
aye 1
illon 1
ĠConsulting 1
pled 1
ĠZin 1
ĠFarms 1
ĠGiuliani 1
ĠMIN 1
ĠHanson 1
ĠComplete 1
ourke 1
oche 1
ĠJord 1
Ġprofessors 1
ĠWILL 1
ĠCron 1
Ġdorm 1
Ġcracking 1
tur 1
ORS 1
Ant 1
Ġdeduction 1
ĠSIM 1
igue 1
ĠValent 1
ĠEthereum 1
ĠSunny 1
ĠExtra 1
ivan 1
ĠFo 1
Ġleases 1
ibe 1
Ġ1800 1
Ġslapped 1
emaker 1
Ġfa 1
rien 1
ĠPeriod 1
ĠES 1
ĠBlu 1
Ġpreserving 1
Ġsmarter 1
mans 1
Ġgest 1
zu 1
nu 1
Ġdivest 1
roc 1
ĠFlood 1
Given 1
ĠNorton 1
Ġgranting 1
Ġdealings 1
Ġgeographic 1
esa 1
Ġcub 1
Ġcriticizing 1
ĠCub 1
Ġsurroundings 1
ĠInternal 1
Ġsle 1
Ġcrushing 1
ĠPP 1
izations 1
ĠAbdel 1
Joe 1
ĠVisitors 1
ĠCarly 1
INGTON 1
ĠGC 1
ĠWB 1
Ġgently 1
· 1
though 1
ĠAlto 1
Ġresting 1
ĠPerson 1
ĠTon 1
Ġbore 1
ĠClar 1
Ġmot 1
Ġbathrooms 1
ĠTypically 1
Ġdisconnect 1
Ġtightly 1
ĠHarvest 1
ĠHed 1
ĠGermans 1
atar 1
Ġkeynote 1
Ġimproper 1
fil 1
Ġintens 1
iev 1
Ġmedi 1
Ġtenant 1
Ġfootsteps 1
uli 1
Ġlegalization 1
106 1
ĠLexington 1
folio 1
ĠÂ½ 1
ĠRita 1
Ġbattered 1
inka 1
ĠJavaScript 1
ĠMusical 1
ĠTalent 1
Ġlounge 1
Ġintimidation 1
ikh 1
ĠFam 1
Ġtherapeutic 1
Ġbalancing 1
Ġrocky 1
liners 1
ĠPredators 1
Ġregistering 1
Ġdiligence 1
ĠRover 1
ĠDot 1
Ġterminated 1
ĠEdu 1
Ġcharming 1
ĠPLAY 1
ĠFact 1
ĠCi 1
)." 1
ĠWrestle 1
hun 1
Ġopenings 1
Ġfou 1
Ġ126 1
spe 1
ĠAW 1
Ġbud 1
ĠTemper 1
ĠOrthodox 1
Ġprogressed 1
tre 1
Ġtasting 1
Ġscrutin 1
ĠLima 1
Ġlayout 1
Ġlitter 1
ijk 1
ĠParkinson 1
ĠAnfield 1
Ġdevelopmental 1
Ġheaven 1
ĠWoodward 1
index 1
Ġpistol 1
Ġreson 1
ĠWS 1
Ġemb 1
ĠLap 1
ĠPle 1
lington 1
ĠSit 1
Ġabruptly 1
ĠSenegal 1
ĠYates 1
aceutical 1
ĠJak 1
ĠHastings 1
iste 1
ĠDB 1
ĠAgent 1
Ġpreservation 1
ĠLank 1
ĠSuffolk 1
Ġboo 1
essed 1
Ġempowering 1
enne 1
Ġrecycled 1
Ġstrateg 1
Ġbrake 1
135 1
ĠStef 1
ĠFlake 1
ĠGregg 1
ĠRent 1
Ġinstallment 1
FW 1
ĠCran 1
obo 1
ml 1
ĠJade 1
Ġaccuses 1
ĠNvidia 1
Ġburg 1
High 1
Ġbothered 1
ĠBenn 1
Ġinterrupted 1
Ġtrek 1
Ġserv 1
Ġpatron 1
Ġdictator 1
owa 1
jad 1
ĠTulsa 1
Ġboil 1
Ġdisplaying 1
Ġcinem 1
awaited 1
¸ 1
Ġreacts 1
ĠDee 1
ĠGron 1
igation 1
Ġservic 1
capt 1
Ġinsane 1
ĠVeteran 1
umen 1
End 1
ĠCream 1
Ġextremism 1
ĠMalone 1
Col 1
Ġsafeguard 1
Ġtomatoes 1
die 1
Ġchamp 1
zero 1
ĠPRES 1
Ġchoir 1
Ġpediatric 1
Ġprivileged 1
Ġdownstream 1
Business 1
ĠFighting 1
atable 1
Ġsums 1
Ġinsult 1
arten 1
ĠWikiLeaks 1
Ġpads 1
Ġretali 1
ĠHunts 1
Ġindie 1
ĠShields 1
ĠMortgage 1
oses 1
ampton 1
ĠVideos 1
ĠPER 1
itionally 1
ĠKimmel 1
sum 1
trade 1
acity 1
marked 1
ĠAngus 1
Ġtemper 1
Ġseizure 1
Ġfictional 1
utton 1
eva 1
Rs 1
Ġintra 1
ĠRequest 1
ppe 1
ĠeBay 1
ĠUSS 1
Ġ1500 1
Ġpossessing 1
Ġbacon 1
ĠSexual 1
ĠBuff 1
Ġslaughter 1
Ġjur 1
zhou 1
suit 1
ĠCha 1
ĠBuk 1
crime 1
ĠEasy 1
ĠChain 1
aq 1
ĠPall 1
flation 1
225 1
oup 1
109 1
ĠMcKenzie 1
Ġclearer 1
ĠDogs 1
oration 1
Ġsubs 1
Follow 1
ĠShirley 1
Ġadjusting 1
ĠEFF 1
Ġflipped 1
Ġconform 1
ĠLaurent 1
Ġcircular 1
ĠNOR 1
Ġmort 1
Ġtexture 1
avour 1
Ġflex 1
ĠHedge 1
ðŁĺ 1
Ġtrophies 1
ĠINV 1
Ġboast 1
ĠTyr 1
ĠNichols 1
ĠSpa 1
Ġcheered 1
Ġprey 1
reach 1
Ġbreached 1
ĠRegions 1
ĠLyft 1
ĠTul 1
ĠKore 1
Ġendure 1
ĠCover 1
"). 1
ĠSavage 1
Ã¨re 1
reens 1
Ġnic 1
sector 1
Ġweaknesses 1
Ġreboot 1
Ġ210 1
Ġimagery 1
ĠFrem 1
Ġclue 1
ĠLars 1
Ġfaction 1
hetic 1
Ġallied 1
ĠMarvin 1
Ġmethodology 1
ĠTN 1
Ġutter 1
Ġ270 1
ĠVolvo 1
oline 1
ĠACLU 1
Ġindirect 1
Ġminer 1
ĠBale 1
ĠStrange 1
ĠFuller 1
Ġexpelled 1
ĠTropical 1
Ġremotely 1
ĠTIM 1
Ġinnocence 1
Ġconfined 1
Ġfares 1
Ġprevalent 1
Ġdesp 1
House 1
azar 1
Ġgestures 1
ĠCES 1
ĠDM 1
eal 1
ĠÐ 1
Ġburnt 1
Ġframed 1
ĠDani 1
Ġhol 1
ĠCannes 1
ĠHayden 1
Ġwardrobe 1
ĠAssange 1
ĠSamp 1
bay 1
sky 1
ĠHence 1
ĠGrizzlies 1
rates 1
laws 1
ĠMandela 1
ĠHoover 1
rics 1
charged 1
Ġexclude 1
Ġpassive 1
Ġcontinuation 1
Ġblunt 1
Ġvac 1
ĠEmerging 1
rench 1
tv 1
ĠHollow 1
ĠOC 1
Ġadvisors 1
Ġrendered 1
ĠBernardino 1
ĠSupporters 1
ronic 1
Ġchancellor 1
Ġ1963 1
Ġuranium 1
Ġak 1
ĠOptions 1
ermott 1
ĠBerger 1
ibia 1
Ġexplosions 1
Ġimpairment 1
Ġhail 1
Ġalley 1
Ġcruelty 1
ĠClarence 1
Ġvariations 1
Ġrealm 1
Ġrenovations 1
ĠNorwich 1
Ġbelongings 1
Ġmerchants 1
ĠMinisters 1
ĠDodd 1
Ġviewer 1
Ġneutrality 1
quer 1
ĠPrinceton 1
dead 1
arest 1
GET 1
ĠCanadiens 1
ĠIgn 1
clear 1
Mal 1
ĠBridges 1
ĠHayward 1
Ġremarked 1
ingle 1
Ġsob 1
Ġdepart 1
beans 1
Ġpreserved 1
ĠFairfax 1
Ġforgot 1
ĠBeh 1
Rob 1
Ġcooperative 1
ullah 1
Ġmates 1
Ġrang 1
Ġthigh 1
Ġabducted 1
Ġchaired 1
ĠHearts 1
Ġidentifies 1
ĠBuckingham 1
ijn 1
ĠJab 1
Ġclashed 1
feed 1
sites 1
ĠCareer 1
exp 1
ĠBuccaneers 1
scape 1
Ġupdating 1
Ġintentional 1
ĠGuam 1
ĠBreakfast 1
ĠHag 1
Media 1
Ġtapping 1
Ġpics 1
Ġeaten 1
Ġpremise 1
Kim 1
ĠStorage 1
Ġextensively 1
Ġoutrageous 1
ĠSadly 1
Global 1
Â¢ 1
leaning 1
CM 1
Ġeasiest 1
ument 1
Ġ122 1
Ġdaunting 1
ISE 1
Ġsunset 1
Ġreset 1
Ġbent 1
Trust 1
ĠCaleb 1
ĠRut 1
ĠBast 1
ETS 1
iencies 1
Ġpu 1
ature 1
Ġrealities 1
omi 1
Ġsoda 1
Ġunveil 1
ĠGoldberg 1
opes 1
Ġuprising 1
ĠMR 1
Ġendorse 1
Ġsail 1
Ġconverting 1
Ġglamorous 1
ĠHollande 1
108 1
isky 1
Ġcushion 1
240 1
Ġadventures 1
Ġantitrust 1
ĠStockholm 1
pace 1
ĠVald 1
ĠTransfer 1
ERT 1
ĠMcInt 1
Ġsurging 1
ogn 1
Ġlauded 1
ĠZam 1
ĠRough 1
TOR 1
Ġwed 1
Ġorigins 1
ĠEld 1
oso 1
Ġsupplying 1
ĠPetty 1
ĠTwe 1
ĠDenise 1
ĠBec 1
Ġbehave 1
Ġ121 1
estone 1
ĠBoulder 1
ĠBlackhawks 1
ĠWyatt 1
Ġfiguring 1
ĠDeborah 1
agi 1
significant 1
Ġasthma 1
Ġmessy 1
mpire 1
Ġax 1
Ġaspiring 1
ĠNH 1
ĠGina 1
heavy 1
ĠVick 1
ÃŃs 1
something 1
Ġbodily 1
Ġunauthorized 1
ĠActually 1
ĠOH 1
Ġmicrophone 1
allah 1
Ġrampant 1
Ġrelocated 1
Ġwidening 1
ĠCait 1
nel 1
ĠBlackBerry 1
Ġprofessionally 1
ĠInterestingly 1
Ġbarbecue 1
Ġresisting 1
ĠNunes 1
disc 1
Ġgroundbreaking 1
orable 1
ĠRegulation 1
Ġborrowed 1
Ġleaking 1
Ġlengths 1
Ġunveiling 1
houses 1
Ġ155 1
ĠBillboard 1
icion 1
Times 1
ĠZoe 1
ĠAbby 1
bus 1
ĠMinutes 1
ributed 1
Ġparap 1
Ġfertil 1
ABC 1
ĠIsle 1
Ġtherapist 1
Ġgubernatorial 1
ĠAust 1
ĠLoan 1
Bo 1
ĠNRL 1
rag 1
Clear 1
Ġrevision 1
Ġflesh 1
BD 1
iji 1
Ġproductions 1
Ġcoconut 1
ĠMcCorm 1
ĠDash 1
Ġgeography 1
hearted 1
Ġarson 1
Ġgoaltender 1
Ġbelly 1
Ġqualifications 1
ĠActiv 1
Ġhooked 1
ĠHungarian 1
Ġprotocols 1
inking 1
Ġfronts 1
ĠKuala 1
ĠToys 1
ĠFitness 1
Ġwarfare 1
Ġoutp 1
ĠQuestions 1
Ġwel 1
ĠShan 1
ĠMorton 1
ĠRomero 1
Ġglance 1
ĠTay 1
Ġsneakers 1
ĠSymphony 1
Ġinspect 1
enna 1
Nobody 1
Ġscrapped 1
ĠDeVos 1
ĠDominican 1
Ġplanets 1
anova 1
Ġnotify 1
Ġincurred 1
Ġunders 1
Ġdetainees 1
ĠMarriott 1
electric 1
ĠKes 1
union 1
ĠWatt 1
ATING 1
Ġslipping 1
Ġraft 1
Ġresisted 1
Ġcred 1
tern 1
Ġflurry 1
Line 1
Ġconsulted 1
Ġanalyzing 1
107 1
ĠWide 1
¶ 1
human 1
ĠFEMA 1
Ġsmash 1
Ġcorps 1
Ġbarric 1
Ġcollar 1
ĠTB 1
without 1
ĠCanucks 1
Ġneedle 1
ĠSidney 1
ĠLauderdale 1
Ġglove 1
ilee 1
pic 1
Ġbenef 1
ĠHydro 1
ĠDisc 1
ĠArg 1
Ġtermin 1
Ġsympath 1
Ġpest 1
ĠCoff 1
Ġadvancement 1
social 1
pol 1
ĠEmails 1
Ġstacked 1
ibly 1
ĠAlbion 1
Ġfist 1
hero 1
ĠMarian 1
asia 1
Ġtownship 1
Ġslick 1
Ġmodeling 1
achers 1
ĠArgent 1
ĠSUN 1
arde 1
Ġpinned 1
Ġhitters 1
Ġdare 1
ictions 1
arily 1
Ġsting 1
Ġprimaries 1
appointed 1
Ġformats 1
Ġglitter 1
Ġpatches 1
Ġstrategically 1
Ġaka 1
Ġyielded 1
BY 1
Ġjeopard 1
ĠVand 1
Ġcrowned 1
Ġoccupants 1
Ġtanker 1
ĠVisa 1
Great 1
Ġseasoned 1
ĠAviv 1
Ġfiery 1
Ġderivatives 1
Ġdiverted 1
Ġacqu 1
Ġsandwiches 1
ĠLorenzo 1
Ġpardon 1
ĠBarber 1
ĠAgricultural 1
ĠPhilly 1
Ġregrets 1
ĠMillions 1
ĠFrazier 1
Ġtreasury 1
ĠKenn 1
Ġdestined 1
olved 1
Back 1
leader 1
lyss 1
ĠReyes 1
001 1
bags 1
ĠStandards 1
ĠExcellence 1
ĠMaid 1
ĠAnthem 1
FIELD 1
Ġrevived 1
ĠQuad 1
Ġdistinguished 1
Ġweighted 1
Ġritual 1
Ġinvites 1
wana 1
iture 1
ĠCI 1
ĠMAY 1
Ġunfairly 1
ĠKP 1
ĠMidlands 1
Ġmint 1
uers 1
Ġcatalog 1
arant 1
Ġlosers 1
Ġscheduling 1
esar 1
Ġtransferring 1
Ġbankrupt 1
Ġmethamphetamine 1
ĠEsk 1
ĠTreatment 1
ĠResponse 1
Ġhomework 1
ĠBald 1
Ġembarrassment 1
Ġpoorest 1
ĠPlatinum 1
ĠFac 1
Ġunleashed 1
Ġbrighter 1
002 1
Ġdisl 1
ĠLowry 1
ived 1
ĠDemon 1
ĠNonetheless 1
arro 1
ĠCONT 1
ifted 1
ĠFreder 1
isson 1
Ġrout 1
ARA 1
Ġswinging 1
Oct 1
Ġliable 1
Ġleaning 1
Ġlungs 1
380 1
ĠProcess 1
ĠCov 1
terrorism 1
Ġresistant 1
Ġpumped 1
Ġtripled 1
Semitism 1
ĠMia 1
Ġpenetration 1
ĠLutheran 1
BU 1
odes 1
Ġspanning 1
utch 1
Trans 1
ĠVolunteers 1
Ġpathway 1
Ġinfectious 1
Ġdrastic 1
ĠEngineers 1
Ġprincess 1
acts 1
usting 1
utive 1
achel 1
DO 1
Ġpave 1
ĠHerrera 1
Ġnearing 1
help 1
Ġembarked 1
Ġmodes 1
ĠDriving 1
Ġopting 1
Best 1
Ġbehavioral 1
Ġcables 1
App 1
otion 1
ĠExt 1
ĠSinclair 1
ĠInsp 1
Ġsinking 1
Next 1
ĠLumpur 1
ĠShadow 1
Donald 1
itals 1
Ġmentions 1
floor 1
Ġconsiderations 1
ĠSquad 1
ĠPlate 1
dos 1
Friday 1
Hopefully 1
arre 1
Ġalum 1
":"/ 1
Ġfet 1
anza 1
Ġdign 1
ĠNguyen 1
ĠRutgers 1
ĠSew 1
Ġfilters 1
ofi 1
Ġunavailable 1
ranking 1
Ġrefining 1
ĠUNC 1
Ġmax 1
yll 1
Ġhandsome 1
Ġutterly 1
See 1
ĠStores 1
Ke 1
ĠAdvoc 1
ordon 1
umbles 1
Ġbugs 1
olar 1
ĠCork 1
Ġtoken 1
Ġauthorization 1
Ġconscience 1
Ġrepl 1
edi 1
owitz 1
iven 1
Ġlieu 1
Ġlifts 1
Lean 1
Ġmagnificent 1
ĠFilms 1
onents 1
Ġ*** 1
Green 1
ĠAdvocate 1
ĠArrow 1
Ġblows 1
Ġexploited 1
fly 1
ĠAmar 1
ĠNOTICE 1
Ġsincere 1
found 1
ĠRud 1
Ġcy 1
ĠHeidi 1
Ġempowered 1
Ġweakest 1
ĠKru 1
Credit 1
aunted 1
Ġexotic 1
aning 1
Ġaw 1
ĠMulti 1
Ġanimation 1
850 1
ĠCounter 1
ĠNit 1
alli 1
Ġcapitalize 1
Ġexecuting 1
Ġdescent 1
ovi 1
ĠKimberly 1
headed 1
Ġmentioning 1
)- 1
ĠSpecifically 1
ayette 1
ihad 1
ĠIss 1
Ġdisagreed 1
ĠKum 1
Ġurges 1
Ġpermitting 1
Ġpy 1
isp 1
Ġhygiene 1
Ġmourning 1
Ġcyclists 1
cats 1
FER 1
cycl 1
Ġnewcomers 1
Ġplead 1
Ġmend 1
secret 1
fan 1
Ġtranslates 1
unit 1
ĠTank 1
drive 1
ĠSite 1
Ġacceleration 1
ĠEnrique 1
ĠElaine 1
Ġstaring 1
Ġbackwards 1
Ġot 1
Ġvot 1
ĠHK 1
Ġfian 1
ĠLockheed 1
Ġmanifest 1
ĠZurich 1
pad 1
ĠRav 1
flow 1
Ġmoms 1
ĠSolid 1
ĠReady 1
aughlin 1
Ġreminding 1
ĠCOR 1
Ġoptimal 1
ĠCrisis 1
Ġcholesterol 1
ĠGerard 1
Ġfest 1
Ġsanction 1
Ġdragging 1
inent 1
ĠBravo 1
Ġamend 1
aval 1
Ġpoem 1
Ġinvasive 1
Ġlandsc 1
leigh 1
Ġheadache 1
ĠMuse 1
ĠTurning 1
girl 1
cess 1
Ġfalsely 1
Ġplaintiff 1
Ġheavier 1
Ġrumored 1
Ġeleven 1
ĠConsumers 1
ĠOriginally 1
ĠStatement 1
bors 1
Ġrevoked 1
ĠOmaha 1
Fox 1
ĠKle 1
Ġvault 1
Ġoutdated 1
umes 1
ĠArk 1
Ġapologised 1
Ġrockets 1
ĠMarines 1
Ġcaptures 1
ĠMW 1
ĠWalters 1
ĠFactor 1
Ġensuing 1
ĠSession 1
oons 1
Ġ132 1
gt 1
ĠPoints 1
Ġexhaust 1
ĠOsaka 1
heed 1
Ġhandic 1
amber 1
inging 1
Ġll 1
Ġescorted 1
Ġfloated 1
Ġmerge 1
Ġcompliment 1
ĠVC 1
Ġinsulin 1
ĠDebt 1
Ã§a 1
Ġpens 1
Ġassertion 1
Ġredevelopment 1
moderate 1
Ġleftist 1
ĠBA 1
Ġherd 1
Ġinsecurity 1
liter 1
Ġcommence 1
ĠCaucus 1
Ġnovels 1
ĠChevron 1
Ġerosion 1
ĠNicholson 1
ĠRoof 1
ĠVolunteer 1
Ġcompelled 1
Ġcongratulated 1
ĠPanel 1
Ġov 1
idelity 1
Ġspect 1
Ġbee 1
ĠAssistance 1
Ġterrified 1
iew 1
Ġweekday 1
ĠHiggins 1
special 1
ubs 1
anton 1
Ġbribes 1
Ġneat 1
ĠCliff 1
Ġdisqualified 1
ĠND 1
Ġvers 1
andra 1
Ġgraft 1
value 1
Ġportray 1
Ġdaytime 1
ksh 1
Ġconsist 1
Ġhonesty 1
ĠTimber 1
ĠNich 1
Ġinvented 1
ĠBuch 1
Ġskull 1
Ġtags 1
Ġ124 1
ighth 1
Ġrelaxing 1
Online 1
Ġsanctioned 1
Sport 1
ĠCove 1
Ġcomics 1
MW 1
AMA 1
mother 1
Home 1
ĠCustomer 1
Ġstrides 1
ĠWins 1
Ġrollout 1
ĠWeaver 1
Ġshuttle 1
Ġsteak 1
Ġglorious 1
ĠToll 1
Ġtrustee 1
Ġinstallations 1
ĠOpportunity 1
Ġoper 1
horse 1
Ġaided 1
irus 1
Ġsleek 1
Ġyelled 1
ĠSocialist 1
Ġapplaud 1
ĠWah 1
Ġdevote 1
Ġdh 1
Ġarchitectural 1
ĠMAC 1
centric 1
ĠSense 1
illas 1
ĠArchbishop 1
glass 1
Ġallowance 1
Ġbundle 1
andon 1
eight 1
ĠKare 1
haus 1
ĠAndreas 1
Ġdoll 1
RAM 1
Ġvolunteering 1
ĠRaleigh 1
Ġbees 1
Ġnickel 1
Ġgenerosity 1
Ġhomeowner 1
ĠLieutenant 1
Ġlandfall 1
ĠRenew 1
ĠGiving 1
ĠContribut 1
aret 1
ulf 1
Ġreinforce 1
ĠSalv 1
ĠVenice 1
Ġfreedoms 1
ĠTools 1
Ġ1962 1
ĠWarm 1
majority 1
Ġpleas 1
oding 1
plant 1
Ġtow 1
ĠBlanc 1
ĠPipeline 1
ĠMoor 1
Ġrefrain 1
ĠExplore 1
language 1
cers 1
ĠWT 1
sent 1
ĠNun 1
Ġplastics 1
acas 1
Ġdisruptions 1
Ġdiscomfort 1
enko 1
Ġimprisoned 1
Copyright 1
Ġmyriad 1
Ġparenting 1
Ġspree 1
NBC 1
Ġonion 1
ĠIsraelis 1
ĠRA 1
Ġrelocate 1
113 1
ĠHir 1
ĠDre 1
ĠDry 1
ĠONE 1
ĠAdministrator 1
Ġprints 1
ĠGret 1
Ġundergraduate 1
ĠLif 1
avers 1
ĠCarney 1
Ġapex 1
Ġlenses 1
Ġliberals 1
gb 1
ĠWhereas 1
Ġcountryside 1
amine 1
ĠTerminal 1
Ġintr 1
ĠTrey 1
ALS 1
Ġcontinental 1
Ġselfies 1
FILE 1
ĠUnity 1
Ġauthoritarian 1
Ġoriginated 1
ĠExcept 1
yna 1
Ġmonet 1
Ġundermining 1
ĠGS 1
pi 1
iq 1
Ġslides 1
ĠSummary 1
Ġpains 1
cluding 1
Ġequation 1
locked 1
Ġfraternity 1
Ġwithstand 1
Ġdevastation 1
Ġdemo 1
late 1
Ġpunches 1
Ġgeared 1
nen 1
ĠBowie 1
attle 1
Ġpolitic 1
ĠGle 1
mented 1
ĠCoordinator 1
Ġupwards 1
ĠMega 1
angled 1
Ġengineered 1
Ġluggage 1
ĠWen 1
ĠSergeant 1
Ġkindergarten 1
ĠPortsmouth 1
uddin 1
ket 1
oba 1
Ġoscill 1
esse 1
ĠOlson 1
ĠBorough 1
Ġsupplements 1
ĠEvening 1
ANE 1
Ġlava 1
Ġgearing 1
setting 1
urgical 1
asty 1
ĠDaytona 1
Ġbrewery 1
Ġpledges 1
rounder 1
ulous 1
ĠHancock 1
rex 1
Ġram 1
Ġproceeding 1
ĠMurdoch 1
Ġdowngrade 1
Ġstatues 1
Ġdebated 1
ĠSleep 1
Ġ144 1
ĠRuby 1
ĠFi 1
123 1
ĠArabic 1
Ġlasts 1
ĠIvy 1
ĠWid 1
rown 1
stick 1
?'" 1
ĠSTEM 1
Ġsensible 1
htar 1
Ġharbor 1
Ġcra 1
ĠAlbum 1
ĠCarnival 1
Ġimplies 1
agement 1
ĠInitially 1
Ġchooses 1
Jeff 1
ĠHig 1
Ġtam 1
Ġlump 1
ucks 1
Ġrepatri 1
ĠMercy 1
zza 1
Ġ365 1
ĠRicardo 1
ogram 1
Ġundergone 1
system 1
Ġtel 1
ĠKee 1
ully 1
istas 1
Ġgrains 1
ĠTomorrow 1
ĠRC 1
ĠTurk 1
Ġfreshmen 1
ĠAway 1
ĠSach 1
ĠUltimate 1
Ġoffensively 1
ismo 1
Ġteaser 1
ĠJud 1
Ġlegitimacy 1
opt 1
ĠCobb 1
Ġrejecting 1
ĠSolo 1
ĠArcher 1
Ġsoutheastern 1
ĠPlain 1
ĠLoss 1
Ġminerals 1
ĠMari 1
Ġscrambling 1
ĠPeak 1
Ġhavoc 1
rings 1
Ġunofficial 1
ĠHaj 1
director 1
ĠCanal 1
ĠNSA 1
ĠEaton 1
ĠPART 1
ĠCommissioners 1
Ġwellbeing 1
resa 1
Ġunderstandable 1
dates 1
ĠSorry 1
Ġastonishing 1
Ġrevise 1
ĠEc 1
ĠLack 1
endi 1
endale 1
also 1
Ġcolder 1
Ġheel 1
Ġcellular 1
Conn 1
ĠThur 1
Ġmassage 1
olla 1
clus 1
Ġtoilets 1
ĠCelebr 1
Ġtackled 1
Ġchorus 1
ETA 1
anca 1
ĠOLED 1
Ġpunk 1
ĠBrain 1
ĠNuggets 1
Ġseamless 1
make 1
atted 1
ĠRog 1
ĠPatch 1
Ġruined 1
Ins 1
Ġconsolidate 1
Ġgospel 1
ĠCaption 1
Ġoverweight 1
Ġscreened 1
ĠKraft 1
ĠBain 1
breaker 1
ĠFeinstein 1
ĠDoc 1
Ġdeepest 1
ĠOL 1
Ġtunes 1
Ġrightly 1
ĠLanc 1
ĠBrotherhood 1
Ġpoultry 1
ĠPure 1
Ġstimulate 1
Ġdiscourse 1
ĠStark 1
Ġmuseums 1
ention 1
Ġtaxation 1
ĠAkron 1
ayer 1
ĠKirby 1
farm 1
oser 1
Ġcommend 1
Ġunarmed 1
ensions 1
Ġsuperst 1
Ġoceans 1
Ġmisuse 1
LO 1
ĠByrne 1
ĠMaritime 1
Ġdense 1
Ġexcuses 1
Ġsuppose 1
ĠMarks 1
Ġrainy 1
Ġreplicate 1
Ġboutique 1
ĠRenaissance 1
jas 1
icted 1
Ġreferenced 1
ĠTir 1
ĠHatch 1
ĠCry 1
ĠPayPal 1
Ġfulfil 1
ĠHawaiian 1
come 1
ĠThirty 1
Ġ260 1
ĠYak 1
Ġangles 1
Ġlandlord 1
Ġlavish 1
Women 1
ĠNT 1
Ġreinforced 1
Ġprevail 1
ĠCommunities 1
Ġfootwear 1
Ġassurances 1
Ġlb 1
Ġairing 1
Ġresorts 1
ĠFiji 1
ĠShay 1
Ġprevailing 1
many 1
Ġimpe 1
ĠDul 1
Ġsymbols 1
zb 1
ĠCere 1
Ġapplauded 1
Ġsoundtrack 1
Ġdrunken 1
ĠEuropeans 1
Ġherds 1
moving 1
WR 1
ĠHindi 1
Ġwaking 1
Jo 1
Andrew 1
rosse 1
ĠLegislative 1
Ġdisgrace 1
Nothing 1
ĠBulgaria 1
Ġhumidity 1
Ġtranslation 1
Ġmeasurements 1
Ġvying 1
ĠBrid 1
Max 1
Ġdir 1
unci 1
Ġdefines 1
Ġperfection 1
ancers 1
Matt 1
ĠShinzo 1
ĠPresidents 1
Ġginger 1
onna 1
existing 1
rika 1
enced 1
ĠBray 1
Ġgall 1
Ġdisrespect 1
ĠCumber 1
Ġcontestant 1
ucky 1
anticipated 1
abled 1
LLOW 1
Bel 1
ĠKear 1
Ġstoryline 1
Ġrigs 1
ĠScots 1
ĠChap 1
ĠThankfully 1
Ġcommunist 1
ĠAdviser 1
Ġregist 1
Ġannoying 1
ĠDVD 1
Ġethic 1
ĠFilipino 1
ĠAdidas 1
Ġbilling 1
Ġalleviate 1
Ġsmoked 1
Ġhazard 1
EV 1
Ag 1
baum 1
Ġdoses 1
Ġoutcry 1
Ġinclined 1
Ġpsychologist 1
itzer 1
January 1
Ġmornings 1
aught 1
Ġsurreal 1
ĠCannon 1
avy 1
ĠCris 1
cf 1
Ġinterpreted 1
Ġpersecution 1
vation 1
Ġupfront 1
ĠWaste 1
Ġmills 1
Ġbombings 1
ĠHeaven 1
ĠFlat 1
Ġboxer 1
Ġavenues 1
Invest 1
ĠZika 1
Ġbackstage 1
idas 1
eston 1
ead 1
Ġbishops 1
Ġrender 1
Ġfootballer 1
Ġspilled 1
Only 1
Ġsaddened 1
ĠAbove 1
inator 1
tro 1
onen 1
ĠAMC 1
Ġstringent 1
Ġfooting 1
ĠGhost 1
Ġtexting 1
ĠCPI 1
ĠUW 1
Ġaccol 1
iries 1
ĠFlex 1
ĠCarolyn 1
Andre 1
Ġsiege 1
Muslim 1
Ġautomobile 1
reci 1
Ġdean 1
atre 1
Ġwax 1
Ġwo 1
ĠDuffy 1
Ġfiance 1
Ġfib 1
Ġeagle 1
ĠCatal 1
Ġinfants 1
Ġsubmitting 1
Ġdownhill 1
Ġstaffer 1
ĠLights 1
Ġeater 1
ĠCaliforn 1
Ġsupervisors 1
ĠPy 1
Ġcondemnation 1
Ġsci 1
Ġhated 1
Ġtil 1
ĠLavrov 1
Ġsab 1
Ġmotors 1
Ġlogging 1
ĠOwn 1
Ġpi 1
Ġrepeating 1
ĠDOJ 1
enary 1
ĠChow 1
fat 1
Ġbalcony 1
orie 1
NING 1
ĠUnified 1
Neil 1
Bill 1
ĠSims 1
uten 1
LV 1
ĠEMS 1
Ġsip 1
Ġreplaces 1
ichi 1
ĠFig 1
ĠCharity 1
Ġpeek 1
Ġrack 1
Ġcousins 1
Ġresolving 1
Ġthrone 1
ĠEngine 1
ĠChak 1
Ġlamented 1
Ġwipe 1
Ġnutrients 1
ĠChat 1
AMP 1
ĠOprah 1
uming 1
serving 1
Ġfir 1
Ġlandlords 1
neck 1
Ġupload 1
Ġunspecified 1
Ġicy 1
´ 1
Ġze 1
Ġprohibits 1
ĠFI 1
Res 1
ĠEff 1
hell 1
umbo 1
Ġreceipts 1
Ġoperatives 1
stant 1
Ġwives 1
ĠCinema 1
Ġnegligence 1
Ġgases 1
ĠLau 1
Ġbrew 1
August 1
never 1
Ġpenned 1
Ġincomplete 1
ĠZh 1
esi 1
Ġranged 1
apolis 1
Ġwithdrawing 1
ĠLevi 1
ĠLevy 1
ĠDaly 1
Ġdelaying 1
ĠMSNBC 1
ĠCyrus 1
ĠNutrition 1
NN 1
Ġwinding 1
Ġglow 1
ĠMY 1
Ġgoodwill 1
ĠMON 1
Ġslots 1
ĠNina 1
ĠFIR 1
ĠLTE 1
ĠInnov 1
dev 1
ctic 1
Ġanalyses 1
ĠBangalore 1
Ġtales 1
Ġovercame 1
ĠThurs 1
Ġcherry 1
ĠNou 1
ĠFlowers 1
1000 1
updated 1
rieve 1
ĠBeautiful 1
iak 1
Ġplayback 1
Ġheadset 1
Ġashamed 1
Min 1
Ġadm 1
ĠLucky 1
ĠTucson 1
Ġentirety 1
ranging 1
ĠVance 1
kered 1
image 1
ĠGord 1
War 1
Ġsimilarities 1
dig 1
ĠJude 1
Ġlonely 1
hra 1
ĠStaples 1
ĠACA 1
Ġmeasurement 1
Ġcooper 1
ATER 1
ĠMeng 1
Ġbarring 1
190 1
ĠBatt 1
Ġreproductive 1
ĠRowe 1
Ġsubsid 1
Ġslogans 1
ugar 1
ĠKeller 1
ingham 1
fuel 1
Ġhid 1
afe 1
Ġindul 1
cash 1
Ġstressing 1
ĠMIT 1
Ġtrump 1
ancer 1
ĠPes 1
ĠMint 1
Ġcrossover 1
ĠWeiss 1
ĠElvis 1
ĠPermanent 1
ĠKhalid 1
Ġunjust 1
Ġexceptionally 1
Ġfut 1
Ġavid 1
ĠEthics 1
Ġutilized 1
Ġfeasibility 1
Ġcatering 1
Press 1
wayne 1
October 1
Ġfavors 1
Ġobsession 1
Ġmelt 1
Ġmug 1
ĠMK 1
Ġapples 1
Ġvine 1
cliffe 1
Ġgrat 1
Ġspells 1
ounced 1
Ġdecree 1
issy 1
Team 1
Ġdeploying 1
Feb 1
Ġmiserable 1
Ġwat 1
ĠBust 1
ĠNorris 1
ĠTimberwolves 1
Ġangered 1
ĠArn 1
oft 1
rome 1
Ġadvertisements 1
onal 1
Ġnun 1
Ġtorque 1
Ġslave 1
Ġnonsense 1
Ġcoy 1
Ġcites 1
Game 1
Ġarchitects 1
playing 1
Ġgener 1
Ġsocio 1
Ġmeditation 1
Ġforgive 1
Ġsmiled 1
%), 1
Ġpers 1
ĠSoph 1
Ġoccupy 1
atton 1
Ġwitnessing 1
Ġapologise 1
Ġpredecessors 1
ĠCassidy 1
Ġtallied 1
NER 1
Ġtract 1
ĠHolder 1
ĠPav 1
Ġjackets 1
Mel 1
raud 1
Ġexercising 1
ĠChung 1
ĠAmin 1
athi 1
ĠMem 1
Ġracked 1
Ġcarved 1
ĠMickey 1
ĠLafayette 1
Ġgrill 1
ĠINFORMATION 1
usc 1
ĠPromotion 1
yson 1
istry 1
Ġfulfilled 1
Ġrestraint 1
Ġpopping 1
ĠSlater 1
Ġmercy 1
aden 1
Ġsubmarine 1
ĠBowling 1
dogs 1
ĠSwe 1
Ġnoticeable 1
Ġbis 1
ĠPremiership 1
Ġspat 1
ĠTow 1
ĠWand 1
Ġmechanics 1
while 1
ĠBenson 1
Ġmolecules 1
Ġcrosses 1
Ġrecalling 1
ĠCertainly 1
HAM 1
Ġsever 1
ĠRudy 1
ĠDUI 1
OLD 1
ĠTobacco 1
Ġsubdued 1
Ġquota 1
TF 1
Ġflats 1
Ġemphasize 1
Ġbelts 1
ĠOpinion 1
Ġpiled 1
ĠSpark 1
ĠElias 1
Ġclassification 1
ĠHands 1
ĠCV 1
Ġtoast 1
Ġcandle 1
atching 1
short 1
ĠDup 1
Ġult 1
bats 1
Ġmarketers 1
ĠAvery 1
ĠColbert 1
ĠIk 1
ĠVac 1
ĠJackets 1
Ġmerits 1
eli 1
PORT 1
Ġelevator 1
irming 1
effective 1
Ġgroceries 1
Ġhi 1
ĠINTER 1
ĠSAP 1
ĠNYPD 1
ĠKY 1
Ġangel 1
Ġspectacle 1
rÃ© 1
ĠRoche 1
Ġinsects 1
Ġcommenced 1
ĠFoley 1
Ġdarker 1
ĠUg 1
ĠMostly 1
Ġtermed 1
uci 1
ĠExec 1
ĠBrittany 1
Ġharmony 1
Ġadvocated 1
Ġparcel 1
ĠHots 1
Ġmonarch 1
ĠSiri 1
odge 1
ĠPag 1
Ġprogressing 1
grounds 1
Ġonstage 1
Ġwarmth 1
ĠWon 1
Ġviolates 1
ĠSaudis 1
Ġbumper 1
Ġpatrols 1
ĠBarron 1
Ġindoors 1
Ġtar 1
Each 1
Val 1
Ġapplicant 1
ĠCater 1
Ġclassics 1
ĠThreat 1
Ġwrapping 1
ĠIdlib 1
anking 1
Did 1
adia 1
ĠRig 1
ĠBram 1
ĠLaurie 1
ĠHair 1
ĠCannabis 1
Ġdaylight 1
ĠNorm 1
ĠRip 1
sin 1
unta 1
Pass 1
ĠAcad 1
ĠCummings 1
Ġtheirs 1
ĠDistribution 1
especially 1
Ġgrilled 1
Ġaffiliates 1
ĠVander 1
ĠCath 1
ĠProductions 1
ĠTrek 1
230 1
Ġcasinos 1
ĠCain 1
atu 1
idget 1
ĠWinds 1
Ġunanswered 1
Ġintercept 1
ĠMarty 1
Ġrefin 1
Ġlieutenant 1
cas 1
Chief 1
average 1
ilot 1
Ġscrimmage 1
ĠMud 1
speaking 1
ĠFranken 1
ĠTories 1
Ġabstract 1
awar 1
ĠTerms 1
dal 1
ĠFur 1
Ġhumour 1
rh 1
Ġsitu 1
aed 1
ĠFIN 1
Ġtranscripts 1
approved 1
ĠParsons 1
Ġpigs 1
Ġrepayment 1
ĠARM 1
ĠElliot 1
ĠLevine 1
Ġtagged 1
pun 1
ĠDwight 1
Ġconfiguration 1
sis 1
ĠAdult 1
Ġearthquakes 1
Ġcreature 1
ĠMRI 1
Ġmach 1
Ġprescriptions 1
cover 1
Ġministries 1
Ġinaccurate 1
ĠLabs 1
ĠMGM 1
Ġtomato 1
Ġeng 1
Ġopposes 1
owan 1
Ġmapping 1
Ġconsum 1
online 1
eters 1
code 1
Aug 1
Point 1
branded 1
pling 1
ĠCalder 1
Oper 1
ĠMiddles 1
Ġchampagne 1
ĠTues 1
Ġsampling 1
Ġenergetic 1
rano 1
ĠStyles 1
Ġneglected 1
ĠDamon 1
Ġendanger 1
Ġsouthwestern 1
ĠATM 1
ĠDuck 1
engers 1
Ġdan 1
yth 1
Ġbou 1
ĠDecl 1
Gold 1
Ġprojecting 1
Google 1
ĠHussein 1
Ġaccomplishment 1
itarian 1
Ġgossip 1
ĠRai 1
ril 1
ĠSke 1
Ġpsychiatric 1
ĠMacBook 1
ĠAdobe 1
ĠHodg 1
Ġaccompany 1
Ġadvertised 1
Ġreminiscent 1
Ġgeographical 1
Ġconvertible 1
IK 1
CTV 1
Ġcommunal 1
Ġchim 1
Ġselfish 1
Ġdrilled 1
Ġtortured 1
Ġblacks 1
noon 1
Ġmanifesto 1
ĠRichie 1
acco 1
Im 1
Ġdebit 1
ĠSNP 1
perfect 1
gard 1
ĠRatio 1
Ġstubborn 1
Ġaccumulation 1
Ġcongregation 1
Ġkissing 1
Ġkillers 1
ĠAbbey 1
von 1
ĠFuj 1
ĠIsabel 1
NB 1
ĠNish 1
ĠJulius 1
ĠZimmer 1
Ġuncover 1
dar 1
isle 1
ĠCompar 1
Ġcounselor 1
ĠSok 1
ĠCumm 1
ĠHip 1
Ġurgently 1
Ġrentals 1
Ġapproving 1
Ġirrigation 1
Ġprostate 1
ĠJudicial 1
ĠSubmit 1
ĠTanner 1
attack 1
emb 1
Ġreclaim 1
Ġec 1
Ġbrutality 1
Ġcommanding 1
Ġreasoning 1
Roy 1
ĠElect 1
ĠMobil 1
anding 1
Ġmirrors 1
Israel 1
Ġpavement 1
Ġoverdue 1
ĠMd 1
street 1
Ġthrill 1
pora 1
azon 1
Ġbrewing 1
enge 1
ĠDisaster 1
Ġbuilder 1
ods 1
utsch 1
Ġterminals 1
ĠBaird 1
enburg 1
Ġhast 1
Ġbrass 1
Ġparental 1
enture 1
ĠConduct 1
Ġexpands 1
luck 1
mur 1
ĠBj 1
Ġadministrations 1
ĠOlivier 1
oux 1
Ġnarrowed 1
winner 1
Ġmakeshift 1
ĠVAT 1
ĠJavier 1
-, 1
Ġsystematic 1
Ġenforcing 1
emin 1
ĠAudio 1
United 1
gener 1
ĠKara 1
ivas 1
ĠPretty 1
ĠLob 1
Ġpetitions 1
ĠMercer 1
ampa 1
product 1
Ġdistributing 1
Ġtunnels 1
Ġcondo 1
ĠRSS 1
ĠCarlo 1
Ġpumpkin 1
Ġsto 1
Ġassumes 1
oway 1
hiba 1
lection 1
Ġgam 1
ĠAires 1
Ġtransmitted 1
Ġtrousers 1
Ġcheers 1
ĠJensen 1
Ġemer 1
Ġsimpler 1
Ġcolored 1
ĠSustainable 1
Ġinstruct 1
Ġpoles 1
Ġsupervised 1
Ġinteg 1
ĠMoreno 1
boarding 1
igrant 1
ĠYoga 1
Ġenvironmentally 1
Ġsacrifices 1
Ġshores 1
Ġ127 1
Ġestranged 1
Ġintoxicated 1
Ġemergencies 1
ĠKosovo 1
yang 1
Ġfastball 1
Ġpackaged 1
LAN 1
Ġhurry 1
ĠManny 1
Ġporch 1
Ġcuriosity 1
ĠKend 1
thouse 1
ĠTou 1
mun 1
Ġwaving 1
Ġpasswords 1
ĠSwan 1
Ġprefers 1
ĠCorrections 1
aic 1
Ġejected 1
Ġdossier 1
ĠChal 1
Ġfacto 1
Ġspine 1
leck 1
Ġrestriction 1
Ġdisagreement 1
grown 1
ĠEdgar 1
Ġquantities 1
ĠRapid 1
Ġpals 1
Ġspared 1
Ġremarkably 1
ructure 1
Ġbackers 1
ĠGoals 1
cles 1
rolling 1
ĠBlasio 1
Ġorchestra 1
ologies 1
ĠRise 1
Power 1
Ġuptick 1
atha 1
ĠMob 1
Ġshotgun 1
downs 1
ĠBorg 1
Ġmorale 1
Call 1
wave 1
ĠDuc 1
Ġunwilling 1
oad 1
Ġbusinessmen 1
Ġrefriger 1
Ġgamers 1
Ġcele 1
Ġprecip 1
Ġrenegoti 1
OY 1
ĠPharm 1
Ġresponsive 1
Ġservant 1
eye 1
Ġraping 1
vas 1
Ġgroin 1
ĠMelvin 1
ĠKurds 1
Ġstricter 1
ĠMum 1
ients 1
Ġstandalone 1
Ġforums 1
Ġcommemorate 1
Far 1
ĠTelegram 1
Ġscreenings 1
ĠLeonardo 1
ighton 1
ĠDOWN 1
Ġmodule 1
Ġremedy 1
Ġ280 1
Su 1
ĠBecker 1
ĠGast 1
prem 1
ĠInto 1
oyle 1
114 1
Ġadhere 1
Report 1
ĠJaneiro 1
ĠKry 1
Pakistan 1
Ġrobotic 1
ande 1
Ġoverlooking 1
ĠTreaty 1
Ġrect 1
yne 1
Ġbattlefield 1
ĠGeoff 1
Ġearns 1
ĠMiner 1
Ġteased 1
Ġexemptions 1
Ġvacancy 1
oku 1
Ġvulnerabilities 1
ĠRou 1
Ġobserv 1
Ġoverlook 1
Ġcorrespond 1
Ġtheatrical 1
Ġrobotics 1
ĠCompl 1
ĠPasadena 1
laden 1
Ġvastly 1
olit 1
Ġjustification 1
Ġtampering 1
ĠSutherland 1
ĠMens 1
Ġinvisible 1
uren 1
ĠAshton 1
owl 1
Ġdisqual 1
ĠEva 1
Ġfriction 1
ĠIrvine 1
Ġaliens 1
ĠPension 1
ĠAssets 1
ĠBenedict 1
ittal 1
Ġsword 1
Ġunderwear 1
ĠFarmer 1
Ġtimber 1
Ġdependence 1
ĠTang 1
Ġ165 1
ĠNazis 1
Ġpunching 1
ĠGloria 1
usat 1
Ġluxurious 1
chuk 1
ĠCot 1
Ġregained 1
Ġreassure 1
Ġhello 1
Ġante 1
Ġnegotiators 1
Add 1
paced 1
Ã©r 1
Ġdemolished 1
Ann 1
joy 1
ĠJenna 1
Apple 1
Ġdisturbance 1
Ġcommissions 1
ĠPolitico 1
along 1
Ġnem 1
Ġauctions 1
ruck 1
ĠOD 1
ofer 1
Play 1
Ġcarn 1
vez 1
Ġtents 1
Ġcongratulate 1
ĠLiquid 1
ĠCoyotes 1
uku 1
ĠAllah 1
Ġbend 1
Ġcanvas 1
ĠClifford 1
Ġvolunteered 1
Luc 1
bp 1
ĠCensus 1
ĠShot 1
Ġanonymously 1
ĠAnglo 1
ĠBayer 1
ĠAber 1
ĠCorrectional 1
Ġhardship 1
ĠBuenos 1
ĠDaw 1
Ġbaskets 1
Ġupstairs 1
Ġmindful 1
ĠLCD 1
ĠBlackburn 1
ĠHale 1
477 1
Ġcircus 1
ĠDragons 1
Ġrubble 1
rb 1
Ġheadaches 1
aunt 1
itus 1
Ġscaled 1
ĠComic 1
asio 1
ĠNordic 1
Per 1
Ġbombers 1
ilitation 1
Ġindirectly 1
ĠHod 1
andan 1
operation 1
Ġpuppy 1
ĠMats 1
Ġstewards 1
roup 1
Ġmemorandum 1
Ġpatio 1
const 1
ĠBold 1
ĠKaiser 1
Following 1
Ġcompat 1
Ġsidewalks 1
ĠFitzpatrick 1
Ġsunlight 1
ĠLever 1
ĠBecky 1
icles 1
ĠProbably 1
Ġgarner 1
ĠTomas 1
Ġblankets 1
uga 1
jiang 1
Ġrevel 1
ĠHutch 1
llers 1
Ġtrimmed 1
ĠSTR 1
ĠKR 1
ĠPike 1
ĠASS 1
Bay 1
Ġdiagnostic 1
ĠSteph 1
Ġtoured 1
ĠAvoid 1
vic 1
Without 1
ĠClinical 1
Ġblo 1
undo 1
ĠBoise 1
Ġspeculated 1
ĠProt 1
vention 1
Ġscholar 1
ĠSta 1
Featured 1
ĠPrev 1
Ġpenny 1
ĠHath 1
rawn 1
Ġrenovated 1
ĠFried 1
itol 1
uddle 1
Ġinquest 1
Ġmetropolitan 1
lights 1
Ġtempo 1
onom 1
ĠImport 1
Asia 1
Ġowes 1
Ġmagistrate 1
ĠFriedman 1
Ġcontacting 1
Ġstrains 1
Ġhomage 1
Ġlent 1
ception 1
git 1
Ġlively 1
Ġscra 1
WW 1
Ã¶n 1
rill 1
Jack 1
ĠShank 1
iani 1
Ġdecreasing 1
MON 1
ĠSupervisor 1
ĠCats 1
ĠFusion 1
Ġracially 1
ĠTara 1
ĠPurchase 1
ĠRally 1
ĠGraph 1
ĠHello 1
hest 1
ĠVarg 1
Ġdrowned 1
ĠThu 1
ĠWet 1
ĠEug 1
Ġrainbow 1
Ġtelev 1
ĠAmir 1
Based 1
Ġcookie 1
uding 1
Ġcontracting 1
Ġobjected 1
Ġfork 1
acent 1
ĠTil 1
ĠLilly 1
ĠEur 1
Ġhormone 1
Ġnails 1
ĠFischer 1
Ġpier 1
EMENT 1
Ġeruption 1
visory 1
Ġspeculate 1
apan 1
ĠJub 1
ĠHuckabee 1
string 1
stay 1
Ġsustaining 1
VM 1
Ġpriv 1
Ġclos 1
Ġdownloaded 1
ĠIv 1
Ġfinanced 1
ĠSao 1
ĠEverett 1
rene 1
ĠWo 1
ĠPiet 1
Ġengulfed 1
Ġexiting 1
uni 1
horn 1
Ġgrav 1
ection 1
Ġdrainage 1
Ġfuelled 1
Ġorganizational 1
bike 1
ĠAreas 1
Ġpoliceman 1
ĠFirm 1
ĠSlide 1
Ġrand 1
ĠJedi 1
Ge 1
really 1
Manchester 1
ĠWise 1
parent 1
Ġlad 1
Ġurine 1
ĠColombian 1
geon 1
Ġ1961 1
Mania 1
Ġgraph 1
Ġcod 1
fred 1
Ġeffic 1
ĠGateway 1
asket 1
Ġdiminished 1
Mass 1
Ġ205 1
Long 1
Ġgranddaughter 1
Ġshining 1
Semitic 1
Ġarising 1
Ġ330 1
ĠDU 1
ĠZah 1
Ġexclusion 1
ĠClaus 1
Ġven 1
oine 1
ĠAPI 1
reve 1
Ġmilitias 1
Ġfro 1
Ġwaved 1
ĠLuxembourg 1
Ġdiamonds 1
Ġstabilize 1
Ġqueue 1
ĠSponsor 1
Ġeldest 1
ĠLud 1
Ġwasting 1
Ġdimension 1
Ġmotorcycles 1
ucker 1
ĠTav 1
Ġsupremacy 1
Take 1
ĠCPU 1
cup 1
Ġdisregard 1
Ġenvelope 1
ĠCah 1
Ġproposes 1
ĠMaurice 1
Ġhobby 1
Ġharmon 1
Ġribbon 1
ĠOrigin 1
Ġbuilders 1
Ġconj 1
Ġcert 1
eat 1
ĠStern 1
ulia 1
vals 1
cling 1
Ġprovocative 1
Ġsofter 1
Ġ1948 1
Ġremod 1
ĠSob 1
Ġmaxim 1
Ġblueprint 1
oit 1
ĠGarner 1
Ġfibre 1
search 1
ĠWrite 1
270 1
Ġclergy 1
ĠPalo 1
obile 1
Mad 1
Ġclown 1
Ġtraced 1
280 1
ĠAlberto 1
Ġdrums 1
ĠFridays 1
ĠStrat 1
stated 1
ĠStevenson 1
Pr 1
Ġboasted 1
ĠBrees 1
ĠDonn 1
ĠMaya 1
Ġrelieve 1
Ġ1080 1
Ġcheapest 1
Ġuniquely 1
Ġjungle 1
Ġprevalence 1
Ġoutfield 1
ĠMaps 1
Ġaccustomed 1
pac 1
Ġcombinations 1
ĠSoros 1
stad 1
Ġket 1
Ġdisgusting 1
ĠOFF 1
irs 1
Ġbiased 1
Ġpaved 1
iked 1
utterstock 1
ocal 1
Ġsurround 1
ĠGuang 1
Ġspear 1
ĠBellev 1
ortun 1
Rec 1
acho 1
Ġfrightening 1
Ġtyres 1
normal 1
ĠYan 1
ĠWarsaw 1
ĠBod 1
ourse 1
199 1
Ver 1
erent 1
Ġsparkling 1
Ġchanting 1
Ġ1945 1
Ġturbo 1
Ġhazards 1
IRE 1
ĠRonnie 1
Ġsplitting 1
ĠMatte 1
roph 1
Ġtended 1
Ġvandalism 1
alis 1
SY 1
Ġoversaw 1
Happy 1
ĠTC 1
275 1
Ġeco 1
ĠKers 1
Ġextensions 1
ĠFlan 1
ĠCena 1
ĠDowns 1
Ġdrummer 1
Ġawaited 1
ĠACL 1
Ġlegends 1
ĠRollins 1
hend 1
Ġdeparting 1
Ġtha 1
Ġunre 1
.( 1
Ġfaded 1
Ġretirees 1
vid 1
Ġentrants 1
ĠStella 1
arer 1
Ġteaspoon 1
ĠSheridan 1
irc 1
ĠRelief 1
ĠButt 1
Ġris 1
Ġundermined 1
Ġsunk 1
Sam 1
kamp 1
riot 1
rating 1
Ġclubhouse 1
Ġpeaked 1
ĠSki 1
Ġairstrikes 1
Ġconce 1
ĠCPR 1
Ġesp 1
ĠWave 1
ĠColiseum 1
outheastern 1
Ġtrou 1
Ġfeather 1
ĠSoy 1
ĠBihar 1
Ġintervened 1
mits 1
colored 1
330 1
Ġprocession 1
apeake 1
itÃ© 1
riel 1
Ġmart 1
afer 1
ĠGuests 1
ĠPie 1
Ġshiny 1
ĠSixers 1
ĠRoads 1
Ġkicker 1
ĠCrimes 1
Ġfrontier 1
ansen 1
November 1
smith 1
ĠLaun 1
fried 1
weet 1
ĠGrass 1
Ġsanitation 1
ĠEat 1
ĠParts 1
ĠTun 1
amar 1
ĠJupiter 1
ĠFS 1
Ġunsc 1
ĠDone 1
Ġleveraging 1
Ġtucked 1
Ġineffective 1
Ġriots 1
wei 1
ĠAttend 1
Ġpertaining 1
amen 1
monds 1
Ġmism 1
serious 1
ĠViol 1
rous 1
Ġ129 1
uebl 1
umption 1
tri 1
ĠWedding 1
Ġtroopers 1
ĠTHR 1
olving 1
leys 1
Med 1
Ġseparatists 1
Ġimper 1
ĠFrontier 1
Ġwhit 1
ĠMutual 1
Ġrested 1
Ġunhealthy 1
gang 1
Ġresearching 1
ĠColonel 1
Ġaffordability 1
ĠRegarding 1
ĠWend 1
ĠMellon 1
Ġplots 1
Ġcanal 1
PER 1
ĠShopping 1
etry 1
[...]
