N E 300882185
L I 277733180
NE W 271629796
i n 271272855
N E</w> 246675646
LI NE</w> 245928843
e r 220077548
NEW _ 208868061
r e 208280214
NEW_ LINE</w> 183044337
a t 177864637
o n 162534538
s t 155677915
e n 138020213
l a 131695683
e t 116145639
a l 114608829
o r 112132562
t i 106342326
e r</w> 93148757
s s 91714526
u r 90137197
r o 88413630
t h 85993719
e c 85201219
a r 84313911
a n 80771278
u n 76743779
t e 74827315
l e 73578734
l o 71905613
t r 71722150
o n</w> 71599893
S T 70992329
a m 68720583
a c 65361557
in g</w> 64856535
ST R 63892349
l i 63770283
NEW LINE</w> 62702379
STR NEWLINE</w> 62692907
a v 60354868
% c 59386819
i f</w> 57014218
d e 56735558
s t</w> 56248547
0 x 55492973
s e</w> 55107295
la ss 52359039
t ur 51646966
j av 51607903
c o 50702229
e l 50314612
i t 49282340
m p 48885100
re tur 48409757
a d 47242681
retur n</w> 47178252
jav a 46993138
R e 46734166
I n 45486107
c e 44285623
y p 43963397
u l 43839132
E N 43105227
C O 43060676
java _ 43005782
at i 42605248
r i 42081648
%c lass 41851314
g _ 41449008
%class . 40885572
o r</w> 40673663
: :</w> 40516317
f i 40038626
/ /</w> 39953345
S tr 39375929
p u 39277366
c on 38703841
st r 37839521
a g 37458892
s i 37229974
in t 37062810
l e</w> 36982250
EN D 36586374
g et 36314839
la n 36198835
CO M</w> 36037334
END COM</w> 36008803
th e</w> 34773909
a p 34644793
s e 34553235
- ></w> 33665968
n e 33483339
t _ 32702571
q u 32697795
yp e</w> 32237263
C o 31919690
c h 31878460
lan g_ 31326826
am e</w> 30968175
C on 30937697
i d</w> 30824560
in g 30372059
S t 30205649
i s</w> 30171252
d e</w> 30120157
a l</w> 29955297
e x 28086413
er r</w> 27970428
u e</w> 27695339
en t 27643056
ti on</w> 27475795
u t 27363664
at e 27258091
0 0 27113510
en t</w> 27026238
i c 26775210
%class. java_ 26592049
\ x 26527468
i l</w> 26458620
: =</w> 26095527
LI NE 26058096
in t</w> 25865131
a b 25792913
NEW_ LINE 25770704
s p 25334418
at e</w> 24841678
o o 24408543
m e 24331510
ti on 24061872
m a 23501557
i n</w> 22974441
o p 22744862
* ,</w> 22401860
r a 22375510
E x 22254829
t o</w> 22080309
d i 22046392
i l 22005400
n o 21993364
g e 21901471
o l 21808772
e s</w> 20711967
Str ing</w> 20634457
or t</w> 20405476
v o 20303419
s h 20186784
i mp 20180713
j ec 19889386
c a 19772036
n il</w> 19511482
o u 19439642
b li 19328546
str ing</w> 19282886
f un 19277389
b u 19078218
t ype</w> 18805146
L i 18668554
u m 18667808
f f 18575678
v er 18494300
re s 18379891
! =</w> 18273378
qu e 18268073
bli c</w> 17804823
e d</w> 17691242
vo id</w> 17644349
T A 17614843
i d 17571728
p ro 17476282
_ 1 17184461
f or</w> 17156392
t a 17059737
A r 17050305
v al 17029543
e d 16979407
fun c</w> 16923827
%class.java_ lang_ 16916224
c al 16704309
pu blic</w> 16695077
D e 16648486
c e</w> 16640975
b jec 16631456
p o 16589923
t o 16516035
i g 16235853
b b 16175416
ro r</w> 16004291
ati on</w> 15970879
F i 15920551
B O 15886680
N ame</w> 15861780
s et 15846909
t er 15816819
E r 15812182
th is</w> 15781932
= =</w> 15447027
3 2</w> 15356741
ag e</w> 15270603
P ro 15086631
TA B 14942567
k e 14878267
imp ort</w> 14873950
S Y 14852461
u p 14793115
ne w</w> 14739541
m o 14732400
o f</w> 14522208
s er 14460823
E n 14420975
m _ 14356910
Str ing 14326363
ati on 14247351
f in 14215237
SY M 14126909
SYM BO 14098232
SYMBO L</w> 14077151
TAB SYMBOL</w> 14063467
te x 14039137
1 6 13889994
ce p 13877518
v i 13481684
an d 13477350
s s</w> 13394155
p ar 13293320
T ype</w> 13120813
N o 13103130
O bjec 13086435
i t</w> 13062371
L o 13053472
l u 13034337
en d 12900115
at a</w> 12741498
a r</w> 12684713
a t</w> 12653241
i s 12541385
i z 12519728
G et 12443919
i m 12428002
b e 12407299
re a 12405817
t y 12385646
lo c 12262200
V al 12248220
C h 12238051
al l 12225891
n ul 12216137
3 2 12197992
P o 12137733
u c 12084024
Ar ra 12080995
o ur 12039977
p er 11952750
T h 11601041
a w 11430119
f ac 11416344
n ame</w> 11369345
/ *</w> 11331843
* /</w> 11286894
v e 11216027
d o 11174243
% bb 11119882
g lo 11098337
M a 11068547
s c 10966147
d v 10928446
ul t</w> 10925173
Ex cep 10900669
con st</w> 10821760
S e 10789239
ac k 10713917
I N 10633796
h o 10569638
int er 10491932
b oo 10476601
d s</w> 10459387
an d</w> 10447394
p re 10397049
t y</w> 10354168
a n</w> 10347796
tex t</w> 10279353
E R 10263117
P ar 10219799
ad d 10215402
a s 10122491
ac h 10120796
6 4</w> 9987386
t s</w> 9958129
te d</w> 9920337
T e 9917755
S er 9837352
u ti 9826859
d er</w> 9816150
a ss 9809044
Arra y 9713532
f a 9678473
al se</w> 9562994
ag e 9556052
ou t</w> 9549504
f or 9517544
si z 9497540
M o 9478154
el se</w> 9444815
U n 9419066
ti me 9370288
i th 9366829
Re s 9359909
am e 9285266
tr ue</w> 9282212
T o 9264166
f alse</w> 9229881
er ror</w> 9226353
c h</w> 9195522
m ent 9189397
r un 9137509
ap p 9130337
re n 9122029
i 8 9117664
at h</w> 9053091
T _ 9031494
p t 9025734
A c 9018103
. java_ 9001146
B u 8945030
S p 8940226
t t 8914542
m e</w> 8872906
16 ,</w> 8825910
ca se</w> 8757392
P ol 8748443
ab le 8732046
E _ 8704805
i 16,</w> 8697188
li c 8679152
nul l</w> 8656553
Pol y 8487848
M e 8484010
pu t</w> 8456590
m m 8415770
st ati 8402317
ec t 8384224
aw t_ 8373944
s el 8362365
at u 8361923
Poly glo 8221868
Polyglo t_ 8221174
i 32</w> 8186536
A d 8117719
Li st</w> 8091486
@ Polyglot_ 8088830
lo ad 8082328
I d</w> 8067996
ab le</w> 8055437
ge t</w> 7980610
u b 7974579
r an 7948502
Li st 7931178
%class.java_lang_ String 7897173
Co mp 7891097
la ss</w> 7890297
O p 7866912
NEW_LINE NEW_LINE 7855295
o un 7844785
D i 7839000
f o</w> 7821268
p ri 7818176
S et 7776840
val ue</w> 7751734
st an 7745030
or g</w> 7739969
1 0 7669566
_ ty 7667660
ta in 7665633
e w 7657220
l _ 7640001
dv _ty 7624289
Er r 7620826
m et 7614072
R E 7539715
c lu 7505537
ss i 7496271
stati c</w> 7485505
r int 7477142
co m</w> 7467794
en er 7433721
%c dv_ty 7382150
en d</w> 7367967
w or 7365042
K e 7326390
inter fac 7323096
T I 7308889
A N 7296144
l in 7241192
te st 7232427
que st</w> 7220204
I D</w> 7218073
li ent</w> 7150600
Excep tion</w> 7145355
b y 7143123
er s</w> 7142639
t h</w> 7141270
a d</w> 7135126
or e</w> 7134994
Objec t 7096125
str uc 7089371
A R 7069253
sp on 7054843
in g_ 7044330
fin al</w> 7041171
se t</w> 7014377
c t 6985619
tion s</w> 6958289
d ata</w> 6934633
l l 6911419
0x 0 6883261
de x</w> 6878478
m ent</w> 6839672
_ _ 6823808
si on</w> 6807713
c re 6786933
Val ue</w> 6782405
v e</w> 6770968
M et 6755284
sc ri 6716638
time _ 6710831
op a 6697227
u e 6682988
g e</w> 6670450
Er ror</w> 6655041
opa que 6646647
e n</w> 6638508
& &</w> 6626392
Con fi 6618344
siz e</w> 6599441
i te 6588882
ass er 6566083
C lass 6564549
\ n</w> 6544572
ex p 6531554
g i 6523930
a s</w> 6516195
run time_ 6497320
t er</w> 6473633
_1 0 6456530
v ate</w> 6449716
r it 6447227
g s</w> 6388808
j lang_ 6358437
jlang_ runtime_ 6358435
co de</w> 6316982
< <</w> 6307990
ic en 6302848
yp e 6297553
L icen 6293656
w it 6291873
la y 6277048
u int 6259806
un t</w> 6232451
F or 6201285
our ce 6198518
boo l</w> 6191245
pri vate</w> 6180792
b o 6179389
t e</w> 6159804
%c all 6156989
no t</w> 6156118
0x 6 6140988
s on</w> 6124619
1 2 6118065
+ +</w> 6094910
c ur 6076625
or y</w> 6064486
o c 6004478
h t</w> 5923919
s _ 5916834
h tt 5909699
opaque NEW_LINE 5871727
sel f</w> 5853743
A n 5848158
Ma p</w> 5835458
a st 5831035
O ut 5809084
in clu 5804699
V i 5801100
la be 5799999
m at 5796512
o ut 5791082
w h 5785254
labe l</w> 5782593
Fi el 5772330
fi le</w> 5740148
b e</w> 5730567
% ge 5724832
i o 5675901
cal l</w> 5666057
ro w 5654481
1 1 5649300
ec t</w> 5630464
le t</w> 5597310
pu t 5589865
b le</w> 5577919
e v 5561351
Licen se</w> 5558502
at a 5534416
on e</w> 5526185
c lass</w> 5515297
o m 5514219
at or</w> 5510303
ex t 5492538
en g 5464868
re ad 5462136
0 . 5460514
E v 5458094
m t</w> 5435918
m u 5423072
ne w 5413966
a y 5413614
V er 5397592
C re 5385423
tr i 5378359
00 00 5376767
O R 5372918
@Polyglot_ java_ 5368367
i 32 5352086
A p 5339664
iz e</w> 5338795
ac t 5333733
d ec 5323463
ic e</w> 5319165
our ce</w> 5309464
B y 5295525
le n</w> 5260186
2 0 5252346
f lo 5241616
a se 5216374
U L 5215964
jlang_runtime_ Array 5210489
In fo</w> 5206125
inclu de</w> 5205588
re f 5198055
ach e</w> 5192170
co mp 5190571
ar e</w> 5170280
U R 5145153
I te 5130953
L O 5117269
pt r</w> 5110969
vi ce 5104357
st d</w> 5098994
A T 5098773
l y</w> 5094229
H e 5090290
v er</w> 5085836
Ad d 5077699
N ew 5073330
a m</w> 5072131
i f 5068720
Err or 5065631
Con text</w> 5060186
0x 7 5056468
s y 5028027
load . 5026186
res ult</w> 5012659
le ment 5000176
ma p</w> 5000101
j son</w> 4984033
spon se</w> 4978056
%cdv_ty .java_ 4977940
_ P 4973724
v ice</w> 4961487
Me ss 4960210
uti l_ 4953538
%ge p 4952209
R O 4951021
i p 4950407
Par am 4948605
u s 4939037
h e 4938997
tr y</w> 4933503
ti me</w> 4925045
S y 4917241
r e</w> 4914702
st e 4901130
l s</w> 4892736
%class.java_ awt_ 4884678
D E 4872656
% load. 4869424
ac k</w> 4862882
o b 4851183
a se</w> 4849159
* ) 4841228
e w</w> 4828354
d er 4825995
u se</w> 4821856
\ "</w> 4820314
ec ted</w> 4806375
i o</w> 4783156
St atu 4777353
b rea 4776652
# include</w> 4756150
te s</w> 4742116
f ro 4716570
Te st 4708216
interfac e 4690678
htt p</w> 4686880
u p</w> 4676072
p a 4672199
g o 4654510
brea k</w> 4636496
G ro 4636129
e c</w> 4626715
co p 4616740
) NEW_LINE</w> 4607642
struc t</w> 4607087
x _ 4593425
S I 4591851
ad er</w> 4583270
f mt</w> 4549883
jav a</w> 4545809
T ype 4545687
ac e</w> 4542714
ap i</w> 4540541
In ter 4529598
te d 4519970
Objec t</w> 4517449
Fi le 4513398
ul t 4509567
ec k 4502455
n am 4501160
Con t 4477919
D ata</w> 4405477
con t 4402249
L _ 4397965
ig n</w> 4379704
O N 4372165
Se t</w> 4366378
ur e</w> 4365960
ca st</w> 4365027
1 4 4362460
O ver 4332973
mp ty</w> 4317176
v ar</w> 4311283
A C 4296564
H and 4291643
%class. jlang_runtime_Array 4291572
lo ad</w> 4290669
b it 4282076
ta il</w> 4263930
lo cal 4262957
Re quest</w> 4261766
ce ss 4255746
l et 4236805
% interface 4220602
f n</w> 4208881
D _ 4198028
wit h</w> 4197974
Bu il 4193413
by te</w> 4185970
en ti 4181544
P ath</w> 4173808
k e</w> 4173176
Comp on 4172002
T im 4167884
al l</w> 4165649
re am 4164294
a ut 4157704
u m</w> 4157096
i8 *,</w> 4149574
st ar 4147795
loc k</w> 4145958
Con tain 4134046
oun d 4124983
_ c 4116373
0 ,</w> 4111754
U p 4102766
S ize</w> 4100004
A t 4095335
th at</w> 4075098
o re 4049952
g er</w> 4041872
al ign</w> 4033767
o f 4031926
T E 4030876
si on 4019179
c _ 4016054
T H 4005071
d ate 4003158
con fi 3993727
M an 3992869
I m 3988800
1 5 3982534
rea m</w> 3980429
A l 3973001
qu al 3961949
fi el 3954421
ing s</w> 3947364
T i 3941535
no t 3941337
de x 3940064
| |</w> 3938035
p ath</w> 3924089
ri g 3919311
M A 3914798
_ t</w> 3906548
S E 3897940
loc k 3892547
L in 3886996
or t 3885332
ke y</w> 3878942
on g</w> 3851376
c lient</w> 3850309
ri de</w> 3849542
te st</w> 3843449
cur ren 3837135
0x 2 3836318
m p</w> 3832778
sh o 3828516
Fi le</w> 3825845
Q u 3825785
m i 3822414
res s</w> 3802988
p ack 3796760
co mm 3791899
1 6</w> 3784350
%interface .java_ 3777309
uti l</w> 3769625
S _ 3768240
i32 ,</w> 3766141
m ar 3764263
ed _ 3763100
B o 3757452
fi le 3744464
i8 *</w> 3735709
i re 3726257
P re 3708095
um b 3703992
m s</w> 3699502
Excep tion 3678860
d _ 3678420
y _ 3673191
ct x</w> 3670095
si g 3661807
pu b</w> 3659476
Th e</w> 3652095
st r</w> 3645865
st er 3639370
%class.java_lang_String *</w> 3638711
In dex</w> 3636272
s it 3625430
%class.java_lang_ Object 3624882
par am</w> 3613117
met ho 3607130
S h 3603157
eng th</w> 3601000
6 4 3593986
%class.java_lang_ Class 3593183
s ec 3589851
I s 3588857
Re sponse</w> 3576233
S el 3574681
re c 3565256
st ri 3563471
in do 3552468
_ un 3551976
ssi on</w> 3531450
Ex p 3530078
L E 3528780
m b 3523111
er r 3516787
s w 3512383
Ke y 3511948
Bu ff 3509774
con text</w> 3505798
St ate</w> 3502049
Ke y</w> 3491441
ate d</w> 3489599
asser t 3488262
le an</w> 3475489
in d 3469632
u re 3465586
8 NEW_LINE</w> 3464458
O f 3463394
No de</w> 3452771
par am 3452219
fro m</w> 3443724
th row 3436099
Over ride</w> 3431942
nul l 3424052
en t_ 3421785
F I 3418483
St ream 3403739
@Polyglot_java_ lang_ 3393016
m in 3392149
Co mm 3389391
C H 3388765
i 64</w> 3388233
D ata 3381743
f o 3379872
c k 3378708
% a 3376397
2 5 3373483
W ith 3368459
ou ble</w> 3367700
it y</w> 3358419
Lo g 3358333
ne x 3350929
Pro per 3345637
S c 3342656
ch ar</w> 3342252
* *</w> 3334959
scri p 3331647
D ec 3330929
b y</w> 3324804
A L 3316328
pre ds</w> 3314476
NEW_LINENEW_LINE bb 3305419
1 0</w> 3303602
+ =</w> 3302520
ut e</w> 3300220
Ch an 3291888
in d</w> 3289426
1 ,</w> 3287593
A S 3287537
m s 3285348
ect or</w> 3284696
a f 3276949
a i 3269078
G _ 3254664
con tain 3252543
u b</w> 3249305
bu f</w> 3236489
mu t</w> 3225985
l er</w> 3223633
at ch 3220744
s up 3219058
de fa 3216966
u th 3215861
C lient</w> 3214568
G ener 3213790
g ro 3213088
Ti me 3205521
in dex</w> 3197332
u se 3194433
at ch</w> 3194244
f r 3189695
Man ag 3175998
1 7 3159225
No de 3158267
Confi g 3156422
P er 3150176
Confi g</w> 3149160
Ap p 3145593
%c ast 3144801
o w 3136151
T r 3134986
at h 3126945
R ec 3118945
Tim e</w> 3116570
a sh 3116433
A M 3112520
p rint 3105903
app end</w> 3102769
U N 3100923
%cdv_ty.java_ lang_ 3100549
sp ace</w> 3099594
ch e 3095242
lo g 3092446
re p 3091345
N O 3089349
am p 3082521
val id 3069599
g oo 3061309
pack age</w> 3060000
i fi 3053713
que st 3051900
de l</w> 3049031
A P 3048711
pro to 3048136
ri te 3042267
ran ge</w> 3041275
In stan 3038220
ol u 3037296
le d</w> 3033256
ig ht</w> 3028230
co unt</w> 3022932
cre ate 3019825
D I 3017913
or s</w> 3015810
T ran 2999802
N UL 2998386
_ 32 2986371
0x 4 2984153
bu il 2983937
. 0</w> 2983803
O n 2981837
Gro up 2962650
ch an 2960198
t w 2959977
s ub 2954628
u st 2953785
t ar 2951146
i 1</w> 2949513
ex t</w> 2949266
O r 2946699
In t 2946411
nam ed_ 2943614
Fiel d 2939252
o bjec 2938000
qual s</w> 2936654
F un 2935889
s k 2931971
o u</w> 2929209
_un named_ 2928749
_unnamed_ add 2928096
local _unnamed_add 2928063
tur e</w> 2925507
e t</w> 2920686
re s</w> 2914361
li st</w> 2912086
de fin 2912086
C _ 2911690
n et 2905816
ma t</w> 2904357
dec la 2902187
ec tion</w> 2902064
ref l 2893970
t r</w> 2891456
ro w</w> 2890077
g r 2887759
0x 1 2886157
A ss 2885019
NUL L</w> 2883512
ne d</w> 2879899
O N</w> 2877772
ad d</w> 2868198
Co l 2865684
_ 9 2865377
0 0</w> 2863449
Re p 2856755
d ouble</w> 2856418
al iz 2855040
ar g 2854018
ke n</w> 2847295
Res ult</w> 2846031
T R 2844162
e lement 2843125
Error f</w> 2841663
E C 2831962
ent s</w> 2824061
1 3 2823508
%class.jlang_runtime_Array *</w> 2817264
w rit 2813850
bit cast</w> 2810276
re quest</w> 2809713
0x 8 2805516
In dex 2804296
N ame 2799395
Re gi 2796967
b r</w> 2795521
CO N 2793200
n s</w> 2791642
le ment</w> 2790698
Mess age</w> 2787780
1 8 2774652
en ce</w> 2774529
U ti 2772215
L e 2770680
tr an 2770291
s er</w> 2769057
throw s</w> 2755391
no de</w> 2750830
er _ 2750767
me ss 2749290
S P 2744238
F ro 2739617
ation s</w> 2737869
re t</w> 2737022
g ener 2735252
co l 2732224
1 9 2731902
re e</w> 2726634
Res ource 2715221
W rit 2714405
yp es</w> 2712095
re q</w> 2711876
boo lean</w> 2707108
Met ho 2705356
goo g 2702363
i st 2699675
n al</w> 2697433
for m 2695950
Ver sion</w> 2684083
Lo c 2681464
g u 2671682
F r 2670874
Ser vice 2670100
ssi on 2664656
Sy ste 2662507
di stri 2649883
B e 2648374
I d 2642444
R et 2638468
S ec 2632537
el l 2630749
Th is</w> 2629963
de d</w> 2628775
O R</w> 2622684
decla re</w> 2621769
lo w 2615064
b ack</w> 2614585
u es</w> 2610919
siz e 2605566
0x 3 2594690
p h 2593837
ar i 2590858
Co de</w> 2589229
Co unt</w> 2588862
Te st</w> 2581812
Ser vice</w> 2581331
mp l 2579713
Statu s</w> 2575606
sp ec 2574060
w e 2569505
po sit 2566935
L ay 2566903
Co p 2565336
ver sion</w> 2556679
st ate</w> 2547458
u le 2546243
= ></w> 2545690
er y</w> 2540400
F il 2539345
un der</w> 2538718
Compon ent 2529181
h and 2523428
i c</w> 2523317
lin e</w> 2520502
Cre ate 2518402
li ent 2517124
ap ache</w> 2514802
2 ,</w> 2507136
n ame 2503608
e s 2502334
in fo</w> 2499289
W or 2499020
v al</w> 2497562
D el 2492762
%class.java_lang_String *,</w> 2486312
io _ 2485410
l ength</w> 2484804
g ith 2484120
M ap 2483944
Re ad 2483849
ul d</w> 2480541
m it 2478983
interfac e</w> 2474539
oun d</w> 2473610
fi l 2467022
St ream</w> 2463663
ec ted 2462921
d y</w> 2462712
a re 2460827
umb er</w> 2460242
qu ire 2457264
W indo 2456934
S E</w> 2455819
flo at</w> 2452077
c lo 2451052
rea d</w> 2448167
Ev ent</w> 2447463
1 "</w> 2446416
wor k 2445198
NEW_LINENEW_LINE declare</w> 2442737
Manag er</w> 2439294
wor k</w> 2438312
De fa 2433473
Ite m</w> 2432658
ur ation</w> 2432586
o s</w> 2429343
glo b 2427250
in stan 2427238
0x 5 2424975
p s</w> 2424295
ff set</w> 2422566
St ar 2422388
lay er</w> 2419455
lo g</w> 2418769
s r 2418168
In put 2406042
%cdv_ty . 2404210
No t 2401266
ch ar 2399215
il l</w> 2394848
f la 2393790
av e</w> 2383579
s un 2382993
d ate</w> 2376095
st er</w> 2374362
Param et 2369317
Arra y</w> 2367200
e l</w> 2367027
T ar 2364850
R un 2360605
o k</w> 2358097
rig ht</w> 2355749
ch eck 2351518
0x0 0</w> 2349250
java x_ 2344438
a il 2340991
bu ff 2338461
ro ll 2338391
b le 2336301
h as 2336261
ec k</w> 2334853
_10 1 2333364
ke y 2326288
confi g</w> 2316166
sun _ 2314854
Str ing_ 2311289
gith ub</w> 2304969
L ab 2302362
T Y 2301851
U ser 2300828
C lo 2299325
re gi 2298975
w e</w> 2296666
S ub 2292322
St ate 2292184
get element 2287291
getelement ptr</w> 2287164
C ur 2285047
G E 2281013
@ _ 2279604
ar d 2277018
Vi ew</w> 2275575
f er 2272329
O per 2266705
T ext 2265393
ca n</w> 2254675
ut t 2253739
id th</w> 2253579
Val ue 2241948
Con n 2237308
In te 2236587
I D 2233794
c tion</w> 2231168
in put</w> 2229939
At tri 2225842
g in</w> 2224230
m ap 2222553
Del et 2221567
Contain er 2216680
con n 2212958
Tran s 2210505
co un 2209858
v 1</w> 2207501
distri bu 2206475
lo r</w> 2206308
Buil der</w> 2201903
P u 2201750
opaqueNEW_LINE %class. 2200478
m d</w> 2198144
er e</w> 2196754
s o 2191970
N ul 2190641
h t 2185826
po int 2184482
of tw 2178481
ke t</w> 2176730
om ite 2173233
omite mpty</w> 2172790
L A 2172048
Ev ent 2168068
F la 2166922
i ti 2163772
re mo 2157626
si tion</w> 2155787
} NEW_LINE 2152654
%cdv_ty.java_lang_ String 2151670
%interface.java_ util_ 2144826
Up date 2142766
o p</w> 2141101
F act 2141081
ul e</w> 2137195
c lass 2135642
oftw are</w> 2135604
x x 2127325
defa ult</w> 2127116
co de 2118756
re e 2116845
asser t</w> 2112631
ar gs</w> 2109656
R o 2107560
g in 2106667
get _ 2104895
at ure</w> 2087254
P _ 2086050
glob al</w> 2085656
De scri 2081566
ce ss</w> 2076554
Ch eck 2070735
f f</w> 2068659
fi c 2066867
\ u 2064361
re ss 2061048
Po int 2056903
ex ter 2056892
1 . 2056877
D o 2053713
p ort</w> 2050473
o th 2049611
O F</w> 2046853
*) *,</w> 2043534
ti es</w> 2042914
Statu s 2040309
not ation 2040222
n er</w> 2038411
olu me 2038101
l ong</w> 2027363
. .</w> 2026700
B oo 2024621
> =</w> 2023833
T ext</w> 2018881
re ct 2018706
it y 2018033
B ound 2017058
m an 2016939
M _ 2016037
lin k</w> 2014769
f t</w> 2012112
y y 2011876
_ 4 2006321
Fro m 2005000
2 4 2004774
no de 2003665
st ore</w> 1998840
s on 1997785
by tes</w> 1995510
d E 1991438
H o 1989707
E X 1985584
li st 1983658
st atu 1979825
v id 1978561
( %class.java_awt_ 1977777
ig n 1975482
C lass</w> 1975183
K _ 1974924
%class.java_lang_Class *</w> 1973969
fi r 1972237
B U 1968534
c le 1965768
ec t_ 1960235
TI ON 1957545
F F 1950982
e _ 1949476
T O 1949183
sy n 1948194
sw ing_ 1941119
\x 0 1941055
javax_ swing_ 1939834
m l</w> 1936706
exp ected</w> 1934645
E L 1932222
it er 1931274
ite m</w> 1930517
de f 1928407
Sp ec</w> 1920604
i 1,</w> 1920503
Im age 1918717
ec tion 1918060
s k</w> 1917601
ER _ 1913250
de let 1912781
ra w 1911825
r ap 1911492
test ing</w> 1910505
O U 1909118
en er</w> 1908847
n um 1904246
ma ke</w> 1903579
m y 1901446
( %class. 1899732
Op tions</w> 1898499
ve l</w> 1897371
% " 1896006
ac tion</w> 1895087
ar y</w> 1893589
B ase 1892884
L java_ 1888955
I mp 1886257
rint f</w> 1884921
* NEW_LINE</w> 1883727
u d 1883072
e q</w> 1882108
J S 1880215
w ill</w> 1876594
W e 1875492
M P 1872289
ma y</w> 1872281
Hand ler</w> 1868030
tex t 1866869
fiel d</w> 1865298
scrip tion</w> 1864905
objec t</w> 1863469
or y 1862594
sig ned</w> 1862071
er t</w> 1859261
tran s 1857547
ar ch 1856647
R I 1856010
it s</w> 1855589
B lock 1854761
f e 1853459
en ce 1851984
i le</w> 1850377
al o 1845325
star t</w> 1843068
po int</w> 1838252
Mess age 1838089
Re quest 1835562
A D 1833614
ren t</w> 1832341
0x 9 1828477
er y 1828281
H ash 1827853
s q 1822749
M ar 1818853
X _ 1818617
C all 1817773
i v 1815458
n ing</w> 1814106
In put</w> 1811404
I O 1808309
b ute</w> 1807248
3 4 1805905
se s</w> 1804638
E quals</w> 1804030
i li 1801894
T o</w> 1799491
curren t 1798771
W AR 1796317
D oc 1796219
S end 1795049
la st 1793953
M E 1793480
ar d</w> 1792442
u n</w> 1791274
c s</w> 1789461
for m</w> 1783706
%load. dv 1780927
refl ect_ 1777774
an t</w> 1777665
s h</w> 1775482
u t</w> 1774550
g o</w> 1773173
uint 32</w> 1772765
\x 8 1771063
ff ff 1768773
P ri 1768677
S che 1764966
w ith 1764743
T T 1762956
ect or 1762683
F at 1761265
TY P 1757877
%cast . 1756597
a st</w> 1756441
mess age</w> 1753310
tar get</w> 1752687
En d 1751020
c ore</w> 1746816
str ing_ 1746109
i N 1745501
Bound s 1743405
D is 1743327
Buff er</w> 1742955
Cop y 1742218
u ser 1739890
Ite m 1737993
Ret ur 1735793
S ER 1734378
distribu ted</w> 1730753
metho d</w> 1729929
_c lass 1728565
ms g</w> 1726506
cop y</w> 1725435
i r 1725133
ST _ 1723882
He ader</w> 1723395
ma x 1723346
y ou</w> 1722059
S ource</w> 1721539
defin e</w> 1720975
po s</w> 1720922
un signed</w> 1720186
sun_ reflect_ 1719764
W I 1717679
Out put 1717057
\x 9 1716499
s wit 1714713
th row</w> 1714155
fi x</w> 1712635
n o</w> 1711782
a uth 1709625
ne t</w> 1705982
d b</w> 1704512
spec ifi 1704230
e p 1701449
aut ore 1698410
lic en 1691693
star t 1690481
Y _ 1690421
Po lic 1688688
2 2 1687835
w a 1687654
l at 1685135
ser ver</w> 1684708
dE x</w> 1684645
L E</w> 1684625
iN dEx</w> 1682747
g er 1681728
m a</w> 1681309
ren t 1680547
c r 1679027
3 3 1678998
c an 1678938
In t</w> 1678870
autore st</w> 1676960
M I 1670604
b ack 1670222
re f</w> 1668337
- 1</w> 1668079
En try</w> 1666162
G N 1663349
An d 1660496
p k 1659931
1 2</w> 1659720
to _ 1657131
buff er</w> 1656762
C lient 1654722
or d 1653957
us er</w> 1653221
Chan ge 1652703
ma in</w> 1652554
Out Of 1650920
n al 1650339
sho uld</w> 1650285
u s</w> 1646467
ul ti 1645384
ex cep 1645373
R an 1645356
%cdv_ty.java_lang_String *,</w> 1644106
ob j</w> 1643201
h ave</w> 1641473
. ..</w> 1640303
P O 1638189
th e 1637206
Co ll 1636471
se d</w> 1636314
N et 1633806
T as 1630606
de f</w> 1628451
S H 1627030
P a 1626040
Out put</w> 1625971
Windo w 1625380
b in 1623311
sec on 1622571
at or 1622320
E lement</w> 1621049
local_unnamed_add r</w> 1620275
%class.java_ util_ 1619296
H el 1618356
Ar g 1613268
Re mo 1611170
t ypes</w> 1609959
1 _ 1609431
el l</w> 1609418
s c</w> 1609322
c p 1608798
V olume 1607922
6 5 1606549
Ch ar 1606158
_1 16 1605099
d ata 1604984
Fact ory</w> 1603281
ev ent</w> 1601985
9 9 1600833
int 64</w> 1598159
de l 1597946
p er</w> 1597678
M O 1597036
um ent 1593914
H as 1593816
OutOf Bounds 1591128
op er 1589363
Index OutOfBounds 1589028
val id</w> 1587915
li t_ 1587513
statu s</w> 1585685
re quire 1584108
2 .0</w> 1583706
Ac ti 1583425
able d</w> 1582139
G et</w> 1579594
swit ch</w> 1579563
l y 1578765
t ype 1578374
IN G</w> 1578153
un w 1576917
oo l 1572577
_ p 1572211
Inter fac 1571015
goog le</w> 1568600
imp l</w> 1566349
Fiel d</w> 1566168
Defa ult 1566033
Param s</w> 1565156
c l 1562244
Val id 1561307
n on 1560877
E d 1559484
@_ string_ 1559392
IndexOutOfBounds Exception 1558764
( %class.java_lang_Object 1557665
res ource 1557584
F lo 1557362
c atch</w> 1556784
I f</w> 1556598
C all</w> 1556310
k en 1556296
Ex ec 1555433
1 00 1555290
Array IndexOutOfBoundsException 1550201
if t</w> 1549444
3 0 1547034
Lo cal 1546061
B utt 1544190
qu al</w> 1543329
\x e 1543167
S o 1542431
in e 1542114
el s</w> 1538953
Sc ri 1538810
Buff er 1538572
on ly</w> 1535886
le g 1532912
Ac tion</w> 1531723
bu g</w> 1531148
E R</w> 1529821
l n</w> 1527213
mo del</w> 1527079
no w 1526690
i p</w> 1526571
oth er</w> 1526398
Gro up</w> 1525960
t ings</w> 1524678
ro id</w> 1523546
List ener</w> 1520192
Instan ce 1517719
w rite 1517276
@_string_ lit_ 1515615
\x d 1513595
param s</w> 1513406
pro per 1512913
res p</w> 1509474
s u 1508777
a _ 1507488
name space</w> 1505774
ar ra 1504383
0x f 1503666
mat ch</w> 1500600
( {</w> 1499097
Q U 1498172
str ings</w> 1497049
Ser ver 1496216
Mo de</w> 1496112
1 1</w> 1495218
En ti 1492315
R AN 1492018
\x f 1491503
To ken</w> 1491248
wh ile</w> 1491205
Syste m</w> 1490652
S T</w> 1490516
r t 1487037
_P rint 1486883
in e</w> 1486808
ate g 1484125
uint 64</w> 1484034
T able 1483659
cont in 1483038
\x b 1482484
A L</w> 1481554
T Y</w> 1481382
Vi ew 1479438
ro o 1478529
en sion 1478423
_9 7 1476766
Er r</w> 1475242
0x c 1472218
T a 1471510
mpl ate</w> 1471309
io _Print 1469635
I ter 1469361
st ream</w> 1468528
In fo 1467834
pro t 1466594
out put</w> 1465542
A uth 1465281
use d</w> 1461695
i x 1460407
val ues</w> 1457745
nex t</w> 1457329
il d 1457180
ev ent_ 1457100
val ue 1449904
pro to</w> 1448178
d at 1447583
metho d 1445016
By te 1443282
u al 1443190
K E 1442729
ac e 1442606
i aliz 1440949
m l 1440439
\x c 1440297
g l 1438595
I P 1437421
for mat</w> 1435377
C E 1434686
O b 1434614
ad er 1434543
c x</w> 1433607
UR L</w> 1432251
g ra 1432082
up date 1430576
Ma x 1429388
um ent</w> 1426234
lan g</w> 1424998
Op tion</w> 1424614
Re posit 1417127
o ffset</w> 1416056
d et 1416009
} *</w> 1414606
2 3 1411835
0x b 1411294
fr ame 1411148
jec t</w> 1410264
_1 11 1409551
b lock</w> 1409431
s ource</w> 1409233
m on 1408450
Mo del</w> 1407706
ch eck</w> 1406715
w w 1403728
00 0 1402495
pu sh 1401646
re sponse</w> 1399913
A b 1398948
S k 1393539
ex ec 1393471
un d 1391972
r on 1391779
Col um 1391017
2 7 1390457
Co de 1389531
%a 0,</w> 1388391
6 7 1386671
B a 1386254
co l</w> 1385377
0x a 1385266
Q ue 1381947
t able</w> 1379608
int 32</w> 1379487
Pro to 1379228
contin ue</w> 1378514
Add ress</w> 1377823
Delet e 1376764
def er</w> 1376575
Instan ce</w> 1375894
Metho d</w> 1374878
and roid</w> 1373565
re g 1371819
an y</w> 1370837
a p</w> 1370419
F _ 1368365
s af 1367486
c ap 1367036
Se e</w> 1366523
Ass ert</w> 1365794
ch ed 1364102
n umber</w> 1364096
op en 1362815
on t 1362303
ic mp</w> 1362062
p or 1362052
prot ected</w> 1359937
exter nal</w> 1359646
g n 1359388
Re f</w> 1358971
er i 1358851
ac ti 1357489
end s</w> 1357062
Met a</w> 1357040
S O 1356808
w x 1356660
u te 1353441
param et 1353027
s o</w> 1352903
t x 1351402
J o 1351324
F A 1349454
C lu 1348830
%class.java_ io_ 1348208
W rite 1347595
aut o</w> 1347353
fir st</w> 1346695
m it</w> 1345861
sh ift</w> 1345386
Re spon 1345128
P ath 1344616
assert Equals</w> 1342805
ww w</w> 1342448
%bb 3 1341752
writ e</w> 1341528
Di r</w> 1339720
AN Y</w> 1339419
Ac tion 1337796
Po d 1337606
end if</w> 1336250
ag es</w> 1335395
_1 10 1333966
5 0 1333759
0x e 1331936
d uc 1328563
Lo g</w> 1327999
C an 1327094
ar r 1326935
Writ er</w> 1326605
ref er 1325713
ad ata</w> 1325512
2 0</w> 1325400
flo at 1325050
Attri bu 1321143
on e 1318358
Inte ger</w> 1316504
d b 1315545
1 5</w> 1315434
k _ 1314568
ti fic 1313796
B ack 1313150
app lic 1308584
D A 1308093
local_unnamed_add r 1307788
b ase 1305738
S U 1305488
al loc 1304235
b r 1302218
k 8 1300800
par se 1300294
Co lor</w> 1299159
0x d 1298706
ul ts</w> 1298688
S S</w> 1297983
1 NEW_LINE</w> 1297357
pk g</w> 1295122
M in 1294911
me m 1293761
2 8 1286234
# endif</w> 1286071
ser vice</w> 1285566
ne l</w> 1284601
\x 7 1284217
amp le 1283857
2 00 1283774
fo o</w> 1282090
or ig 1279817
w idth</w> 1277906
E S</w> 1277678
Nul l</w> 1276647
M at 1276200
bu t</w> 1274995
l d 1274469
ac tion 1274233
Uti ls</w> 1271486
Ljava_ lang_ 1271424
@Polyglot_java_ awt_ 1271330
_1 14 1271255
err ors</w> 1270024
f s</w> 1268778
confi g 1267372
B A 1266502
S u 1264354
curren t</w> 1264023
N ew</w> 1262927
M en 1261787
\x a 1260975
d ing</w> 1258595
la y</w> 1256867
4 0 1256690
For mat</w> 1254998
cre ate</w> 1254673
G U 1253309
coun t 1252332
W id 1251775
Descri pt 1251118
at ter 1250232
S up 1249517
p _ 1247897
E qual</w> 1247516
OU T</w> 1244643
2 9 1243114
List ener 1241519
Copy right</w> 1240996
io_Print Stream 1240031
c md</w> 1239230
Al l</w> 1238478
_10 5 1238436
ac t</w> 1236547
fun ction</w> 1236516
u i</w> 1236257
1 4</w> 1235969
ur l</w> 1234791
Fiel ds</w> 1234461
p r 1234427
is _ 1234293
ma in 1233795
proto buf</w> 1233628
at tri 1233512
Comm and</w> 1232992
il d</w> 1232852
Sp rintf</w> 1232677
b lock 1231311
V I 1231010
Re fer 1230804
wh en</w> 1230203
P an 1228490
cop e</w> 1227853
ve n</w> 1227138
oo l</w> 1226057
en c 1225908
So me</w> 1225708
0 f</w> 1222671
b ase</w> 1222519
t or</w> 1221691
B it 1220089
o ver 1219563
Star t 1219376
Di sp 1218003
M s 1217882
he ight</w> 1217740
S C 1214874
G rap 1214667
V ari 1214198
A B 1214065
c f 1212208
ate s</w> 1211844
k8 s</w> 1211729
j o 1211130
By tes</w> 1210848
%interface.java_ awt_ 1210050
Lo ad 1209673
k now 1208479
T able</w> 1208009
v ector</w> 1206819
C P 1206087
vi ew</w> 1205153
2 "</w> 1205108
k er 1204366
f ound</w> 1202974
sup er</w> 1202391
Mo d 1200725
Ex t 1200688
si st 1199445
LI C 1198077
6 8 1197360
t x</w> 1195958
te mp 1195181
1 3</w> 1193989
i es</w> 1193804
en try</w> 1193773
L en</w> 1193305
h ic 1193142
Reposit ory</w> 1193100
la r 1192473
F e 1191617
I S</w> 1190846
Con ver 1190657
k et 1190205
N AM 1189999
6 9 1189804
k ub 1189502
mar sh 1188540
w ar 1188144
n er 1188065
< =</w> 1187012
A ut 1186750
Dec o 1186397
ou r</w> 1186081
Im age</w> 1184553
b a 1183838
Ac cess 1183497
Po int</w> 1183202
p lo 1182959
to ken</w> 1181379
Pro vid 1181266
ce s</w> 1180941
it er</w> 1180138
3 7 1179409
B lock</w> 1178411
sr c</w> 1176722
Ser ver</w> 1175477
D et 1174136
st _ 1174108
instan ce</w> 1172747
P RO 1172713
Tar get 1172396
Y ou</w> 1172273
S ource 1172249
Pro cess 1172152
do w 1170065
4 4 1170028
Re ader</w> 1169180
require d</w> 1168369
Qu ery 1168103
5 8 1166282
C al 1166168
re d 1162593
O f</w> 1162352
wor d</w> 1162027
@Polyglot_java_lang_ String_ 1160078
av e 1159942
T ag 1159648
ext ends</w> 1158897
H tt 1158698
A s 1158182
IO Exception</w> 1156480
P tr</w> 1156430
ust om 1155996
R oo 1155125
e mpty</w> 1154436
mo de</w> 1152601
s oftware</w> 1151564
an g 1151342
Me m 1150784
bo dy</w> 1150048
mo di 1149309
V ER 1149160
an ce</w> 1148966
print f</w> 1148013
java x</w> 1147593
mi ssion 1146727
or d</w> 1145430
WAR RAN 1145342
k s</w> 1145309
A g 1144231
in ser 1143867
D O 1143394
m in</w> 1142526
f u 1142437
U ser</w> 1141887
TI ON</w> 1141425
Q String</w> 1140967
N am 1139708
K ind</w> 1139310
Metho d 1138941
* )</w> 1138768
D at 1138546
la ble</w> 1137980
ach e 1137592
p e 1136556
0000 0000 1136148
D ate</w> 1136079
Tar get</w> 1135831
s cal 1133961
en ame</w> 1133368
Cont ro 1133319
fa i 1132966
ser vice 1132191
ith er</w> 1131843
op tions</w> 1131577
ap i 1130751
e quals</w> 1128438
um e</w> 1128334
v ari 1126717
or m 1126664
S iz 1126028
_1 15 1124808
U r 1124316
gro up</w> 1123448
al f</w> 1123445
P ort</w> 1122151
. h 1119009
For mat 1118291
col um 1118269
ol d 1117198
re posit 1116526
ate d 1115766
A tt 1115301
to String</w> 1114662
b et 1114622
pa rent</w> 1113662
jec t 1113542
goog le 1113339
3 ,</w> 1112914
non null</w> 1111895
qu ery</w> 1110887
3 8 1110885
3 9 1110686
2 _ 1109959
Objec t_ 1109510
be gin</w> 1108435
gener ic 1108354
di sp 1108013
Pu blic</w> 1107959
d ic 1107518
push _ 1107238
Qu ery</w> 1106570
An notation 1106141
Ar gs</w> 1105930
di r</w> 1104308
L ength</w> 1103130
Htt p 1103047
o m</w> 1102791
y le</w> 1102749
roll er</w> 1102706
d o</w> 1102259
Co un 1101716
tr y 1101669
licen ses</w> 1100585
N e 1099436
n el 1097845
ar y 1097219
h as</w> 1096696
Po s</w> 1096637
10 0</w> 1096111
ment s</w> 1095696
li ed</w> 1094729
in iti 1094530
Bo x</w> 1094480
D ate 1093186
res ource</w> 1092748
S S 1092433
\x 00 1090540
Mar sh 1089812
X M 1089274
R end 1087428
w indo 1086881
ic h</w> 1086438
Di alo 1083668
M atch 1083389
secon d</w> 1081970
n ap 1080617
Proper ty</w> 1079387
Ad d</w> 1078380
Lab el</w> 1078373
in dex 1078052
P ack 1076968
WI TH 1075693
N one</w> 1074857
delet e</w> 1073840
r s</w> 1073482
Bo dy</w> 1073080
re t 1072626
gra m</w> 1070824
G L 1069913
2 . 1069245
arra y</w> 1068657
Proper ty 1068193
pro cess 1067160
ma x</w> 1066916
sy ste 1066869
se e</w> 1066077
s uc 1065068
w i 1064678
g s 1064146
5 5 1063590
f y</w> 1063101
p t</w> 1062080
ra p</w> 1061935
comm on</w> 1061722
St or 1060993
exp ected 1060827
N umber</w> 1060608
fin i 1060561
wh ich</w> 1059407
2 6 1059122
Gener al</w> 1057263
Paramet ers</w> 1057234
it e</w> 1057166
im age</w> 1056728
S ho 1056296
Un i 1055648
. method 1054100
amp le</w> 1053893
la b 1053143
m en 1052422
Th read 1052095
u st</w> 1051371
or der</w> 1049535
ac h</w> 1049459
add ress</w> 1049349
mat ch 1048592
s end 1047896
i al 1047600
go t</w> 1047464
s che 1046766
AP I 1046343
a in</w> 1046264
d y 1045288
Res ource</w> 1045182
App lic 1044566
1 : 1044513
us ing</w> 1044259
S Q 1044038
ig h 1043808
0x 0</w> 1042794
m ore</w> 1042340
%bb 4 1041300
GN U</w> 1040330
im age 1040127
e ither</w> 1039032
saf e</w> 1038386
Res ult 1038283
ou se 1038176
set _ 1037395
fai led</w> 1036425
a z 1034249
mu st</w> 1034130
Op tion 1033987
R _ 1032515
D B 1032171
di s 1031616
st or 1031426
5 6 1029293
refl ect</w> 1028167
S oc 1026920
rec t</w> 1026234
Con stan 1025786
Lin e</w> 1025096
fla gs</w> 1024498
ar ch</w> 1023860
Id enti 1022727
la ce 1022697
P layer</w> 1022542
at s</w> 1021124
u i 1020974
4 8 1020620
V ector 1020376
all y</w> 1019638
d a 1019492
Fun c 1018981
sp ec</w> 1018721
Clu ster 1016216
L oo 1015337
f ol 1014706
u al</w> 1014232
p ath 1013603
v ar 1012959
T E</w> 1012164
Fat alf</w> 1011723
in te 1009970
Ed it 1009221
ra w</w> 1009163
ic mp 1008993
X X 1007951
bu g 1007827
or y_ 1005311
po sition</w> 1005209
k er</w> 1005163
str a 1005065
5 7 1004325
re d</w> 1004073
@ " 1003659
T ree 1003546
opaqueNEW_LINE %interface.java_util_ 1003300
mo d 1003141
I N</w> 1002099
li mit 1001823
p p 1000631
E V 999841
P lu 998041
2 4</w> 998031
Fla gs</w> 997178
b ar</w> 994120
ri d 993936
% icmp 993336
P AR 993324
o k 992241
0x 00 990902
L E_ 990859
ser v 990829
x ml</w> 990303
un it</w> 989288
De scription</w> 988846
M EN 987585
Fr ame 987422
R A 985858
TION _ 984834
E mpty</w> 984090
c k</w> 984048
or iz 983653
Par se 983174
iter ator</w> 982460
Val ues</w> 981973
Sp ell 981516
S oftware</w> 981110
add r</w> 980076
Ho st 979522
fiel d 978157
ati ve</w> 977929
Respon se 977921
Rend er 977767
lin e 977631
AS SER 977578
Array List</w> 977577
H TT 975930
p c</w> 975313
T ypes</w> 975144
tr a 975092
plo y 974637
F ound 974290
Ex pre 973849
p end 973663
SP EL 973634
O ffset</w> 973539
Net work 973141
%class. null 972623
En um 972480
s um 972176
ex ist 971968
E lement 971480
0 "</w> 971286
op ts</w> 970604
re quest 970405
In valid 969963
En abled</w> 969660
A R</w> 969023
Col or 968908
(%class.java_awt_ Component 968825
m d 966686
lo b 966378
am p</w> 966102
h ash 965929
0x6 5</w> 965700
C ap 965522
p lu 964808
Interfac e</w> 964633
W idth</w> 964229
Sp ec 963882
d At 963033
re ce 961809
Lay out</w> 960726
Fil ter 960356
We b 959850
Fil ter</w> 959474
ST AT 959227
load _class 959128
P rint 959070
atu re 958902
push_ back</w> 958798
de d 958641
s or</w> 958142
di tion 957763
WITH OUT</w> 957402
size of</w> 956366
C A 956126
do c 954556
on t</w> 953357
C E</w> 949425
load_class ( 948940
m_ p 948722
v _ 946461
Config uration</w> 945529
instan ce 945293
A li 944164
po d</w> 943780
Sy n 943236
Star t</w> 943157
Ver sion 943075
dAt A</w> 942380
Lin e 941155
vi ew 940351
imp le 940192
ul l 939788
javax_swing_ J 939328
c or 939103
gu age</w> 938608
gro up 938573
print ln</w> 938419
se ssion</w> 938412
chan ge 938352
t al 938303
0 NEW_LINE</w> 938157
Un it</w> 937850
G H 936719
l d</w> 935802
fi er</w> 935472
EN SE</w> 935349
M app 935324
cal l 934946
O P 932446
C L 932362
Con text 932058
an notation 930962
at t 930768
IN T 930287
ar g</w> 930084
un d</w> 928667
BO O 928205
Fun c</w> 926237
co ll 926031
p layer</w> 924636
Re f 924247
Op en 924064
LIC ENSE</w> 923749
eng th 923561
R ule 922975
fiel ds</w> 922102
contain er</w> 921532
Par ti 921428
g en 921422
Met ri 921106
Po sition</w> 920329
Str uc 920211
He ight</w> 919233
form ation</w> 919006
frame work</w> 917756
\x 6 917733
T er 917540
n _ 917252
St ore</w> 916623
fla g</w> 915600
M S 915439
TYP E_ 915310
u int</w> 913982
p ass 913868
er net 913290
8 0 912608
\x 4 912001
buil d</w> 911384
Set tings</w> 911353
CH EC 911267
di rect 910806
%cdv_ty. jlang_runtime_Array 910751
%cdv_ty.jlang_runtime_Array *,</w> 909704
ail s</w> 909703
i 64 909579
lay er 909519
po st 909374
3 5 909364
Loc k</w> 908877
imp lied</w> 907365
ho st</w> 907313
.h ></w> 905859
ta in</w> 905851
Butt on</w> 905229
Cur rent 903657
Le vel</w> 903420
un i 902759
w ay 902271
G o 901804
A ll 900475
an not 900137
id x</w> 899268
s or 899024
Iter ator</w> 898981
con ver 898246
V ar 898148
Uti l</w> 898066
M ulti 894883
E D</w> 893937
in vo 893766
N um 893574
t able 893326
\ \</w> 892048
ou ble 891995
ta g</w> 890900
A S</w> 890578
Tas k 889876
*) *</w> 888971
Ch eck</w> 888621
gr ap 888381
s in 888299
m er 888261
> ></w> 888109
_ id</w> 887991
_10 8 887921
nex t 887431
co lor</w> 886323
has h</w> 886204
3 6 886102
u di 886014
e lement</w> 885166
} ,</w> 885024
J ob 884814
on g 884785
op t</w> 882954
To ken 882591
i ve</w> 882045
m bo 882006
ol ume</w> 881985
fi x 880399
S cal 879916
Up date</w> 879609
Sec on 878282
le ss</w> 877262
lo w</w> 877237
li b 877218
Acti v 876544
imp lement 876071
or der 876068
Proper ties</w> 875745
si c 875678
u id</w> 875529
le vel</w> 874933
Imp l</w> 874277
C ast 874174
%cast. new 872469
Log ger</w> 871880
opaqueNEW_LINE%class. sun_reflect_ 871368
_ s 869657
annotation _ 869538
i 16</w> 869495
Un marsh 869046
7 7 868490
ati ve 868385
ad ers</w> 868150
local_unnamed_addr NEW_LINENEW_LINEdeclare</w> 867010
c_ str</w> 866041
{ NEW_LINE 865691
Contain er</w> 864397
Annotation Type</w> 863637
generic s_ 863225
1 7</w> 862802
buil der</w> 862753
00 0</w> 862671
%interface.java_awt_ event_ 861931
%gep ,</w> 861496
reposit ory_ 861455
p s 860551
Ta g</w> 860540
run time</w> 860428
sp li 859540
Class Repository</w> 859165
N ext 859067
1: NEW_LINE</w> 858951
bb 1:NEW_LINE</w> 858914
jlang_runtime_ Array</w> 858891
annotation_ AnnotationType</w> 858891
{NEW_LINE bb1:NEW_LINE</w> 858891
generics_ repository_ 858891
generics_repository_ ClassRepository</w> 858891
5 4 858607
sq l</w> 858233
Comm and 858211
aw s</w> 858189
opaqueNEW_LINE%class.sun_reflect_ annotation_AnnotationType</w> 858080
C ache</w> 858050
size _t</w> 857963
F ail 857790
en v</w> 857610
un safe</w> 857466
B in 856527
Se ssion</w> 855913
ur ation 855611
Ap ache</w> 855600
comm and</w> 855290
Lin k 854423
Clo se</w> 854179
Point er</w> 852944
w ant</w> 852696
I P</w> 852267
Cre ate</w> 851338
Compon ent_ 850481
U E</w> 849398
le ft</w> 848956
st ack</w> 848554
roo t</w> 848320
_ - 847571
do c</w> 847463
%" class 847442
%class. sun_reflect_ 847257
i r</w> 847156
fin d 846967
%class.sun_reflect_ generics_repository_ClassRepository</w> 846093
xx xx 845750
JS ON</w> 845603
c ache</w> 845594
String L 844311
Ran ge</w> 844079
cont ent</w> 843848
e le 843255
asser t_ 842315
ab ase</w> 841804
Cont ent 841516
c lient 841366
a in 840613
P h 840242
null ptr</w> 838982
3 4</w> 837999
A LI 837280
defa ult 836856
up date</w> 835951
r un</w> 835866
clo se</w> 835671
f t 833771
St r</w> 833389
Siz e 832177
L ast 832024
SI Z 831975
Windo w</w> 830506
Mo di 830265
le s</w> 829921
EX P 829042
err or 828540
ap p</w> 827394
%load.dv .method 827106
al s</w> 824975
v 1 824349
orig in 824273
t ing</w> 824054
tar get 823901
R ow 821518
F ai 821004
ac ket</w> 820945
Buil d 819100
ti t 819002
ri x</w> 818566
Regi str 818159
p an 817455
C ustom 817323
De fini 817110
ol d</w> 816936
F a 816784
str ing 816291
Mo del 815534
E ff 814815
Un w 814530
ernet es</w> 814321
B ind 814314
W a 812983
Fun ction</w> 812932
Name space</w> 812788
te mplate</w> 809701
B ase</w> 809091
u be 808622
h er 808403
specifi c</w> 808257
null NEW_LINE</w> 808233
cf g</w> 807693
@ __ 807451
W OR 806870
Ite ms</w> 806391
t op 806113
Ab str 805910
0. 0</w> 805590
t d</w> 805443
ur ity 805349
C T</w> 804982
( i8*</w> 804972
Re quire 804180
le d 803519
In iti 803501
OR _ 802919
s oc 802241
ma ke 802004
Tr ue</w> 801912
an t 801674
U T 801014
li g 799856
he ader</w> 799736
S A 798454
I l 797938
32 _t</w> 797410
char _ 797393
on s</w> 796562
I LI 796374
p ort 795555
Hand le</w> 794548
pa re 794506
V al</w> 794120
Wid get</w> 794068
O K</w> 793876
fin d</w> 793429
v ed</w> 792637
w as</w> 791398
NAM E</w> 791382
Polic y</w> 791342
rt ual 790902
do ck 790805
TI ES</w> 790611
opaqueNEW_LINE%class. jlang_runtime_Array</w> 790539
er t 790413
Nam es</w> 790320
ex tr 789863
6 6 789592
contain er 789521
NEW_LINENEW_LINE define</w> 788645
st amp</w> 788588
RO R</w> 788504
De vice 787920
f _ 787907
__ Ljava_lang_ 787606
int o</w> 787406
kub ernetes</w> 787356
N um</w> 787259
flo w 787165
2 ( 785545
Attribu te 784795
pro gram</w> 784592
cop y 784379
Di rect 782922
for e</w> 782882
umb er 781283
Provid er</w> 780727
*) NEW_LINENEW_LINEdeclare</w> 780515
with out</w> 780433
Sche ma 780090
t ag 779948
Attri bute</w> 779807
mission s</w> 778902
J av 778577
S ign 778426
hand ler</w> 777959
st ate 777925
D ow 777520
sup port</w> 777520
L ong</w> 777490
U s 776354
s _</w> 776292
%class.java_ io_PrintStream 776152
point s</w> 775933
N on 775735
5 9 775573
de st 773004
%ge p</w> 772607
P e 772355
0x6 f</w> 771768
ER ROR</w> 770939
Me mb 769780
- 0 769693
C ache 769422
P ai 768699
in it</w> 768553
iv ed</w> 768541
5 3 768354
lan guage</w> 767829
W h 766737
CH AN 766468
I n</w> 765534
cr yp 765500
v m</w> 765413
F LA 765224
to p</w> 764364
N il</w> 764304
# if 764291
unw rap</w> 763555
D uration</w> 763044
ser ver 762939
Abstr act 762662
si tion 762497
f ree</w> 761996
atter n</w> 760756
fun c 759032
F O 758276
1 8</w> 758086
nap sho 756474
M on 755926
WARRAN TIES</w> 755074
_ 8 754596
En d</w> 754050
O k</w> 753934
l er 753839
get Name</w> 752993
Loc ation</w> 752551
\ u</w> 752057
P y 752018
6 0 750257
op tion</w> 749819
pu bli 749300
excep t</w> 749148
r c</w> 748533
bo x</w> 747854
V ector</w> 747794
Cont ent</w> 747287
mpl ate 747200
R ect</w> 746496
Ac count 746422
Oper ation 745769
W ar 745358
_1 00 745283
Polic y 744512
Wor k 744203
S D 744116
Retur ns</w> 743446
la ce</w> 743361
sh ed</w> 742709
P ass 742569
scri pt 742288
P age</w> 741407
Fr ame</w> 741190
St ack 740572
w id 739718
TION S</w> 739622
EC T_ 739261
Enti ty</w> 738505
know n</w> 738423
Exp r</w> 738291
M ouse 738258
de scription</w> 738011
\x 1 737895
fil ter</w> 737789
G E</w> 737585
syste m</w> 737390
J son 737093
file s</w> 737013
Q gs 734845
m ulti 734452
p c 733946
Object Meta</w> 733826
Fi r 732691
Paramet er 732569
sup por 731449
Unw ind 730895
t mp 730321
ti m 729707
l t</w> 729551
ili ty</w> 729118
" (%class. 729000
ON _ 728219
n s 727777
d r</w> 726853
S te 726662
Add ress 725833
syn c</w> 725779
F oc 725258
4 NEW_LINE</w> 725212
I L 725101
LO C 724642
P age 724529
f 0 724505
Pro duc 724391
buil d 724279
De bug</w> 724252
it or</w> 723998
7 8 723990
R ule</w> 723969
log ger</w> 723944
g r</w> 723837
sk ip 723811
o ff 723791
p age</w> 723482
G e 723482
st d 723472
SPEL L_ 723418
res ult 723345
U nex 723140
inser t</w> 722549
h el 722441
no w</w> 722395
S ched 722088
S imple 721853
Add r</w> 719430
ol der</w> 718903
st ream 718163
D AT 717934
contain s</w> 717728
0x7 4</w> 717582
Unwind Exception 717499
wh ere</w> 717469
c s 717312
n um</w> 716933
dv ,</w> 716475
Hand le 716212
Unex p 716046
Se arch 715109
di tion</w> 715081
Men u 714985
en co 714184
li ce</w> 714087
T ri 713550
G O 713435
at ing</w> 712081
conn ect</w> 711932
U ID</w> 710372
F in 710243
leg al 710180
| =</w> 708932
assert_ eq</w> 708757
e p</w> 708223
Po d</w> 707851
Par am</w> 707474
Scri pt</w> 707182
if y</w> 706337
man ag 706289
d raw 706206
ILI TY</w> 705551
H E 705300
end l</w> 705198
po d 705173
K IN 705078
w ire 705074
Writ e</w> 704725
dec o 704342
st ore 704157
me di 703665
V ec</w> 703617
Cont roller</w> 703485
cap ture</w> 702610
9 0 702353
Th read</w> 702166
remo ve 702060
li p 701750
hand le</w> 701562
Se qu 701155
de s</w> 700484
< -</w> 699856
x y</w> 699631
no ti 698098
Defa ult</w> 697897
exp r</w> 697192
met adata</w> 696813
de bug</w> 696327
Scri pt 696063
# define</w> 696026
loc ation</w> 695934
qu i 695153
Tim er</w> 694945
bin op 694666
3 0</w> 694532
r app 693894
cle ar</w> 693870
Aut o 693147
specifi ed</w> 692939
Fat al</w> 692845
7 0 692563
s ource 692425
C ase</w> 692378
se arch</w> 692190
U M 691800
D a 691755
R P 691649
Descri be 690910
Lab el 690309
u 32</w> 690257
ms g 689959
_9 9 689324
Hel per</w> 689114
scrip tion 689038
X ml 688443
f ul 688389
comp on 687746
Lay out 687665
%bb 5 687189
A ur 686734
0x2 0</w> 686404
Ms g</w> 686082
Fro m</w> 685761
%class.java_lang_Object *</w> 685729
ad i 685728
B I 684016
uti ls</w> 683621
remo ve</w> 683285
1 9</w> 683251
Vi si 683089
Flo at 683026
re spon 682906
P OR 682688
pro vi 682672
c u 682600
f y 682006
D O</w> 681951
ser ializ 681719
la r</w> 681577
A _ 679105
Compon ent</w> 679011
t ure 678940
il li 678864
l i</w> 678752
De bug 678625
par ti 678400
M y 678246
char_ arr 677993
@_ char_arr 677986
t mp</w> 677959
al y 677300
b i 677014
Dialo g</w> 676959
Refer ence</w> 676804
r and 676252
Il legal 676166
TE X 674777
i32 *</w> 674629
lo c</w> 674438
t a</w> 674298
C T 674297
re sh 674194
b l 674045
gi ven</w> 673686
iz ed</w> 673664
B ig 673580
ve c</w> 673078
ho st 673040
Buil der 673015
s ing 672867
S cope</w> 672616
google api</w> 672257
lo t</w> 672232
stati c_ 671512
ite ms</w> 671393
Me di 670450
c el 669544
7 9 669503
U S 669446
fr ame</w> 668442
UN I 668433
per missions</w> 668419
Regi ster 668215
me mb 668043
( %class.java_lang_ 667772
Con stra 667334
Th row 666903
defin ed</w> 666612
c i 666444
St ore 666352
Pro ject 665983
E OF</w> 665552
Found ation</w> 664455
Descript or</w> 663896
EN T_ 663694
\x00 \x00 663515
opaqueNEW_LINE%interface.java_util_ Map</w> 663028
G lob 662227
mess age 662083
b utt 661799
SIZ E</w> 661589
Coll ection</w> 661319
Input Stream</w> 661123
De st 661071
er o</w> 660921
% i 660833
th en</w> 660266
unw ind</w> 660213
c er 659947
00 00</w> 659934
Pre fix</w> 659351
Te mplate</w> 658202
4 9 658068
fac t 657832
a x 657636
2 2</w> 657351
Licen sed</w> 657103
Func tion 657099
D B</w> 656574
%"class . 656464
DE BU 656267
St ati 656163
te x</w> 656140
loc al</w> 655922
TH E</w> 655069
in it 654956
opaqueNEW_LINE %class.java_awt_ 654947
En co 654807
ri ver</w> 654405
al ph 653586
3 "</w> 653347
UR I</w> 653325
paramet ers</w> 652729
x y 652591
in formation</w> 652536
ul d 652162
T op 651926
Conn ection 651759
%" op 651741
Hash Map</w> 651241
T ra 650671
Fla g</w> 650493
CON DI 650369
fro m_ 650125
F OR 650038
le ase</w> 649455
p y 648947
Arg ument 648133
s v 647351
KIN D</w> 646407
gro und</w> 646264
i ss 644686
um ents</w> 644546
an ce 643846
writ ing</w> 643422
it r</w> 643394
%class.java_lang_Class **</w> 643356
Sec urity 643348
ter s</w> 643129
AN D</w> 643114
il l 643005
le x 642903
G ame 642761
* *NEW_LINE</w> 642648
Ad ap 642231
1 .0</w> 641663
Config uration 641348
Grap hic 640996
id enti 640699
G L_ 640616
en sion</w> 640425
in valid 640409
D im 640192
in line</w> 639941
25 6</w> 639756
chan ge</w> 639289
excep tion</w> 639188
Ch ild 638608
] ,</w> 638088
pro ject</w> 638052
Has h</w> 637748
Applic ation 636957
Per sist 636854
Group Name</w> 636636
Enti ty 636477
d u 635651
2 1</w> 635453
%bb 1NEW_LINE</w> 634965
En gin 634924
Fai led</w> 634911
V AL 634308
co re 633811
Ser ializ 633763
Conn ection</w> 633451
AP I</w> 632921
bet a 632664
Inter n 632169
I t</w> 631486
con n</w> 630865
no capture</w> 630784
Vi rtual 630681
U P 630028
sy s 629617
al low 629347
ai lable</w> 628764
s Client</w> 628432
N ext</w> 628241
C le 627831
Syste m 627734
sh are 627516
F ree</w> 627052
25 5</w> 626408
c d 625691
HTT P 625633
a a 625537
D raw 625494
r y 625450
ti l</w> 625271
sp ace 625263
sel ect</w> 625183
%class.java_lang_Class *,</w> 625167
A A 625125
en um</w> 624382
IN _ 624329
windo w</w> 624179
8 8 623295
FA UL 623182
2 5</w> 622920
F or</w> 622615
I _ 622144
Run time 621492
oun ds</w> 621362
S i 620580
l p 620255
M M 619335
n orm 619308
s d 619182
O w 619106
t ing 619079
Comp let 618960
ite m 618678
al _ 618344
A t</w> 618042
2 1 617767
3 . 617698
s p</w> 617563
Met adata</w> 617240
dow n</w> 617043
ic k 616800
uint 8</w> 616724
G C_ 616306
Mo ck 616243
3 _ 616180
li ance</w> 616081
u d</w> 615398
__Ljava_lang_ String_ 615178
4 7 614969
A v 614922
_1 17 614463
la st</w> 614426
pr int</w> 614079
ec tions</w> 613964
t ree</w> 613576
cont ro 613210
read y</w> 613041
IN T</w> 612984
vi ron 612796
5 0</w> 612772
t t</w> 612133
go ver 611875
MA X_ 611721
met ri 611375
}NEW_LINE %class.sun_reflect_generics_repository_ClassRepository</w> 611132
set tings</w> 610867
c ul 610583
proper ty</w> 610557
6 ,</w> 610470
co dec 610324
th read</w> 610319
fil ename</w> 609930
Remo ve 609335
h s</w> 609130
r _ 608746
Tas k</w> 608716
StringL it 608027
@ Intern 607949
StringLit ({</w> 607949
@Intern StringLit({</w> 607949
Ran ge 607194
Th e 607016
R el 606647
auth or</w> 606439
@Polyglot_java_awt_ Component_ 606139
Status Code</w> 605773
u g 605736
Re ad</w> 605687
p b</w> 605277
Met a 605200
A f 605016
qu ery 604719
ch ild 604379
ig ht 603997
fu l</w> 603465
wa it 603423
DE FAUL 603252
ob j 603112
Time out</w> 601859
ap e</w> 601804
wire Type</w> 601787
inter nal</w> 601585
Inte ger 601238
TYP E</w> 601140
re q 600848
Ba lan 600380
re l 600164
Listener *,</w> 600146
node s</w> 600073
instance of</w> 599793
n on</w> 599476
BA SI 599240
M ach 599201
_ type</w> 599174
di tions</w> 599130
res ol 598508
load_class( )NEW_LINE</w> 598124
ti ve</w> 597984
Cop y</w> 597777
fol low 597748
Sche ma</w> 597597
De ep 597180
aut o 595132
F OR</w> 594917
refer ence</w> 594376
Marsh al 594306
JS ON 594253
ur l 594242
fac e</w> 594039
O ff 593913
attri bute</w> 593527
sp an</w> 593496
y our</w> 593483
h i 592657
D E</w> 592626
ter ms</w> 592614
Th at</w> 592492
Flo at</w> 592045
Colum n 591966
tri es</w> 591856
R and 591636
G r 591591
af ter</w> 591346
ou s</w> 590845
Retur n</w> 590670
exp ress</w> 590227
mp ty 589719
li ca 589664
Not Null</w> 589501
W _ 589213
%class.java_lang_String *) 589182
co ut</w> 588181
%a 0 587918
Boo lean</w> 587803
Or der 587719
net work</w> 587568
C R 587309
to ken 587243
set s</w> 586492
ob tain</w> 586418
Ro w</w> 586083
key s</w> 585951
regi ster 585872
htt ps</w> 585272
g ress 585130
f ore 584896
Expre ssion</w> 584630
Se ssion 584226
De ploy 583776
T it 583721
comp let 583562
c ation</w> 583411
T ool 583377
in valid</w> 583325
TI C 582993
comp liance</w> 582901
ev ent 582411
BOO ST_ 582145
Ur l</w> 581972
le _ 581956
Stor age 581829
O p</w> 581733
attri bu 581608
float 64</w> 581433
par se</w> 581100
d st</w> 581082
oc i 581049
Change d</w> 580879
Te mplate 580857
s b</w> 580558
a k 580544
H O 580395
N _ 580051
limit ations</w> 580005
O ut</w> 579893
ta sk 579547
Par ser</w> 579387
CONDI TIONS</w> 579230
0x0 1</w> 579207
is Empty</w> 578514
sho w 578177
Res ol 578127
Sel ector</w> 578124
mi ssion</w> 577122
op en</w> 577095
Contro l 576951
m app 576846
for mat 576808
Ar g</w> 575723
de vice</w> 575713
u 8</w> 575585
m alloc 575534
gover ning</w> 575395
St d 575190
BASI S</w> 575090
C l 574861
able s</w> 574566
test _ 574302
er s 574123
Ch ild</w> 573744
St yle</w> 573708
0x7 2</w> 573429
li b</w> 573395
d enti 573161
TO DO</w> 572900
th read 572833
applic able</w> 571953
all et 571833
Butt on 571522
Str ateg 571327
A D</w> 570877
by te 570824
Buffer ed 570382
pre fix</w> 570135
nam es</w> 570052
b ind 570007
ension s</w> 569945
Foc us 569455
0x6 1</w> 569221
par ser</w> 569152
cl one</w> 568570
ut or</w> 567173
res ults</w> 567095
r up 567040
Nul l 566912
p ol 566840
ch ild</w> 565744
re ed</w> 565632
GH T</w> 565153
P r 564880
ta sk</w> 564407
fa il 563933
\x 5 563915
I C 563684
T L 563470
stor age</w> 563302
_10 9 563215
s m 562884
in _ 562367
ma il</w> 561608
ne ed</w> 560748
to m 560557
ASSER T</w> 560256
2 3</w> 560080
c on</w> 559779
sche ma</w> 559696
t al</w> 559300
pro vid 559252
T S</w> 559116
re ach 558885
%cdv_ty.java_ util_ 558319
so me</w> 558142
w er 557959
ma sk</w> 557174
Tr ack 557156
al i 557149
par t</w> 557075
Rec e 557066
Inter nal 557003
vi si 556821
met av 556799
0x7 f0 556761
P ort 556566
D E_ 556348
r ing 556262
at tr</w> 555804
int s</w> 555156
annot ation</w> 555105
ec h 554870
time out</w> 554554
#if def</w> 554261
la w</w> 554195
t cx</w> 553779
g or 553579
con v</w> 553270
G E_ 553025
re co 552242
r c 551290
malloc ( 551286
Output Stream</w> 551274
%bb 7 551216
NEW_LINE }</w> 551158
@__ GC_ 550983
@__GC_ malloc( 550983
mo ck 550666
eng ine</w> 550656
B uc 550338
0x6 9</w> 550255
fro m 550007
Bo x 549861
or _ 549772
ro p 549633
do es</w> 549474
h ere</w> 548964
s n 548802
S uc 548687
r y</w> 548641
s ure</w> 548402
c at 548268
N o</w> 548113
w al 547391
%cdv_ty.java_lang_ ArrayIndexOutOfBoundsException 547269
Un less</w> 547240
in put 547053
rec tion</w> 547037
pt h</w> 546971
Paramet er</w> 546769
mo de 546535
0x8 0</w> 546423
T H</w> 546059
Ho st</w> 545499
ili ty 545301
s . 545063
P ay 544849
Jo in</w> 544647
UnwindException (i8*</w> 544389
ev ents</w> 544357
as _ 544224
tex t_ 543724
\ t 543670
res er 543386
metav 1</w> 543229
h er</w> 543218
det ails</w> 543068
ut able 542905
ren der 542762
ag reed</w> 542626
e ff 542476
%class.jlang_runtime_Array *,</w> 542344
invo ke</w> 542208
u size</w> 541988
op tion 541874
l ength 541766
TR AC 541296
mem ory</w> 541295
V ar</w> 541088
(%class.java_awt_ Container 540436
Wor ld 540378
H i 540307
%class.java_lang_String **</w> 539914
ch an</w> 539257
p ip 538970
assert That</w> 538858
F RO 538781
Unmarsh al</w> 538760
C md</w> 538703
RE S 538422
in c 538414
ex p</w> 538319
th at 538150
Un it 537999
Pro ps</w> 537766
static_ cast</w> 537670
S um 536781
o s 536704
Pai r</w> 536416
applic ation</w> 536415
I f 535629
F u 535626
al ize</w> 535526
con f</w> 535512
s ched 535374
He aders</w> 535283
R un</w> 534521
i32 ) 534286
implement s</w> 534222
f lu 534220
di ff 534072
sin ce</w> 534057
st ic 534040
G I 533849
S ing 533821
ver sion 533782
M gr</w> 533669
ex pre 533632
Chan nel 533549
pu ts</w> 533320
3 1</w> 533035
objec t 532985
j son 532808
CO MP 532397
Constan ts</w> 531901
IN V 531724
Re g 531262
am er 531144
Unexp ected 531140
Pu bli 530947
3 D 530895
Oper ation</w> 530671
htt p 530096
ch ron 529000
l l</w> 528140
tit le</w> 527990
An not 527822
sec ur 527753
th ere</w> 527578
N umber 527164
co m 527132
Exec u 526581
Sel f</w> 526544
an s</w> 526380
P U 526239
UR L 526019
sig n 525933
4 5 525676
T ex 525578
w s</w> 525347
R out 525218
e m 524968
chan nel</w> 524559
C la 524500
En try 524496
origin al</w> 524126
SQ L 524048
char ac 523761
O B 523720
V E 523265
ex ample</w> 522729
Ob j</w> 522687
lic k 522673
re n</w> 522599
st yle</w> 522574
Ma sk</w> 522051
# if</w> 521719
k ind</w> 520890
EN T</w> 520648
v 2</w> 520531
NE SS</w> 519995
bit s</w> 519974
C C 519570
Colum n</w> 519140
0x6 e</w> 519076
test s</w> 519027
De sc</w> 518459
in s</w> 518260
Call back</w> 518224
LO G</w> 518112
si mp 518110
A I</w> 518013
A W 517903
on _ 517833
ap e 517793
- -</w> 517059
c la 516491
p ix 516404
On ly</w> 516029
se arch 515704
0x 0000 515518
a use</w> 515244
p p</w> 514900
ti ve 514861
valid ation</w> 514144
B E 513848
resource GroupName</w> 513756
Gener ated</w> 513735
e st 513619
%bb3 NEW_LINENEW_LINEbb 513017
4 0</w> 512907
6 _ 512741
ffff ffff 512444
Jav a 512182
In ser 512162
State ment</w> 511661
%bb 2,</w> 511642
F ont 511405
b it</w> 511386
s cope</w> 511122
con stan 510969
_1 12 510770
P ool</w> 510670
\x 3 510492
6 0</w> 510378
Delet e</w> 510292
D ouble</w> 509982
n one</w> 509719
f d</w> 509609
licen se</w> 509572
be fore</w> 509310
sp ell 509278
H I 509101
mar k 508878
comm and 508509
Dow n 508466
ht ml</w> 508136
lat er</w> 508045
pu sh</w> 507977
ab ase 507695
Pro ject</w> 507418
proto col</w> 507392
Attribu tes</w> 507239
Sp li 506631
0. 0 506390
M ER 506058
8 9 506058
ser ial 506048
Exp ect</w> 505910
R T 505846
exter n</w> 505274
b t 505137
g ress</w> 504925
new _ 504373
rece ived</w> 504238
Fi x 504228
conn ection</w> 504228
s ame</w> 504062
B ar</w> 503994
Lo ck 503838
pan ic</w> 503837
refer ence 503816
exist s</w> 503688
p ay 503321
De vice</w> 503319
ent er</w> 503063
Err Unexpected 502861
No w</w> 502706
%bb 2 502439
post Index</w> 502420
0x ff</w> 502072
de vice 501642
regi on</w> 501556
s To 501533
manag er</w> 501436
A U 501253
fe ature</w> 500974
que ue</w> 500880
P rintf</w> 500666
__ I 500469
ErrUnexpected EOF</w> 500159
Manag er 499985
R ou 499793
mbo l</w> 499695
TE D</w> 499676
Sh are 499638
met a</w> 499578
udi o 499314
assert True</w> 499248
(%class.java_awt_Component *,</w> 498526
file _ 498498
Al loc 498044
curren t_ 497980
Cre ature</w> 497801
g reg 497438
oo ls</w> 497437
ne d 497294
S LO 497292
B ar 497255
j unit</w> 497137
F F</w> 497020
%i binop 496802
pro cess</w> 496738
Res ults</w> 496671
C er 496602
U D 496563
St ack</w> 496374
p re</w> 496370
V E_ 496227
F ound</w> 495500
colum n</w> 495256
g re 494987
AN D 494937
Syste m_ 494715
Interfac e 494582
opaqueNEW_LINE %class.java_io_ 494562
Te mp 494366
R aw 494231
flo w</w> 493731
4 . 493712
gr am 493363
In f 493289
Soc ket 493284
direct ory</w> 492964
CO P 492949
Ex ist 492224
Hel per 492070
I D_ 492057
sr c 492057
modi fy</w> 492045
s For 491650
WOR D</w> 491648
ord in 491548
U se 491531
Rec ord</w> 491419
lay out</w> 491374
val u 491371
Un lock</w> 490849
sc re 490811
uint ptr</w> 490782
Ba sic 490669
t c</w> 490629
dow n 490099
clu ster</w> 490027
c ation 489386
tr ig 489364
E le 489331
ad e</w> 489218
d one</w> 489002
LA Y 488966
P ix 488821
read er</w> 488801
th an</w> 488542
LO G_ 487820
de o 487771
ct x 487720
An im 487542
i on 487341
we b 487308
or ity</w> 487247
y le 487098
i m</w> 486969
B und 486923
ce ssi 486881
(%class.java_lang_Object *)*,</w> 486656
I S 486641
f et 486476
\u 0 486236
th ing</w> 485886
proper ties</w> 485322
0. 0f</w> 485216
Refer ence 485084
En code 485031
S ig 484990
M er 484629
AL L</w> 484478
Men u</w> 484354
P layer 484083
\ t</w> 483938
Rec ord 483891
writ er</w> 483829
St ats</w> 483784
I F 483782
100 0</w> 483641
# 0</w> 483612
Roo t 483544
v ec 483524
V _ 483523
O ne 483499
Loo k 483249
Fail ure</w> 482826
Doc ument 482757
ele m 482732
in ation</w> 482703
8 0</w> 482149
opaque NEW_LINENEW_LINEdefine</w> 482052
T ab 482040
dv ar 481956
i on</w> 481717
Input Stream 481711
if y 481678
L ong 481485
po lic 481479
G en 481348
fil ter 481042
mo d</w> 480926
Activ ity</w> 480787
@Polyglot_java_lang_ Object_ 480696
sp ac 480571
End point 480483
scrip t</w> 479886
B y</w> 479693
Chan nel</w> 479345
Dec l</w> 479331
mo unt</w> 479242
of f</w> 478908
se qu 478668
r ule 478440
Que ue</w> 478254
__Ljava_lang_String_ 2( 478185
gener ated</w> 478085
He ader 478059
C E_ 477685
C RE 477674
Lin k</w> 477236
Sc an 477120
in dvar 476808
O rig 476563
Hand ler 476549
ad ata 476548
Node s</w> 476506
H ist 476343
li mit</w> 476256
i st</w> 476250
e qual 475872
fa il</w> 475449
follow ing</w> 473769
as ure 473280
S napsho 473025
Plu gin 472885
syn c 472860
ac tions</w> 472770
SE LE 472684
_32 _ 472530
0x2 e</w> 472396
v olume</w> 472279
e x</w> 472255
fir st 471986
paramet er</w> 471970
TE R</w> 471768
0x7 3</w> 471721
g ing</w> 471521
Ser v 471337
B _ 471239
fi ed</w> 471033
Mo de 470968
end point</w> 470934
gor ith 470920
T ree</w> 470885
Persist ent 470665
Disp lay 470532
t s 470486
di t</w> 470449
Ma in 470438
@Polyglot_java_lang_ System_ 470375
%a0 )</w> 470099
F ind 469719
ER R 469712
ang le</w> 469509
qu e</w> 469443
to tal 469183
le ase 468713
boo st</w> 468464
Ro le 468444
spli t 468392
GU ID</w> 468036
Char ac 467872
struc ture</w> 467871
regi str 467665
b ec 467587
Regi on 467463
rapp er</w> 467245
d ouble 467240
IN G_ 467116
Pan el</w> 467113
uint 32_t</w> 467095
XM L 466597
S q 466332
C ase 466255
Mem ory 466172
str conv</w> 465997
Illegal Argument 465854
V is 465569
pa ir</w> 465110
T O</w> 464967
it _ 464898
IN F 464834
Ge o 464680
C ateg 464462
Output Stream 464376
al th 464375
Po st 463669
st op 463624
L L 463550
ex ec</w> 463471
ac cep 463462
h _ 463440
Ch ar</w> 463382
Deco de 462710
d s 462593
p op 462432
aw s 462025
e 1</w> 462024
Fr ag 461689
Contro l</w> 461670
se g 461354
%a 1,</w> 460993
12 34</w> 460749
or i 460285
fa ke</w> 459997
go to</w> 459815
de sc</w> 459576
al ready</w> 459388
enti ty</w> 459359
c le</w> 459286
e ach</w> 459087
En code</w> 458784
CHEC K</w> 458529
s um</w> 458391
te mp</w> 457720
In valid</w> 457610
T ER 457544
Cer tific 457338
ca st 457254
mar y</w> 457081
wa y</w> 456471
e ven</w> 455784
sh ort</w> 455734
Mat rix</w> 455600
G rid 455537
%cdv_ty.java_ io_PrintStream 455320
br ary</w> 455299
bo t 455015
P UR 454818
or ts</w> 454676
v1 beta 454415
D o</w> 454325
GE T</w> 454115
f s 454006
av ailable</w> 454006
en e</w> 453881
- 20 453831
Q t</w> 453667
Fu ture</w> 453664
W e</w> 453489
struc tor</w> 453151
nam ic 453043
V E</w> 452687
- =</w> 452149
mo ve</w> 451866
e st</w> 451061
UL AR</w> 450989
n g</w> 450919
V M 449875
c c</w> 449668
Descript or 449559
N orm 449386
I mm 449355
t yp 449315
act ual</w> 449241
L ev 449195
pro duc 449188
Time stamp</w> 449153
S end</w> 448699
ti es 448424
ent ation</w> 448188
G P 448023
Resource s</w> 447856
M ust 447378
St and 446968
Clo se 446965
pare r</w> 446956
P lan 446935
W it 446876
12 8</w> 446869
k ube 446858
Att ach 446839
that 1</w> 446807
me d</w> 446770
struc tion</w> 446523
rit eri 446456
Adap ter</w> 446199
\ r</w> 445544
P ool 445457
C or 445439
PO SE</w> 445377
20 0</w> 445344
PAR TIC 445201
T NESS</w> 445132
Graphic s 445010
G ate 444555
\x 2 444320
In vo 444096
M illi 443730
Se g 443655
Exp ected</w> 443459
Rep lica 443378
%interface . 443286
In c</w> 443110
Sel f 442718
NO T</w> 442627
T x 442498
fa ke 442337
Key s</w> 442305
b ind</w> 442252
Doc ument</w> 442242
File s</w> 441884
b _ 441775
con ditions</w> 441762
Defini tion</w> 441684
PUR POSE</w> 441238
Li mit 441198
n t</w> 441143
m ath</w> 441009
To _ 440852
A L_ 440726
LO G 440612
at tr 440524
Registr y</w> 440426
T C 440413
Wa it 440402
Ljava_ awt_ 440400
sc an 440335
V o 440310
W E 440305
e k 440103
MER CHAN 439769
T M 439259
Medi a 439246
TAB ILITY</w> 439042
re set</w> 438885
acti v 438838
Lab els</w> 438756
FI TNESS</w> 438728
Re g</w> 438698
initi aliz 438462
config uration</w> 438279
PARTIC ULAR</w> 438249
vi sit 438157
Mod ule</w> 438052
g t 437990
Lo ader</w> 437931
Writ er 437930
MERCHAN TABILITY</w> 437895
indvar s. 437728
Ap i 437601
y n 437569
ac ity</w> 437413
can not</w> 437377
Mo ve 437322
Stor age</w> 436796
Co m 436285
P acket</w> 436268
2 8</w> 436080
out put 435709
p age 435590
iter al</w> 434669
be en</w> 434577
ce l</w> 434445
lin k 433880
TR I 433763
an y 433450
g le 433316
P ip 432960
DEBU G</w> 432640
si de</w> 432513
Schema Props</w> 432402
co ver 432391
7 5 432354
L an 432025
Rou te 431967
M atch</w> 431941
h av 431783
de st</w> 431777
Qu o 431651
Volume Source</w> 431481
F T 431365
Tran sp 431327
oper ation</w> 431155
TE ST_ 430839
AT E</w> 430805
Dec im 430709
ri d</w> 430604
t or 430343
D S</w> 430273
0 1</w> 430206
ou s 430104
to m</w> 430068
v olume 429490
7 6 429489
M C 428843
delet e 428831
dat abase</w> 428750
j ob 428119
en e 427907
I con</w> 427630
S w 427369
p i 427294
enc y</w> 426572
Err s</w> 426562
last ic 426535
st mt</w> 426479
Print ln</w> 425675
im um</w> 425565
lo ok 425467
d r 425380
get Value</w> 425077
distri bute</w> 425044
mb ol 424992
Clo ud 424960
Glob al 424874
un reach 424858
el y</w> 424353
la ble 424263
Lay er</w> 424256
id s</w> 424251
jo b</w> 424208
we a 424033
bo x 423878
c mp</w> 423717
%class.java_awt_ Component 423656
e ded</w> 423531
j ust</w> 423376
ve lo 422946
Roo t</w> 422774
I R 422694
i al</w> 422369
retur ned</w> 422350
D ouble 422031
wi re</w> 421952
STAT U 421818
ge s</w> 421679
row s</w> 421514
way s</w> 421499
Pa rent</w> 421469
Trans action</w> 421183
v es</w> 421142
Ch ain</w> 420993
In it 420866
fac e 420836
sw ing</w> 420716
ch un 420618
F AL 420505
__ ,</w> 420482
Val id</w> 419637
de n</w> 419363
Or der</w> 419130
No tific 419108
copy right</w> 418954
et s</w> 418867
c c 418688
@Polyglot_java_lang_ ArrayIndexOutOfBoundsException 418586
Bu f</w> 418554
ac count</w> 417957
Tit le</w> 417684
sys call</w> 417677
__ py 417611
2 6</w> 417600
c li 417558
Fir st 417412
n d</w> 417358
app end 417115
it y_ 417074
T OR 416824
mod ule</w> 416666
w r 416019
Proto col</w> 416017
4 6 415933
s end</w> 415929
Ma x</w> 415857
roll er 415848
Sp ell</w> 415663
Cal end 415612
Ex ter 415485
Ex tr 415395
Boo l</w> 415381
2 9</w> 415363
vo id 415328
to_ string</w> 415234
RI GHT</w> 415167
_10 4 415119
__py x_ 414816
9 8 414761
s ing</w> 414622
FI EL 414322
ample s</w> 414307
wid get</w> 414220
retur ns</w> 414185
U se</w> 414162
plu gin</w> 413791
i e 413430
xxxx xxxx 413361
en code 412958
di r 412911
FRO M</w> 412828
TY _ 412678
tr ack 412541
Pro to</w> 412464
m y</w> 412194
m t 411933
ca use</w> 411822
am il 411499
Ms g 411231
N P 411223
Ap p</w> 411221
Secon d</w> 411206
bin ary</w> 411194
Gener ic 410999
TR UE</w> 410898
oth er 410872
di ff</w> 410867
Regi on</w> 410755
Dat abase</w> 410499
c y 410498
s z 410323
T rig 410280
V ec 409883
P attern</w> 409380
p la 409312
null ,</w> 409263
Le ft</w> 409101
file path</w> 409021
Mach ine 408840
clu ster 408621
_ name</w> 408538
d on</w> 408476
\ 0 408472
2 7</w> 408436
ro t 408381
stan ce</w> 408245
ic al 408133
wor d 408044
resource s</w> 408034
Read er 407904
[ 0</w> 407884
ll vm</w> 406736
V olume</w> 406610
scal e</w> 406376
get Instance</w> 406334
pu t_ 406174
qu o 405937
@ create 405756
U I 405493
c_ int</w> 405419
lo op 405320
@Polyglot_java_ util_ 405298
v 1_ 405229
or ds</w> 405210
qui re</w> 404722
ge n</w> 404633
Lo c</w> 404580
Text ure 404432
Id x</w> 404098
s ur 404046
alo g</w> 403858
C M 403673
E QU 403660
st ats</w> 403320
de script 402981
R ect 402853
S in 402681
t ab 402555
Proto col 402421
Aur a 402394
a u 402103
2 :</w> 401965
d w 401869
Ver tex 401835
EN D</w> 401759
l ate 401751
p lan 401213
R G 400725
64 _t</w> 400715
dock er</w> 400670
8 _t</w> 400508
O _ 400352
image _ 399917
Engin e</w> 399881
sq l 399854
cal led</w> 399761
M ute 399662
get String</w> 399647
W IN 399422
he ader 399422
TA _ 399358
U Int 399266
P ER 399221
Param s_</w> 399024
Tr ace</w> 398972
z ero</w> 398777
MI T</w> 398714
url Params_</w> 397887
%bb 8 397858
Que ue 397767
cre ature</w> 397728
pre vi 397502
@__GC_malloc( i64</w> 397332
w o 397134
rep res 397134
St at 396668
sp ring 396274
cre ated</w> 395973
b ar 395538
Al low 395189
s l 395081
Re set</w> 394992
Mod ule 394717
En viron 394562
B Y 394289
0x6 c</w> 394152
@ throw 394122
War n 394020
_ m 393989
un t 393939
set Text</w> 393756
bjec t</w> 393619
Li g 393385
3 3</w> 393001
Sp ace</w> 392977
r t</w> 392847
Mute x</w> 392607
ur i</w> 392453
pa rent 392356
Tag s</w> 391394
Wit h</w> 391386
E Q</w> 391351
M E</w> 391335
P lay 390919
ST AR 390776
de ploy 390694
SE T</w> 390638
pre ss 390372
I TE 390251
ic ro 389950
WARRAN TY</w> 389836
ste p</w> 389818
mo ck</w> 389740
Trans action 389664
acti ve 389511
CO L 389442
Rep lic 388966
%bb 9 388962
_P RO 388727
En v</w> 388517
IN I 388434
inter nal 388052
i64 ,</w> 387983
St op 387609
T y</w> 387431
hand le 387350
l s 387216
VER SI 386907
r and</w> 386273
s av 386210
enco ding</w> 385784
Per io 385734
wea k_ 385475
v ate 385474
lat form</w> 385446
FAL SE</w> 385432
l li 385223
Loc ation 385157
Execu tion 385064
%cdv_ty.java_ io_ 385054
0x6 3</w> 384821
T UR 384674
bec ause</w> 384559
Li mit</w> 384306
Un known</w> 384261
Co mb 384175
%a 1 384111
S cre 384092
oo p</w> 384055
S li 383780
at om 383750
v ol 383677
7 4 383086
En um</w> 383048
sp el 382957
EXP ECT_ 382766
Po sition 382756
s en 382734
use ful</w> 382552
No t</w> 382504
%class.java_lang_Object *,</w> 382242
point er</w> 382074
D N 381945
G oo 381707
W A 381462
Set s</w> 380948
multi p 380917
st op</w> 380368
Ac count</w> 380347
POR T_ 380136
b ound 379914
ri x 379889
m i</w> 379736
expre ssion</w> 379705
Di r 379664
Lev el 379650
s 1</w> 379640
reco gn 379523
C S 379314
provi ded</w> 379005
o dr</w> 378748
si s</w> 378438
C I 378302
do main</w> 378293
For m 378262
atu res</w> 378235
T E_ 378113
Set ting 378097
2 D</w> 377861
F ont</w> 377814
B its</w> 377460
er o 377416
ex it 377171
no re 377079
indvars. iv 376907
DEFAUL T_ 376800
all Errs</w> 376641
lo op</w> 376617
GE T_ 376611
lo t 376558
read only</w> 375938
con st_ 375506
to tal</w> 375344
c ach 375287
Initi aliz 375072
L at 374968
c b 374860
Su ite</w> 374735
S ur 374710
TO _ 374434
weak_ odr</w> 374421
x ml 374346
cr ate</w> 374234
L ength 374124
INV ALI 373806
Acti ve 373726
er min 373685
S SI 373684
%class.java_lang_Object *NEW_LINE</w> 373674
ac c 373558
invalid Params</w> 373525
al le 373520
Sel ect 373350
tr ac 373222
Direct ory</w> 373097
grap h</w> 373002
Dat abase 372723
arr . 372662
Coll ection 372510
En able 372484
loc ation 372330
ad dition 372209
con version</w> 372151
5 . 372113
0 8 372025
il er</w> 371546
cont roller</w> 371510
d ing 371426
0x0 2</w> 371370
d v</w> 371291
Re as 371267
d en 371052
SI GN 371043
%load. length 371018
Strateg y</w> 370912
mi ss 370642
rec ord</w> 370636
p lay 370141
am oun 370113
w er</w> 369978
String_ _ 369854
suc cess</w> 369815
te n</w> 369505
LE D</w> 369307
ro ug 369276
ge o 368925
tx t</w> 368685
P si 368389
de pend 368261
ell o</w> 367974
Link ed 367958
3 :</w> 367901
rig h 367768
c p</w> 367747
Op en</w> 367743
en ch 367738
publi shed</w> 367453
get Id</w> 367452
Comp ar 367342
i ou 367182
(%class.java_lang_Object *</w> 367180
Object_ 2 367063
en abled</w> 366985
service s</w> 366964
G R 366851
Po inter 366735
Ma ke 366644
Chan ge</w> 366561
4 "</w> 366491
f fic 366250
COP Y 366220
m ac 366115
Remo te 366072
I con 365867
_ to 365777
(%class. javax_swing_J 365622
s 2</w> 365599
uint 16</w> 365583
in di 365265
No ti 365172
der ive</w> 364772
num _ 364606
Memb er 364565
0x6 7</w> 364478
Do c</w> 364221
acti ve</w> 364041
CO R 363953
Do main 363844
suppor ted</w> 363658
4 8</w> 363491
net _ 363476
Identi fier</w> 363408
roo t 363405
uint 8_t</w> 363361
Array List 363316
ma x_ 362867
G u 362526
Ac cep 362360
disp lay 362283
opaqueNEW_LINE %class.java_ 362257
ST AN 362166
th ri 362146
ow ner</w> 361819
Ag ent</w> 361420
ro ut 361391
c ud 361328
arg ument</w> 361118
clo ud</w> 361065
exec ute</w> 360971
Applic ation</w> 360897
A tom 360716
lab el 360696
Fa ke 360693
mo ve 360678
7 ,</w> 360469
glo g</w> 360415
%load. arr. 360382
e ed</w> 360159
Sho w 360102
4 2</w> 360030
	 	 359982
Send er</w> 359923
Syn c 359598
iou til</w> 359435
ass oci 359266
doc ument</w> 359239
opaqueNEW_LINE %class.java_util_ 359169
Att r</w> 359157
c md 359028
Con dition</w> 359012
_c dv,</w> 358998
read _ 358766
Require d</w> 358671
op e</w> 358661
4 ,</w> 358633
F n</w> 358629
F ull 358509
( %class.java_util_ 358369
p res 358343
in fo 358279
tw o</w> 358252
in st 358098
Us age</w> 358072
e ar 358068
lab els</w> 358053
contro l</w> 358020
arg uments</w> 357983
p y</w> 357967
P res 357807
net work 357806
Scal e 357632
Sc roll 357540
c dv,</w> 357473
an ti 357442
list ener</w> 357391
Ro le</w> 357364
Contain er_ 357106
M ath</w> 356904
NO NE</w> 356792
0x7 0</w> 356773
Soc ket</w> 356718
}NEW_LINE @_string_lit_ 356644
Con n</w> 356509
Par se</w> 356391
%class.jlang_runtime_Array *)</w> 356315
tag s</w> 355995
Coun t 355613
match es</w> 355496
h oo 355040
ph i</w> 354932
soc ket</w> 354857
SU C 354712
extr act 354613
orig in</w> 354537
QU E 354535
Deploy ment 354383
inte lli 354296
compon ent</w> 354256
a il</w> 354225
Sequ ence</w> 354223
B atch 354142
e mit 354111
By te</w> 353900
s ort</w> 353761
Conver t_ 353603
mat rix</w> 353392
0 2 353350
sh ip</w> 353344
call back</w> 353174
spring framework</w> 352659
Rand om 352522
A T</w> 352334
F E 352143
Group s</w> 352001
st ack 351970
i e</w> 351663
ASSER T_ 351626
Dialo g 351431
app ly</w> 351307
cl i</w> 351072
e ss 350940
load_class( )</w> 350816
ver ti 350697
ac cess 350302
si c</w> 350255
i _ 350154
pass word</w> 350061
With Error</w> 350021
s ol 349906
al ong</w> 349407
9 6 349400
3 NEW_LINE</w> 349202
%class.jlang_runtime_Array ,</w> 349072
ca ster</w> 348911
ab o 348874
End point</w> 348821
Dim ension 348789
Cast Exception 348487
7 . 348068
_4 6 348035
U SE 347941
Dis k 347693
Cre denti 347662
I MP 347627
ac cess</w> 347577
De pend 347529
wr ong</w> 347426
For ce 347358
ff ff</w> 347187
Mem ory</w> 347134
v m 346936
3 5</w> 346922
I ds</w> 346917
api _ 346852
Share d 346827
bo ard</w> 346602
diff er 346502
d f 346388
el ine 346362
3 6</w> 346325
Marsh al</w> 346185
Jo b</w> 345791
Cur sor</w> 345556
Struc t</w> 345518
e m</w> 345494
know n 345183
W atch 345171
v ent 344960
plu gin 344786
P ut 344740
Q _ 344708
Mapp ing</w> 344643
Ch un 344488
%bb 6 344103
c d</w> 343999
P L 343928
ap is</w> 343845
gu id</w> 343815
_class ,</w> 343747
I g 343466
A D_ 343318
element s</w> 343220
VAL UE</w> 343198
%cdv_ty.java_lang_String *</w> 343171
@Polyglot_java_lang_String_ cdv,</w> 343171
Pre dic 343154
Err Invalid 343129
Lay er 343071
dock er 342943
tran sp 342857
Doc ker 342841
NE _ 342683
MEN T</w> 342449
re distribute</w> 342215
e mb 342169
D b 342161
s ub</w> 342122
t ool 342058
Load Balan 341965
h ad 341944
C lick 341867
Auth enti 341752
change d</w> 341599
butt on</w> 341539
AD D 341425
ou t_ 341150
5 ,</w> 341023
et her</w> 340791
add ress 340779
St yle 340388
se ed</w> 340372
Deco der</w> 340344
gen support</w> 340250
C U 339824
un expected</w> 339548
inte ger</w> 339485
O S</w> 339275
w ard 339090
disp lay</w> 339073
objec ts</w> 338975
%bb 10 338960
Co re 338811
_10 3 338733
F S 338656
Wor ld</w> 338594
T up 338427
An aly 338362
D y 338199
am es</w> 337965
d ro 337606
B ro 337552
1 \x 337203
In it</w> 337040
p ool</w> 337012
er e 336758
unreach able 336673
wi se</w> 336660
clo se 336655
8 _ 336601
V M</w> 336353
%interface.java_util_ List 336342
CO UN 336330
(%class.java_lang_Object *,</w> 336325
vari able</w> 336272
" *,</w> 336221
OB J 336195
8 6 336160
mar y 336082
al low</w> 335934
E mpty 335688
u mp 335620
arg v</w> 335507
G C 335391
Ar ti 335301
fact ory</w> 335301
%class. javax_swing_ 335052
LI N 335040
al t</w> 335031
FA I 334987
A udio 334973
gro und 334900
war ran 334723
M i 334667
provid er</w> 334360
to k</w> 334304
g ame 334294
ex it</w> 334291
d river</w> 334166
Ter min 334119
serial ize</w> 334102
er arch 333586
Back ground</w> 333518
1 e 333333
G S</w> 333279
s a 333238
Pu sh 333225
add _ 333047
re quire</w> 333039
No te</w> 332902
get Type</w> 332878
SH A 332761
_ id 332751
secon ds</w> 332578
g an 332455
buff er 332445
cont ent 332314
C riteri 332311
attribu tes</w> 332289
Be an</w> 332252
sho w</w> 332234
Remo ve</w> 332229
(%class.java_awt_Container *,</w> 332125
F alse</w> 332100
Spec ifi 331997
Bund le</w> 331936
Con dition 331907
A ff 331731
0 _ 331679
m ach 331479
trans action</w> 331458
_4 5 331422
pa int 331409
cur sor</w> 331389
r ule</w> 331297
he ad</w> 331158
tri b 331003
D WORD</w> 331001
KE Y</w> 330995
exp ect</w> 330873
Plu gin</w> 330825
P RE 330723
al so</w> 330692
O c 330642
vi sion 330283
4 _ 330125
lin es</w> 330058
Inter val</w> 329794
0x1 2</w> 329623
U int 329617
Gener ator</w> 329508
it or 329459
g p 329333
s ure 329287
c ar 329214
Buc ket 329096
3 7</w> 329061
Error s</w> 329054
To String</w> 328837
a ded</w> 328504
0x 64</w> 328488
vi sion</w> 328332
ab str 328306
mode ls</w> 328075
amoun t</w> 328041
me m</w> 328038
b ounds</w> 327633
warran ty</w> 327627
D one</w> 327522
5 1</w> 327517
F UN 327484
Be an 327454
e k</w> 327273
Bin ary 327256
En c 327224
CHEC K_ 327078
c ent 326826
Auth oriz 326814
Ljava_lang_ Object_2 326572
o se</w> 326544
i ve 326523
IllegalArgument Exception</w> 326468
G ui 326397
Provid er 326384
SELE CT</w> 326360
intelli j</w> 326331
INF O</w> 326147
@Polyglot_java_awt_ Container_ 326139
syn chron 326092
le v 325972
regi ster</w> 325782
0x0 a</w> 325687
Cont roller 325654
in ner</w> 325645
rep o</w> 325384
windo w 325186
Serv let 325179
se ssion 325096
I p 325027
ate _ 324979
Cl one</w> 324934
A x 324923
r ate</w> 324853
d um 324830
constan t</w> 324824
3 9</w> 324800
Imm utable 324725
TA R 324477
Sy s 324407
Det ails</w> 324392
men u</w> 324158
S ample 324104
thri ft</w> 324045
Array s</w> 323889
Pro xy 323842
h ope</w> 323783
u x 323768
E qual 323644
W rapper</w> 323545
map _ 323282
1. 0f</w> 323176
Mat rix 323170
re g</w> 323151
Sing le 323129
DE R</w> 323069
9 7 322975
h ist 322937
descript or</w> 322928
Eff ect 322643
en um 322633
G RO 322544
c ustom 322474
pre v 322448
tr ace</w> 322284
NO _ 322276
p attern</w> 322067
gr pc</w> 321890
W al 321684
po ssi 321623
wor ld</w> 321605
Pro cess</w> 321594
AM _ 321553
_ f 321489
2 NEW_LINE</w> 321331
Vi deo 321217
distribu tion</w> 321196
Run n 321074
H AND 320977
UNI T_ 320695
le an 320601
k it</w> 320555
d x</w> 320502
s List 320330
DAT A</w> 320173
Metri c 320157
Is Nil</w> 320144
R ight</w> 319880
Int ent</w> 319759
r yp 319514
pro ject 319459
AS E</w> 319284
boo k</w> 319216
b ro 319150
ge st 318877
clo ud 318756
func tions</w> 318652
ap im 318591
Loc al</w> 318552
D rop 318478
Ob j 318370
e ar</w> 318288
S ca 318265
ma il 318185
MEN T_ 318142
ne ed 318138
_101 _114 317931
14 9 317889
MA X</w> 317681
Ar ch 317625
RES UL 317608
abo ve</w> 317592
al ways</w> 317554
pro xy</w> 317315
ad s</w> 317205
Que st 317008
ation _ 316907
C tx</w> 316841
12 34 316769
int 32_t</w> 316621
FI LE</w> 316375
EV ENT_ 316181
arra y 316165
g t</w> 315969
Exter nal 315959
cle an 315836
wal let</w> 315806
Comp o 315670
C ore</w> 315567
coll ect</w> 315443
No Error</w> 315211
O P</w> 315164
rep lace 315136
s ave 315063
ul t_ 314946
S lice</w> 314599
Rep ort 314585
AB LE</w> 314459
cp u</w> 314411
cp p</w> 314390
SE T_ 314259
0 4 314199
sh a 314160
cal cul 314025
FLA G_ 313978
Over flow 313889
per sist 313807
TR AN 313750
a ur 313683
g le</w> 313574
Sp an</w> 313440
chan nel 313430
mar k</w> 313307
H TM 313261
A re 313190
_32 _32 313181
_9 8 312993
fu ture</w> 312933
File Name</w> 312852
wa it</w> 312769
Pro file 312712
s Input</w> 312602
u x</w> 312576
WAR E</w> 312519
hash Code</w> 312378
Vari able</w> 312236
Imp ort 312126
sho uld 312120
b ility</w> 312000
da y</w> 311986
memb er</w> 311871
at _ 311590
d d 311523
c ket</w> 311413
SLO T</w> 311303
Stati c 311302
E q</w> 310705
Pa rent 310679
colum n 310635
C ell</w> 310425
g ame</w> 310363
metho ds</w> 310272
s 2 310241
hav i 310194
m ent_ 310144
n i 310045
doc ument 309948
Publi c 309880
proper ty 309683
Met adata 309585
w ard</w> 309132
MS G_ 309112
ser de</w> 309062
Ev ents</w> 309000
De f</w> 308615
type _ 308576
u 64</w> 308261
%load.arr. elem 308259
00000000 00000000 308248
mod ule 308068
s lot</w> 308051
(%class.java_awt_ Window 307951
exec u 307936
secur ity</w> 307816
ri ver 307438
_to String__ 307173
p acket</w> 307118
SO FT 307002
en tries</w> 306969
over ride</w> 306854
Secon ds</w> 306841
To tal 306825
C F 306785
Qu al 306089
Ag greg 306025
5 "</w> 305998
an aly 305921
le x</w> 305815
defin i 305771
D river</w> 305767
s Request</w> 305690
Eff ect</w> 305676
@throw UnwindException(i8*</w> 305409
8 4 305403
Atom ic 305283
h pp</w> 305235
polic y</w> 305054
run ning</w> 305014
con cat 304967
O th 304908
St op</w> 304611
AT E_ 304560
E l 304551
Cre ated</w> 304409
Sel ection 304375
%class.java_io_PrintStream *,</w> 304345
at ors</w> 304293
am l</w> 304186
Gate way 304167
c y</w> 304019
CON FI 303966
0x0 4</w> 303913
3 8</w> 303696
tr l</w> 303534
time stamp</w> 303509
spli t</w> 303425
cle ar 303405
ch ain</w> 303347
had oop</w> 303344
m u</w> 303271
registr y</w> 303219
Row s</w> 303203
S cop 303159
o _ 302884
S ave 302882
C ell 302794
4 j</w> 302664
auth oriz 302498
f ont</w> 302493
*) **</w> 302477
ab ility</w> 302285
recogn ized</w> 302172
He alth 302133
f fix</w> 302082
U I</w> 302071
Sec ret 301991
adi us</w> 301920
Expre ssion 301716
NO T_ 301708
de v</w> 301635
AS T</w> 301547
0x7 5</w> 301514
Pro file</w> 301461
az ure</w> 301432
_10 2 301375
d am 301346
Info _ 301344
ERR OR_ 301015
el ine</w> 301011
aut h</w> 300853
In st 300841
Defini tion 300780
H older</w> 300761
App ly 300582
j ust 300551
s of 300486
im e</w> 300469
p l 300403
Ma ster 300388
H ER 300289
it u 300241
ch ain 300051
Objec ts</w> 300050
ST R</w> 300048
SOFT WARE</w> 299986
Container State</w> 299935
Regi ster</w> 299798
we en</w> 299760
coun ter</w> 299475
At tr 299348
addition al</w> 299238
n els</w> 299112
%class.java_lang_ Integer 299031
AC E</w> 299011
exp ect 298971
%bb3 NEW_LINE</w> 298968
s ave</w> 298882
lig ht 298878
write _ 298732
u r</w> 298676
M B 298533
or ies</w> 298454
li brary</w> 298261
b ad</w> 298201
KE Y_ 298110
Inf of</w> 298059
8 7 297938
bu f 297935
P H 297828
lu a_ 297691
fr ag 297603
COPY RIGHT</w> 297380
le ep</w> 297368
de _ 297307
AC E_ 297217
co m_ 296946
b s</w> 296862
we b</w> 296839
di rection</w> 296779
In form 296764
F low 296724
e mon 296634
g l</w> 296623
New Error 296339
__ Ljava_awt_ 296231
In clu 296102
A mount</w> 296080
po ds</w> 295972
_101 _32 295560
err s</w> 295511
b er 295260
mer ge 295247
con stra 295178
v s</w> 295080
C md 295049
am az 294807
Sh ape 294721
an im 294686
de pth</w> 294650
p tr 294440
ps z 294426
%a1 )</w> 294396
ter min 294351
Pe er 294315
L D 294198
Throw able 294175
u l</w> 294088
Proper ties 293994
add ing</w> 293963
CE SS</w> 293891
Retur n 293751
f l 293720
V e 293602
Name space 293533
0x0 3</w> 293515
m l_ 293498
FI L 293438
de bug 293303
Net work</w> 293176
XX X_ 293100
] NEW_LINE</w> 293093
Point s</w> 293026
AP _ 292953
block s</w> 292917
ne ss</w> 292763
cur red</w> 292624
Grap h 292545
ag no 292539
Ali gn 292452
po s 292439
Pack age 292347
f oo 292275
Replic ation 292225
split - 291605
Parti al 291558
rt ual</w> 291403
%call 1</w> 291394
%class. sun_ 291364
8 "</w> 291295
ge st</w> 291000
HTT P</w> 290998
INT ER 290927
0 9 290714
Charac ter 290628
Scal e</w> 290531
i es 290498
righ ts</w> 290494
P A 290160
d st 290152
ext ensions</w> 290109
P la 290096
Pack age</w> 290084
s lice</w> 290033
ab out</w> 289997
MA S 289804
p 1</w> 289668
Ass ign 289483
annot ations</w> 289429
Sched ul 289136
_toString__ Ljava_lang_Object_2 289057
ver y</w> 289053
@Polyglot_ jlang_runtime_ 289053
Helper _toString__Ljava_lang_Object_2 289053
@Polyglot_jlang_runtime_ Helper_toString__Ljava_lang_Object_2 289053
la p 288886
SIGN AL</w> 288867
suc cess 288792
or ter</w> 288584
B ad 288389
as yn 288275
%cast. er 288188
lig ht</w> 287990
P C 287968
op t 287884
STATU S_ 287839
Struc t 287606
Option al</w> 287591
Mapp er</w> 287334
Valid ate 287234
n io_ 287130
per s</w> 287061
Hi erarch 287008
Do main</w> 286990
att ach 286661
NewError WithError</w> 286621
NO TI 286612
oriz ont 286487
c ache 286483
ach in 286279
_P O 286125
R ate</w> 286040
abstr act</w> 285957
a y</w> 285954
0x 10</w> 285800
sum er</w> 285791
Fe ature 285764
F LO 285638
id d 285517
Sq l 285483
5 6</w> 285431
T U 285410
he aders</w> 285237
Not Found</w> 285211
Op ts</w> 284775
AS F</w> 284713
S L 284695
Mat eri 284628
IN CL 284527
class ,</w> 284481
Par t</w> 284477
w allet 284383
O TH 284368
pre c 284304
m ut 284282
unreachable NEW_LINENEW_LINEbb 284224
C UR 284097
%bb 11 284028
Ch ain 283876
l ers</w> 283696
H _ 283670
mat eri 283657
met ry</w> 283634
Vari ant</w> 283588
Metri cs</w> 283300
TE ST</w> 283296
W allet 283261
b in</w> 283234
add r 283212
U p</w> 282997
U UID</w> 282949
t ools</w> 282912
sec tion</w> 282827
Pro xy</w> 282655
0x ff 282455
v en 282398
msg len</w> 282397
% indvars.iv 282324
Lo ad</w> 282312
b ility 282304
apim achin 282266
A V 282129
Sched ule 282093
mat h_ 282065
Ret ry 281894
D 3D 281852
P E 281762
T x</w> 281745
TI ME 281503
4 4</w> 281109
per son 281007
aw t</w> 280881
D ic 280829
A sync 280784
inter pre 280742
Ro t 280695
ow ner 280646
S m 280643
sequ ence</w> 280515
re st</w> 280467
a g</w> 280342
Re serv 280172
n ative</w> 280142
tex ture</w> 280051
be an 280045
sp ell</w> 280031
user name</w> 279988
det ermin 279984
_ size</w> 279921
par ts</w> 279865
Ac cessi 279782
valid ate 279614
# else</w> 279553
re al 279060
Par ser 278896
if t 278844
H oo 278814
_ )NEW_LINE</w> 278687
Coun ter</w> 278585
olu tion</w> 278565
Pass word</w> 278502
Contain s</w> 278461
sub scription 278458
CON T 278447
Coll ections</w> 278353
Ste p</w> 278331
t olu 278320
Fir st</w> 278229
LOC K</w> 278055
split- lp 277995
col or 277987
PO ST</w> 277984
A M</w> 277925
ur ls</w> 277782
M in</w> 277703
c m 277539
c ateg 277462
Boo l 277117
alph a 277006
con trib 276783
F et 276705
pa ss</w> 276514
b ound</w> 276484
O P_ 276437
m is 276283
b la 276161
GE R</w> 275826
alph a</w> 275771
Reas on</w> 275755
z one</w> 275568
apimachin ery</w> 275289
4 1</w> 275282
z z 275195
child ren</w> 275073
By Id</w> 274982
id den</w> 274974
make _ 274959
co in</w> 274817
arg c</w> 274808
) "</w> 274759
S R 274700
ab ili 274382
cp y</w> 274280
Valid ation 274271
do es 274170
gorith m</w> 273856
opaque NEW_LINENEW_LINE 273855
ust om</w> 273625
Local e</w> 273621
En cryp 273576
reser ved</w> 273461
l ing</w> 273393
b or 273331
tolu a_ 273225
In st</w> 272978
W N</w> 272948
co uld</w> 272879
c l</w> 272765
i de</w> 272710
suppor ted 272700
Fla g 272656
Ext ension 272612
v as</w> 272595
__Ljava_lang_String_2( %class.java_lang_String*</w> 272508
BU FF 272423
EN _ 272346
ex ist</w> 272312
5 3</w> 272288
se _ 272261
Exist s</w> 271888
ver y 271822
s napsho 271821
0x7 F</w> 271701
Ur i</w> 271693
share d</w> 271652
f er</w> 271621
co in 271565
par t 271430
roug h</w> 271266
f 64</w> 271189
sel ect 271167
i8 ] 271156
Pre parer</w> 271148
s i</w> 271135
r o</w> 271066
) " 271035
Vari able 270984
cu r</w> 270740
se par 270640
d a</w> 270636
Bin ary</w> 270495
trig ger 270419
ar ti 270402
e f</w> 270367
h i</w> 270256
@Polyglot_java_lang_String_ concat 270239
%cdv_ty.java_ awt_ 270072
2 \x 269945
at er 269889
charac ter</w> 269886
a \x 269773
un it 269745
Buil d</w> 269435
Af ter 269325
o ver</w> 269083
Mess ages</w> 269036
\ NEW_LINE</w> 269021
_105 _110 269021
Valid ate</w> 268961
con dition</w> 268871
S S_ 268856
D r 268788
check ed</w> 268704
5 9</w> 268646
c al</w> 268635
C a 268545
ax is</w> 268511
A z 268427
String Builder</w> 268339
jo in</w> 268151
B rea 267954
STAT E_ 267905
M D 267831
5 2</w> 267815
4 5</w> 267760
Re al 267747
sp aw 267723
spel l_ 267608
noti ce</w> 267522
ME TH 267473
Trans form 267463
Clu ster</w> 267330
Sequ ence 267262
v ed 267120
Class CastException 267098
metri cs</w> 267095
P tr 266946
_111 _110 266863
F lu 266689
wh ether</w> 266676
RP C 266669
CH AR 266507
st and 266383
F ree 265931
W RI 265894
RE AD 265565
t en 265552
%cast. interface 265492
O n</w> 265235
Tex ture</w> 265083
10 24</w> 265018
K ube 265000
De f 264869
SU B 264808
func tion 264747
me s</w> 264695
Al ph 264639
. get 264560
T ER_ 264464
oper ator</w> 264454
f \x 264446
B l 264296
Ma in</w> 264289
d uration</w> 264245
Suc cess</w> 264166
Cre ature 264094
Sy mbol 264022
r hs</w> 263972
_ 2 263968
ab s</w> 263838
V O 263762
< Q 263558
DA MA 263550
9 9</w> 263523
i 1 263457
sing le</w> 263403
0x C 263269
Byte s 263199
_P AR 263140
f c 263101
Stand ard 263089
S K 262917
enti ty 262815
ed itor</w> 262759
go _ 262721
ma ster</w> 262692
comm ent</w> 262691
Acti ve</w> 262505
Look up 262401
Grap h</w> 262387
SI G 262211
O ri 262165
sched ul 262148
r ust 261904
option al</w> 261884
mess ages</w> 261868
Certific ate 261728
Af ter</w> 261653
For m</w> 261467
On e</w> 261430
get Class</w> 261214
d \x 261171
e e 261153
}NEW_LINE %interface.java_util_ 261128
sk ip</w> 261072
FOR MA 261061
Sh ort 260941
Ac cess</w> 260694
J son</w> 260580
pay load</w> 260334
ad ap 260214
l o</w> 260204
3 f</w> 260176
API Version</w> 260114
KE Y 260056
SQ L</w> 260020
ic k</w> 259997
wh at</w> 259940
H ave 259900
ID s</w> 259796
im um 259787
n d 259770
U SE</w> 259614
c \x 259539
ca t</w> 259487
VAL U 259370
li ke</w> 259359
ffff ffff</w> 259355
Ne st 259312
lic k</w> 259305
G uid</w> 259249
i ver</w> 259218
F L 259148
scre en</w> 258917
sv c</w> 258882
gener ate 258878
N U 258844
EC T</w> 258743
C amer 258712
i i</w> 258581
bet ween</w> 258529
g it</w> 258427
8 6</w> 258368
3 \x 258340
en able 258323
resh old</w> 258175
x 1</w> 258171
lip se</w> 258128
Pan e</w> 258079
local_unnamed_addr NEW_LINENEW_LINE 258008
Po ds</w> 257950
Uti li 257890
N ative 257884
Inter rup 257812
AM E 257704
e lastic 257671
sy mbol</w> 257658
" 1"</w> 257577
%bb 12 257368
CO M 257348
the y</w> 257317
allow ed</w> 257250
%class.null ,</w> 257174
r g 257158
t 1</w> 257150
ty p</w> 257146
m_ b 257019
_ To_ 256865
U P</w> 256831
Di ff 256799
F ol 256783
%c lass</w> 256767
%class ,</w> 256767
%class. null</w> 256767
G L</w> 256763
0 7 256750
TA G</w> 256644
d c</w> 256526
F o 256435
r s 256417
Dow n</w> 256361
act ual 256342
rep ly</w> 256334
ST E 256305
group s</w> 256298
c t</w> 256292
Co in 256292
0x 1</w> 256257
Ad min 256219
rig ht 256160
vi rtual</w> 256099
ra ft</w> 256069
ma n</w> 256028
t in 255933
Visi ble</w> 255838
R ol 255796
8 ,</w> 255681
Hash Set</w> 255391
base d</w> 255361
cor rect</w> 255323
bo ard 255297
up lic 255239
Edit or</w> 255203
Pro gress 255151
implement ation</w> 254991
Ap i</w> 254980
B L 254924
Sub scription 254855
Re q</w> 254842
codec Self 254750
st at</w> 254687
pre dic 254638
6 3</w> 254535
pre v</w> 254527
er_ container 254500
codecSelf er_container 254477
Nul lable</w> 254151
ro id 254111
Frag ment</w> 254053
pro jec 253974
leg ate</w> 253970
Notific ation 253912
r m 253735
Render er</w> 253595
rea son</w> 253589
RO M_ 253586
VERSI ON</w> 253528
Ex ec</w> 253524
data _ 253491
tim er</w> 253427
statu s 253316
udi o</w> 253251
proto 3</w> 253248
%"op 17 253185
c b</w> 253172
Pri vate 253024
METH O 252857
c ell</w> 252803
F B 252663
b \x 252617
ou g 252467
equal s 252380
Categ ory</w> 252340
po si 252304
Send ContainerState</w> 252250
wor ds</w> 252124
4 3</w> 252025
0x E 252013
proto impl</w> 251993
de v 251976
amil y</w> 251944
h ref</w> 251850
rep lace</w> 251831
d ay 251823
s li 251622
bu cket</w> 251581
for ce 251531
Ev ent_ 251305
suc h</w> 251233
STR ING</w> 250978
Are a</w> 250978
Multi p 250927
attr s</w> 250755
Context *,</w> 250754
Wid get 250751
trans form</w> 250728
ent er 250684
D D 250648
un known</w> 250549
value Of</w> 250544
56 )NEW_LINE</w> 250476
Po pu 250372
Ch an</w> 250370
%load. out 250341
Oper ator</w> 250300
al loc</w> 249965
In di 249946
FIEL D_ 249892
DI RE 249806
Memb er</w> 249776
di sc 249614
Bind ing</w> 249509
C TION</w> 249494
LI MI 249491
Snapsho t 249491
i32) *,</w> 249446
ac count 249400
UT F 249379
5 5</w> 249369
3 D</w> 249232
sel ected 249160
iz ed 249031
d l 249003
file Name</w> 248989
lo b</w> 248872
ad ded</w> 248775
M iss 248750
M ut 248718
B ounds</w> 248718
FI LE_ 248575
Inter nal</w> 248568
Hierarch y 248521
SS A 248472
di alog</w> 248412
P reference 248291
_ 6 248227
B ran 248182
nex t_ 248001
Ext ension</w> 247999
F ac 247956
99 99 247947
Option s 247874
SY S_ 247844
Pr int</w> 247784
Disp lay</w> 247779
AT H</w> 247607
u a 247512
7 8</w> 247481
Marshal JSON</w> 247442
Sche me</w> 247341
ip p 247252
t f</w> 247196
go lang</w> 246964
Orig in 246779
Sel ected 246766
get Message</w> 246758
gan iz 246694
ed ge</w> 246627
Ow ner</w> 246606
Err Int 246421
Di stri 246415
and _ 246153
B AC 246140
Not Found 246107
App end 246041
yy m 245972
identi fier</w> 245955
Fix ed 245906
v 1"</w> 245876
g c</w> 245872
ST A 245809
NEW_LINE } 245801
ver ify</w> 245737
m m</w> 245707
p ag 245670
N O</w> 245594
Inser t 245504
ErrInt Overflow 245399
5 f</w> 245225
ge p 245201
% ex 245068
with _ 244949
0x6 d</w> 244903
CON NE 244774
ma z 244716
b b</w> 244681
does n</w> 244664
Setting s 244584
I ss 244574
p 2</w> 244378
e mpty 244330
grap hic 244189
us r</w> 244047
Contain ers</w> 244029
@Polyglot_jlang_runtime_Helper_toString__Ljava_lang_Object_2 (%class.java_lang_Object*</w> 243939
Av ai 243923
ste ad</w> 243884
S wit 243700
set ting</w> 243683
Disp atch 243581
(%class.javax_swing_J Component 243485
%" c 243480
u ally</w> 243473
S ort 243293
NEW_LINENEW_LINEbb 4 243253
mo del 243194
is h</w> 243194
A X 243180
e sc 243161
\ 2 243161
lic it 243006
ver se</w> 242882
star t_ 242829
O S 242703
P lace 242654
Hash Map 242568
0x 000 242529
rand om</w> 242512
sel ected</w> 242493
s lt</w> 242464
im g</w> 242460
the m</w> 242397
E FF 242365
use s</w> 242170
p v 242160
type def</w> 242144
%"c dv_ty 242139
e a 242080
Comm on 242068
h ello</w> 241953
A I 241905
comp are 241814
Project s 241784
RESUL T</w> 241675
S af 241635
With Context</w> 241583
HER E</w> 241488
log ging</w> 241450
f g</w> 241427
f ull 241268
be gin 241246
UD ING</w> 241167
Sy mbol</w> 241146
DE LE 241105
i ce 241090
Iter ator 241055
A UR 241038
EN TI 240966
Z one</w> 240897
AR RA 240730
INCL UDING</w> 240726
CO DE</w> 240580
I P_ 240461
_ _</w> 240399
P end 240330
9 0</w> 240304
A N</w> 240266
fin ally</w> 240159
Ig nore 240100
colum ns</w> 240077
Bo t 240031
0x5 2</w> 240022
conver t 240022
Sec ret</w> 239961
st ers</w> 239959
Identi ty 239939
t up 239833
P P 239762
%class.java_lang_String*) )NEW_LINE</w> 239663
le ss 239609
l ing 239595
C li 239445
b on 239430
Ph y 239308
C H</w> 239275
enc y 239274
attribu te 239270
A n</w> 239216
De pth</w> 239203
%bb3NEW_LINENEW_LINEbb 2:</w> 239189
P op 239132
f ound 239124
spell Info</w> 238989
@create UnwindException(i8*</w> 238980
vari ables</w> 238952
f 32</w> 238825
th rough</w> 238740
4 6</w> 238630
p id</w> 238610
Activ ity 238597
contain s 238591
ro le</w> 238563
s / 238405
I O</w> 238387
S ection</w> 238325
Ch at 238277
Process or</w> 238268
S en 238223
w are</w> 238153
ut down</w> 238145
trans l 238088
6 . 238056
n umber 237994
co mb 237800
Warn ings</w> 237728
K ub 237719
8 . 237702
%interface. javax_swing_ 237699
5 _ 237678
Be fore 237671
un ch 237593
DA TA_ 237536
Edit or 237489
Tr av 237459
Pre t 237383
Constan t 237364
de o</w> 237356
c ard 237347
respon se 237284
Ter m</w> 237275
o log 237274
2 f</w> 237245
P atch 237155
%"cdv_ty . 237074
" *</w> 236979
tar get_ 236970
Element s</w> 236904
r ust</w> 236877
h igh 236873
C ar 236828
norm al</w> 236824
i8 *)</w> 236823
m ag 236785
ap _ 236559
ME SSA 236497
ic _ 236479
ro y 236390
L iteral</w> 236370
ti m</w> 236333
si ve</w> 236296
ad ow 236024
Ob serv 235926
%class.java_awt_ Dimension 235852
0x1 8</w> 235686
6 \x 235599
Test s</w> 235574
re st 235566
TEX T</w> 235505
" 1. 235504
Ele m</w> 235489
Off set 235415
f x</w> 235383
ne g 235364
0x2 8</w> 235140
S C_ 235123
retur n 235086
stor age 235001
1 f</w> 234912
i ed</w> 234901
B order 234867
op s</w> 234836
E D 234823
0x6 6</w> 234815
AS E_ 234767
Man age 234683
Jo in 234671
0x2 f</w> 234558
M AR 234539
ul l</w> 234470
Colum ns</w> 234446
atter n 234441
c ip 234440
men ted</w> 234416
0. 0. 234410
st amp 234408
Sh ort</w> 234377
s Output</w> 234285
P ub 234280
149 ( 234256
s By 234173
si te 234153
P orts</w> 234136
%class.java_awt_ Color 234018
. split-lp 233919
en ded</w> 233900
7 3 233859
%"op17 149( 233848
associ ated</w> 233753
ind ic 233726
lib c</w> 233639
arg 1</w> 233613
Sup port 233586
N F 233573
%"op17149( gep 233482
s ample 233454
Parti tion 233333
ad o 233311
iz er</w> 233224
Run ning</w> 233207
XX X 233183
5 7</w> 233109
f ec 232907
Type _ 232906
stic s</w> 232906
Constan t</w> 232850
for ms</w> 232686
%bb3NEW_LINENEW_LINEbb 3:</w> 232663
s Per 232570
Ser ial 232425
Boo lean 232399
SC RI 232277
Exp r 232236
e valu 232203
req Headers</w> 232162
@Polyglot_ javax_swing_J 231977
C AL 231681
Child ren</w> 231663
em on</w> 231638
last _ 231585
Format ter</w> 231492
%interface.java_awt_event_ Mouse 231466
al th</w> 231459
i8 ]</w> 231401
c 1</w> 231363
cal ls</w> 231358
Go String</w> 231338
k es</w> 231317
i con 231214
6 5</w> 231185
_ 58 231084
AC TI 230931
RE SS</w> 230887
V ER</w> 230798
z z</w> 230748
M AT 230635
9 ,</w> 230618
N av 230591
opaqueNEW_LINE%class.java_io_ Object 230490
e qual</w> 230432
auth enti 230416
Big Decim 230395
C T_ 230379
%c all</w> 230323
t k</w> 230262
ext ension 230254
C ach 230177
an other</w> 230037
M icro 230029
S E_ 230014
_ data</w> 229826
Mo tion 229801
be ing</w> 229759
location Name</w> 229727
Da emon 229699
d d</w> 229657
CO MM 229557
in ation 229518
Exec ut 229372
or g_ 229323
id ent</w> 229244
Dy namic 229241
att le 229119
Constra int</w> 229034
M E_ 229006
sy s</w> 228988
e \x 228981
ec ts</w> 228969
all er</w> 228956
del ta</w> 228926
Spli t</w> 228916
%bb 13 228913
ic on</w> 228908
b ig 228898
use d 228853
@Polyglot_java_lang_String_concat __Ljava_lang_String_2(%class.java_lang_String*</w> 228769
Cal cul 228589
t ree 228521
us age</w> 228488
re lease</w> 228445
v1beta 1</w> 228427
Trans form</w> 228384
s In 228336
s d</w> 228319
Sel ection</w> 228298
0. 5</w> 228198
o t 228161
of _ 228152
Log ger 228064
igh ts</w> 227991
per io 227964
y aml</w> 227946
Persistent Volume 227865
c er</w> 227853
S im 227700
possi ble</w> 227699
que ue 227667
skip py</w> 227614
Milli s</w> 227532
Calend ar 227503
sr v</w> 227485
v 4</w> 227354
p th 227344
DE D</w> 227316
B i 227308
5 4</w> 227288
a ff 227269
U _ 227259
Distri bu 227103
sig n</w> 227038
state ment</w> 226963
re main 226837
differ ent</w> 226812
SUC CESS</w> 226742
Bo dy 226740
f ree 226730
t f 226720
ig r 226706
exist ing</w> 226674
Co lo 226672
ta b</w> 226497
4 9</w> 226487
el et 226485
ro und</w> 226465
b an 226464
%cast.interface .method 226409
ext ension</w> 226388
0x F 226359
Sup press 226323
re al</w> 226294
6 "</w> 226232
rule s</w> 226181
Pri ority</w> 226147
IN T_ 226135
E N</w> 226054
IN STAN 226043
miss ing</w> 226026
CH AR</w> 226019
n p 225991
4 7</w> 225975
Sup port</w> 225974
my sql</w> 225856
0x ffffffff 225826
Constra ints</w> 225776
String s</w> 225750
XM L</w> 225744
E D_ 225628
to o</w> 225561
_4 9 225520
const_ iterator</w> 225396
Oper and</w> 225119
A maz 225061
AC TION_ 224931
\x00\x00 \x00\x00 224894
mapp ing</w> 224838
ful l</w> 224762
synchron ized</w> 224621
parse _ 224515
In struction</w> 224490
Exp ect 224488
pe er</w> 224430
B E</w> 224373
_1 18 224340
si g</w> 224314
for med</w> 224304
comp ute</w> 224244
Cur sor 224170
d ur 224118
_111 _114 223986
Call back 223876
Fil ename</w> 223870
no te</w> 223858
C TION_ 223821
I gn 223820
7 0</w> 223751
in stead</w> 223744
IN DE 223663
C D 223619
B r 223544
Annot ation</w> 223352
sit e</w> 223332
65 53 223265
Se par 223250
A rea 223199
bot tom</w> 223175
Pay load</w> 223140
S V 223114
exec ute 222935
ic tim</w> 222911
%class.java_lang_Class * 222866
o de</w> 222859
con structor</w> 222686
ifi er</w> 222675
TRI BU 222620
N I 222577
2 D 222535
0000 0</w> 222428
_32 _</w> 222345
sp ect 222238
H A 222202
_1 21 222197
Enco der</w> 222183
G A 222034
N G</w> 222032
Trans fer 222015
n def</w> 221842
Rule s</w> 221809
Modi fi 221773
Replica s</w> 221632
St at</w> 221536
LoadBalan cer 221532
so le</w> 221529
ic al</w> 221496
Cle an 221331
coll ection</w> 221321
conver t</w> 221315
Date Time</w> 221236
5 \x 221209
R D 221004
p index 221004
%"op 18 220876
sche ma 220825
xx x_ 220751
f p</w> 220735
Path s</w> 220692
spac es</w> 220679
m ul 220656
5 00</w> 220647
Be fore</w> 220639
al et 220637
ctx t</w> 220506
or ted 220497
C y 220483
AR E</w> 220433
st s</w> 220428
__ ( 220422
Ver ti 220405
Perio d</w> 220379
0x0 8</w> 220367
it o</w> 220335
Be gin</w> 220278
L a 220238
Fin i 220227
cont ents</w> 220224
ro y</w> 220151
lat form 220148
0x 32</w> 220124
fec y 220068
N an 220060
W rap 220006
Re lease 219979
(%class.java_lang_ Enum 219977
MA X 219929
re qu 219904
ed it 219861
Sup por 219774
sig nal</w> 219726
Resol ver</w> 219691
he ad 219671
l ong 219440
grap h 219405
Mar k 219395
co ls</w> 219351
ErrInvalid Length 219345
Stack Trace</w> 219344
per mission</w> 219307
at ing 219162
Produc t 219144
W HERE</w> 219132
ver ify 219071
Ti le 219066
Comm it 219061
user s</w> 218995
gn u</w> 218982
ite m_ 218963
xxx_ message 218858
4 \x 218857
en tr 218829
ec lipse</w> 218810
E dit</w> 218778
s ample</w> 218628
INVALI D_ 218602
E MP 218467
%class.java_lang_String*) ,</w> 218464
M is 218438
_un recognized</w> 218433
XXX _unrecognized</w> 218271
Block s</w> 218222
Throw able</w> 218205
Pack et 218195
Ver tex</w> 218189
se c</w> 218162
inc ip 218107
no tific 218100
Re set 218077
Environ ment</w> 218026
en viron 217997
m ouse 217994
alo g 217986
De sc 217964
scri b 217920
x 2</w> 217859
rep e 217802
UP DAT 217783
en cryp 217745
q l</w> 217729
ter m</w> 217699
Lo wer 217565
H igh 217498
sof t</w> 217467
token s</w> 217363
struc t 217232
Con f</w> 217063
Aff in 216976
Wa it</w> 216973
w ho 216955
s la 216949
M A</w> 216935
ele m</w> 216824
SCRI P 216783
men u 216723
Re t</w> 216628
di stance</w> 216593
ch o 216588
F R 216412
CH _ 216325
su bject</w> 216168
ti ck 216160
c r</w> 215904
p n 215740
Le ft 215635
0x B 215550
co ordin 215514
Comm ent</w> 215510
u uid</w> 215425
for ce</w> 215417
O pt 215286
0xffffffff ffffffff</w> 215148
s Service</w> 215143
7 \x 215112
other wise</w> 215110
ut f 215057
can cel</w> 215056
Se arch</w> 214983
trac ing</w> 214970
5 :</w> 214931
E valu 214889
RE AC 214876
Det ail 214850
Rep lace</w> 214719
Type Id</w> 214641
en try 214566
( i8*)</w> 214546
c a</w> 214545
previ ous</w> 214520
abili ties</w> 214501
complet e</w> 214421
i8] *</w> 214323
P ull 214313
TI ME</w> 214303
v 3</w> 214251
inter val</w> 214244
pro file</w> 214211
ER R_ 214048
sel ector</w> 213964
ig h</w> 213950
5 8</w> 213911
header _</w> 213901
act or</w> 213745
%class.java_io_PrintStream *</w> 213651
Annot ations</w> 213612
Trig ger 213600
do cs</w> 213568
sd k</w> 213355
change s</w> 213305
_ get 213248
Comm on</w> 213238
M IN 213220
secur ity_ 213204
Co ordin 213194
inser t 213133
Par t 212977
Ex it</w> 212971
S lot</w> 212957
s a</w> 212932
War ning</w> 212923
Cle ar 212889
L P 212792
ran ge 212792
void NEW_LINE}</w> 212774
s Log</w> 212768
De fin 212744
6 7</w> 212722
\u 0000 212693
con current</w> 212670
all y 212658
}NEW_LINE @_char_arr 212608
dy namic 212582
f lic 212581
rand om 212553
on es</w> 212416
\u 00 212306
%bb4 ,</w> 212287
ad min</w> 212246
ang le 212120
lo aded</w> 212064
DEFAUL T</w> 211997
elastic search</w> 211992
xxx_message Info_ 211896
St mt</w> 211848
9 \x 211782
d raw</w> 211652
se ss</w> 211598
re name</w> 211509
comp ute 211480
G G 211472
O FF 211462
res h</w> 211454
h r</w> 211421
par e</w> 211232
writ ten</w> 211225
ti fy</w> 211178
Bit map</w> 211094
pre fer 211056
B ench 210994
__I (%class.java_lang_ 210964
Pan el 210881
c ell 210853
Response Writer</w> 210729
le ft 210717
G re 210698
D am 210697
num er 210616
I S_ 210459
Us age 210430
ati o</w> 210388
st at 210262
bu f_ 210130
6 1</w> 210112
- 0. 210104
Pro gress</w> 210082
a w</w> 210064
#if ndef</w> 209904
re tri 209881
ou ch 209781
_116 _32 209772
F printf</w> 209656
Service s</w> 209584
10 . 209528
c amer 209490
ba lan 209466
EN G 209418
Arg ument</w> 209353
proto _ 209290
f b 209130
tion _ 209026
5 67 209021
std err</w> 208997
i de 208945
En v 208834
Di rection</w> 208758
Per mission</w> 208658
Ste p 208656
sit y</w> 208651
set up 208628
Scre en 208602
e b 208503
Mer ge 208347
32 _ 208332
set up</w> 208314
Int 32</w> 208239
e mail</w> 208136
T yp 208079
Un supported 208072
Dec lar 207983
indi ces</w> 207970
a f</w> 207948
_ ArrayIndexOutOfBoundsException 207911
Up load 207904
Nam ed 207893
@Polyglot_java_lang_ArrayIndexOutOfBoundsException _ArrayIndexOutOfBoundsException 207852
0x3 0</w> 207830
0x7 6</w> 207794
5 2 207732
Ac t 207710
L AN 207703
ap pro 207698
Spli t 207686
Uti l 207674
accep t</w> 207672
__I(%class.java_lang_ ArrayIndexOutOfBoundsException 207661
@Polyglot_java_lang_ArrayIndexOutOfBoundsException_ArrayIndexOutOfBoundsException __I(%class.java_lang_ArrayIndexOutOfBoundsException 207661
re lease 207653
modi fied</w> 207648
s olu 207638
GU I 207596
Arg uments</w> 207594
text ure 207593
Ow ner 207570
i le 207548
scre en 207475
g rid</w> 207402
Int 64</w> 207385
c i</w> 207267
P ic 207205
ar t 207146
SO UR 207136
Runtime Exception</w> 207102
STAR T</w> 207098
C ID 207000
Conn ect 206992
remo te 206760
I ter</w> 206721
E ach</w> 206714
fail ure</w> 206709
p e</w> 206678
LE VE 206558
I I 206528
O C 206352
1 \ 206333
Pri mi 206262
sec ret</w> 206120
9 6</w> 206110
S W 206056
r v</w> 206046
NEW_LINENEW_LINEbb4 :</w> 206043
D um 206003
0x4 0</w> 205936
Exec utor</w> 205884
int 64_t</w> 205802
Engin e 205794
TAR GET_ 205654
bu ck 205646
Pix el 205584
_class _id 205578
B LE</w> 205562
Ph ase</w> 205545
P R 205342
SER VI 205318
ce d 205281
_ T</w> 205236
Qu anti 205232
On ly 205216
sc ore</w> 205196
update d</w> 205092
are a</w> 204974
7 5</w> 204967
M ac 204914
Re s</w> 204874
Read y</w> 204857
set Value</w> 204839
M S</w> 204824
contain ers</w> 204824
e mp 204805
check _ 204706
F C 204632
M U 204632
En tries</w> 204608
field Num</w> 204605
CO DE_ 204591
gu age 204579
Pro jec 204559
d c 204553
Ed ge</w> 204462
Property Change 204406
vi le 204394
Sh ape</w> 204392
xxxxxxxx xxxxxxxx 204379
cre denti 204260
d f</w> 204237
ver tex 204227
hel per</w> 204208
coun ts</w> 204207
if est</w> 204184
p layer 204094
so v 204021
sList Call</w> 203984
P ag 203914
De li 203879
with in</w> 203820
s With</w> 203655
tran s</w> 203569
ign ore</w> 203566
b ri 203382
( %"class. 203321
Vis itor</w> 203220
bo th</w> 203151
An y</w> 203047
%bb 14 202931
yy j 202800
0x3 1</w> 202766
error _ 202727
Le g 202722
Com ment 202700
Sign ature</w> 202672
p m</w> 202650
us h</w> 202647
At temp 202609
Ass oci 202564
P LAY 202539
_101 _115 202525
aws util</w> 202489
hel p</w> 202485
res et 202477
D C</w> 202436
b atch</w> 202400
sc ene</w> 202305
ag ree 202207
e mit</w> 202146
Sh ader 201957
Tr ace 201892
conn ect 201881
N UM 201865
p latform</w> 201847
0 6 201798
F older</w> 201732
un der 201730
0x0 5</w> 201640
Sel ected</w> 201602
0x6 8</w> 201546
C h</w> 201538
Co ok 201507
G ame</w> 201502
0 2</w> 201406
noti fy 201379
C ir 201281
N OR 201218
_ ptr</w> 201216
b ran 201202
in her 201177
saf e 201150
Boo k 201115
respon ding</w> 201043
Di ff</w> 200994
M u 200924
C ast</w> 200886
comm it</w> 200829
li er</w> 200778
ta x</w> 200736
DI S 200728
request s</w> 200659
ER S</w> 200407
dest ination</w> 200395
R U 200385
C am 200354
D en 200349
Tr y 200338
d t</w> 200254
comp iler</w> 200188
TAB LE</w> 200080
c ent</w> 200004
Sel ector 199975
re stri 199938
MS G</w> 199920
OR I 199911
W he 199850
glob al 199830
Wor d</w> 199772
S rc 199683
v a 199652
rec ord 199639
P D 199519
P RI 199501
" 20 199350
T R</w> 199328
s qu 199327
document ation</w> 199114
fil l</w> 199111
EQU AL</w> 199081
Trans l 198989
re p</w> 198961
the se</w> 198913
Accessi ble 198866
x ml_ 198778
reg ard 198734
Mo ck</w> 198712
G l 198686
EV ENT</w> 198631
0x FF</w> 198627
n ing 198573
wo uld</w> 198554
Constra int 198543
Re st 198510
K er 198507
w atch 198468
F ind</w> 198392
UR E</w> 198364
%ex n 198348
Fe ature</w> 198318
Ret ri 198291
AP P 198288
10 1</w> 198223
Hel p</w> 198171
prec ated</w> 198119
Cla im 198090
_ in 198057
_ load_class()NEW_LINE</w> 197966
F n 197936
_c dv</w> 197873
Z ero</w> 197844
di an</w> 197784
ro ute</w> 197763
tr act</w> 197671
Code c</w> 197629
s Response</w> 197620
C LI 197578
sel ection</w> 197536
pro c</w> 197425
en ded 197401
%bb5 NEW_LINE</w> 197329
@Polyglot_java_awt_ Window 197317
BOO L</w> 197205
o id</w> 197141
0 \x 197130
n t 197096
sp eed</w> 196998
In to</w> 196937
1 _</w> 196834
tr ack</w> 196744
load er</w> 196679
bo t</w> 196662
p ad</w> 196647
d id</w> 196574
SQL Exception</w> 196324
6 6</w> 196253
at temp 196240
Sc ore</w> 196175
owner ship</w> 196080
Send Fields</w> 196062
re size</w> 196045
w d</w> 196013
pp ></w> 196005
oper ator 195991
String Utils</w> 195954
tra it</w> 195941
0x2 2</w> 195848
Sho uld 195845
sh ape</w> 195806
at er</w> 195802
Per mission 195790
tr un 195699
ss _ 195600
16 _t</w> 195595
BI T</w> 195497
ac cessi 195494
.h pp></w> 195491
st able</w> 195394
p ed</w> 195312
8 \x 195310
b l</w> 195308
K NO 195306
6553 5</w> 195241
IN FO 195182
initi alize</w> 195109
V T</w> 195081
Force SendFields</w> 195065
ar m 195027
k ing</w> 195016
An y 194922
her e 194916
BY TE</w> 194830
ca p</w> 194820
b ad 194785
enc ies</w> 194709
F T</w> 194620
code s</w> 194612
f d 194586
v ector 194562
9 4 194526
T en 194395
0 , 194338
9 5</w> 194157
Ac tions</w> 194139
StringL iteral</w> 194066
( %class.java_io_PrintStream*,</w> 193888
sign ature</w> 193784
Un known 193766
O F_ 193713
Can cel 193633
. loop 193589
P I 193579
set Enabled</w> 193556
t_ cast</w> 193443
er ation</w> 193427
po p</w> 193400
i1 ) 193376
amaz on 193306
multip le</w> 193279
u 16</w> 193265
imp ort 193165
d n</w> 193158
C ert 193136
remo te</w> 193103
Mo d</w> 193077
Sho uld</w> 192754
0x6 2</w> 192693
Pro gram 192692
pre pare 192689
Sk ip 192648
9 7</w> 192617
12 8 192610
ca ses</w> 192581
F ore 192576
Log f</w> 192558
low er</w> 192545
}NEW_LINE%interface.java_util_ Map</w> 192534
en able</w> 192340
CP U</w> 192294
pres ent</w> 192250
Co mbo 192172
Fet ch 192169
rep ort</w> 192153
f printf</w> 192117
me d 192057
f i</w> 192020
ge x</w> 192001
Buc ket</w> 191920
C LO 191903
0x0 6</w> 191898
P i 191774
Goo gle 191709
im ages</w> 191680
v 0</w> 191543
* =</w> 191532
Byte Array 191464
c am 191432
Ag ent 191402
mu tex</w> 191322
print StackTrace</w> 191306
ex clu 191144
t k 191117
si s 191061
comm ons</w> 191034
Match er</w> 191018
%"class .java_ 190978
In vent 190936
s m</w> 190929
Ma sk 190925
EXPECT_ EQ</w> 190897
Dec l 190842
Gener ated 190793
%cast.er asure 190776
Exec ute</w> 190619
d n 190591
con st 190515
Nest ed 190426
Text View</w> 190419
Sel ect</w> 190407
COUN T</w> 190352
fi ll 190253
Pret tify</w> 190176
7 2 190168
off set 190151
command s</w> 190056
Pe er</w> 190051
fr ont</w> 190050
remo ved</w> 190014
havi or</w> 189968
Da o</w> 189947
so ap</w> 189927
DN S 189923
NOTI CE</w> 189893
l on 189869
_101 _110 189839
3 d 189830
ti le</w> 189807
ac le</w> 189804
Fact ory 189793
po st</w> 189747
sche me</w> 189718
ctx _</w> 189713
SI L 189696
ev er</w> 189589
00 : 189586
6 2</w> 189517
or t_ 189496
Rep ly</w> 189445
_97 _116 189361
in puts</w> 189305
comp are</w> 189108
ti le 189065
w ant 189052
E mit 189041
V 1</w> 189031
at om</w> 189007
charac ters</w> 188994
orizont al 188989
pass ed</w> 188895
fet ch 188880
Ex it 188841
Popu p 188815
C ard 188789
val s</w> 188783
%bb 15 188736
B an 188720
Rep o</w> 188704
vo ut</w> 188677
TH IS</w> 188633
man age 188621
l en 188575
c 2</w> 188555
Gener ate 188534
dam age</w> 188488
END _ 188443
s nap 188406
B attle 188355
Unmarsh al 188324
per im 188150
simp le</w> 187950
Ex t</w> 187946
Si g</w> 187941
boo k 187939
s f</w> 187937
Strateg y 187912
contain ing</w> 187908
sub string</w> 187895
S CH 187874
Wh en</w> 187842
Op code</w> 187793
ic s</w> 187767
Get s</w> 187749
0x D 187745
0 - 187712
Z one 187708
u tes</w> 187613
z e 187544
Ass er 187491
1 )NEW_LINE</w> 187423
time s</w> 187354
origin al 187353
share d_ 187220
Calend ar</w> 187136
LI ED</w> 187103
oper and 187031
query Parameters</w> 187030
Sp ace 186975
Dest ination</w> 186958
n ative 186932
end _ 186875
0x5 f</w> 186869
double ,</w> 186766
D S 186731
h older</w> 186613
ro ll</w> 186603
U sed</w> 186557
v ing</w> 186553
ass ign 186552
M UL 186549
7 2</w> 186494
serializ er</w> 186420
p i</w> 186375
ro ss 186258
in flu 186202
AB ILITY</w> 186173
Inser t</w> 186171
r b 186137
extr a</w> 185994
8 5 185940
1 f 185907
%class.java_awt_Color *,</w> 185895
LO AD</w> 185767
C AN 185703
ag ent</w> 185671
chun k</w> 185660
uint 256</w> 185655
di rect</w> 185629
Enco ding</w> 185601
G ui</w> 185587
Reposit ory 185518
Ex ample 185473
size _ 185460
2 d_ 185351
RE GI 185302
defini tion</w> 185290
MAS K</w> 185256
AA AA 185235
get s</w> 185167
imple mented</w> 185164
8 8</w> 185161
opaqueNEW_LINENEW_LINE @Polyglot_ 185148
sh ip 185147
Value Of</w> 185127
fi re 185101
reposit ory</w> 185088
c pu 185066
b und 185009
aa aa 184944
m o</w> 184941
Dis cover 184912
r adius</w> 184812
Log in 184789
di v</w> 184788
di rec 184765
ut ure 184756
Re lease</w> 184719
Syn c</w> 184705
as ure</w> 184625
0x00 00</w> 184614
L S</w> 184602
valid ate</w> 184573
T ic 184560
Trav ers 184512
Ex clu 184511
TH _ 184468
ful ly</w> 184434
Suppress Warnings</w> 184426
Te am 184412
bean s_ 184338
Status OK</w> 184321
Transp ort</w> 184298
pro gress</w> 184242
To p</w> 184214
gener ate</w> 184118
con d</w> 184111
lo gi 184081
war ning</w> 184068
R ight 183904
0x A 183827
local_unnamed_addrNEW_LINENEW_LINE NEW_LINE 183809
or ity 183760
iv ed 183741
cud a 183716
A ST 183665
FF FF 183622
EX I 183587
%interface.java_ lang_ 183510
mer ge</w> 183418
IMP LIED</w> 183362
ne eded</w> 183310
_ t 183307
SE TT 183294
NotFound Exception</w> 183266
Fact or</w> 183263
r am 183220
Pro t 183206
Unexp ected</w> 183177
send er</w> 183155
R ate 183146
0x7 9</w> 183124
r m</w> 183095
_ 1</w> 183056
p lace 183042
i 8</w> 182959
1 12 182956
Mo ve</w> 182934
PU T</w> 182862
s ent</w> 182831
local_unnamed_addr NEW_LINENEW_LINEdefine</w> 182770
float ,</w> 182721
9 8</w> 182638
re cur 182551
6 8</w> 182544
Oc curred</w> 182477
L U 182283
C at 182270
Cont in 182202
con text 182184
ed ge 182179
6 :</w> 182101
p index</w> 182044
con current_ 182015
Respon der</w> 182009
1 10 182000
Rep e 181928
g ran 181907
pro ps</w> 181814
SU P 181760
S n 181620
di m 181614
r pc</w> 181542
Serializ er</w> 181309
ge d</w> 181293
Pa ss</w> 181043
ar r</w> 180985
Block Index</w> 180963
Lig ht 180951
LIMI TED</w> 180904
i32 )</w> 180889
3 d</w> 180861
initi al 180843
amazon aws</w> 180806
S o</w> 180751
c o</w> 180734
var s</w> 180710
fe atures</w> 180671
app ly 180635
0x4 3</w> 180584
AN D_ 180577
typ ename</w> 180532
0x4 1</w> 180487
A sync</w> 180458
se d 180451
SE CON 180427
Runn able</w> 180420
\x ff 180393
Par alle 180384
pip e_ 180259
W ID 180251
t p</w> 180239
tr in 180238
Http Servlet 180154
syste m 180141
SH O 180098
SP EC 180079
g ing 179982
Bind ing 179980
New Request</w> 179948
OR T</w> 179939
Ver ify 179927
Deco de</w> 179835
Oth er 179694
Conver ter</w> 179670
RE QU 179663
Pre fix 179634
Dis k</w> 179591
cer tific 179586
ra m</w> 179582
Pa int 179570
D ay 179555
an _ 179535
ITE M_ 179489
B it</w> 179483
Pro gram</w> 179439
Fo o</w> 179418
seg ment</w> 179391
E sc 179375
ta x 179307
butt on 179294
ho w</w> 179232
Ed ge 179206
Ass ert 179191
se q 179147
n b 179131
in ner 179076
Stat s 179056
create _ 179012
j s 178919
dur ing</w> 178842
target s</w> 178746
path s</w> 178672
instan ces</w> 178603
compon ents</w> 178594
L Y</w> 178560
CE P 178547
B B</w> 178517
S WI 178459
GO SSI 178430
D ig 178413
pri ority</w> 178407
Resol ve 178315
Un able</w> 178311
End points</w> 178272
h a 178231
Sli ce 178209
f oc 178187
lev el 178033
g er_ 177957
t 2</w> 177904
NAM E_ 177883
s ort 177878
g rid 177849
g a 177830
I MA 177821
Whe el 177821
v1 alpha 177769
w atch</w> 177740
IN G 177722
ke y_ 177718
Q StringLiteral</w> 177714
Rout e</w> 177699
P V 177692
Ur l 177677
pa red 177672
or ted</w> 177657
po sition 177594
modi fi 177516
un til</w> 177415
S ave</w> 177267
Type Meta</w> 177092
Ma ster</w> 177009
0x0 7</w> 176908
man ti 176878
P S 176873
bo se</w> 176788
Cur rent</w> 176763
Dis able 176726
di st</w> 176660
BU T</w> 176573
r 1</w> 176547
Fail ure 176541
regard ing</w> 176508
int ent</w> 176462
N ING</w> 176429
Modi fy 176428
de c</w> 176391
Map *,</w> 176370
S la 176334
ab c</w> 176281
ou se</w> 176109
rep lic 176089
Partial Eq</w> 176087
. set 176073
up per 176060
A s</w> 175966
S ol 175954
th is 175917
_ to_ 175891
t str 175793
0000 00 175792
pre parer</w> 175763
fac t</w> 175759
ta ke</w> 175737
conn ection 175698
max imum</w> 175654
oug h</w> 175532
TYP E 175522
Seg ment 175503
Aut h</w> 175499
Time out 175496
Check ed</w> 175495
" 0"</w> 175446
po se</w> 175413
M ust</w> 175393
Quo ta 175351
CP U 175339
clo sed</w> 175255
Data Type</w> 175243
CONFI G_ 175218
Exp ort 175211
%interface.java_util_ Set 175192
Field Descriptor 175107
uni que 175074
C B 175062
gith ub 174960
Run time</w> 174958
b atch 174948
get Default 174900
UR I 174865
stan ce 174858
E x</w> 174856
s ch 174752
pa ir 174747
di date 174707
a c</w> 174660
V K_ 174654
ire d</w> 174501
UR E_ 174447
100 00</w> 174414
Pip eline 174370
pro xy 174344
sh ort 174302
Po st</w> 174272
%bb 6,</w> 174269
ect ors</w> 174267
" 12 174224
Con st 174215
4 2 174212
CON TRAC 174210
p ng</w> 174189
Po s 174181
list _ 174162
Write String</w> 174134
g a</w> 174083
fiel d_ 173904
Var int 173879
secon d 173873
Sum mary</w> 173774
Pri vate</w> 173684
Av ailable</w> 173641
Hist ory 173637
8 3 173544
de si 173499
Pu t</w> 173480
c ustom</w> 173477
FI XM 173436
NEW_LINENEW_LINEbb 5:</w> 173426
UInt 32</w> 173410
std out</w> 173375
L ENG 173360
w in 173312
inclu ded</w> 173265
met a 173248
9 5 173245
c f</w> 173234
Complet e</w> 173181
r 0</w> 173170
FIXM E</w> 173155
Ta b</w> 173135
UnwindException (i8*)</w> 173078
m idd 173057
B row 172995
f n 172976
8 4</w> 172969
D l 172953
NEW_LINENEW_LINE NEW_LINENEW_LINEdeclare</w> 172944
Pre ss 172941
Re vision</w> 172918
java 2d_ 172877
ph y 172873
USE D</w> 172862
AC H 172857
User name</w> 172755
LI ABILITY</w> 172746
m illi 172741
F S</w> 172694
atom ic</w> 172680
C fg</w> 172663
E E 172525
Co dec 172514
H t 172442
mpl ates</w> 172424
mo unt 172354
java2d_ pipe_ 172312
b c</w> 172263
goo d</w> 172257
SO C 172220
_P LAY 172193
c enter</w> 172059
_1 19 172045
Tim er 172032
serv let</w> 172020
fla g 172014
v c</w> 172011
s Get 171982
sn ap</w> 171969
Create s</w> 171949
Suc cess 171926
Scre en</w> 171846
Pro to_ 171751
sc roll 171741
M AN 171723
contrib utor</w> 171698
di sk</w> 171693
Orig in</w> 171669
get Interface 171657
v 2 171644
G T 171640
we ight</w> 171625
cryp to</w> 171609
Oper and 171521
Request s</w> 171504
s Error</w> 171463
%call 3</w> 171460
Loo p</w> 171460
6 3 171389
transp ort</w> 171253
visi t</w> 171245
assert NotNull</w> 171216
ag greg 171201
e 2 171137
ro t</w> 171097
Cap acity</w> 171077
TA L</w> 171056
pe er_ 171010
0x 2</w> 171006
Local e 170989
M T 170971
activ ity</w> 170945
GOSSI P_ 170935
uint 64_t</w> 170871
c ard</w> 170857
Direct ory 170839
c v</w> 170827
0 '</w> 170821
gu i</w> 170815
TH RE 170796
sw er</w> 170752
pro ble 170713
K now 170659
_ class</w> 170599
vari ant</w> 170556
s cop 170526
in cre 170515
Metho ds</w> 170510
\u0000 \u0000 170481
0000 00</w> 170465
ali as</w> 170463
paramet er 170359
0x0 9</w> 170346
Writer *,</w> 170272
class es</w> 170262
al ign 170227
SY N 170226
I o 170200
" ( 170112
Can not</w> 170077
ma ster 170024
EN AB 170017
Le ss 170012
OU T 170011
on y 169941
pro du 169907
D V 169889
O ld 169887
pol y 169881
bind ing</w> 169798
Predic ate</w> 169787
e v</w> 169785
0x3 3</w> 169762
eff ect</w> 169735
C WE 169698
x i 169609
P latform</w> 169551
pro c 169510
Pro c 169479
%bb4 NEW_LINENEW_LINEbb 169476
By Name</w> 169468
cur r 169383
tr ue 169315
GE S</w> 169312
Py Object</w> 169279
op tim 169241
memb er 169173
pu b 169158
r a</w> 169138
%class.java_io_ File 169119
Mo unt 169053
us o 168982
Have Occurred</w> 168945
mach ine</w> 168873
D river 168820
influ x 168809
se q</w> 168803
me _ 168787
_97 _108 168783
Virtual Machine 168780
B B 168726
Publi sh 168714
%class.java_lang_ ArrayIndexOutOfBoundsException 168593
Aur a</w> 168587
n or 168573
open api</w> 168527
environ ment</w> 168518
_c lo 168488
%class.java_lang_ArrayIndexOutOfBoundsException *NEW_LINE</w> 168463
%cdv_ty.java_lang_ArrayIndexOutOfBoundsException *</w> 168460
%cdv_ty.java_lang_ArrayIndexOutOfBoundsException **</w> 168460
%cdv_ty.java_lang_ArrayIndexOutOfBoundsException **NEW_LINE</w> 168460
@Polyglot_java_lang_ArrayIndexOutOfBoundsException _cdv,</w> 168460
E LE 168459
p ing</w> 168429
(%class.java_awt_Component *)*,</w> 168411
fa st 168402
Lan guage</w> 168392
@Polyglot_java_lang_ArrayIndexOutOfBoundsException_ArrayIndexOutOfBoundsException__I(%class.java_lang_ArrayIndexOutOfBoundsException *</w> 168374
encode Varint 168371
de li 168355
p l</w> 168338
gener ator</w> 168268
agree ments</w> 168235
delet ed</w> 168227
met h 168223
Con structor</w> 168145
LOC K_ 168137
Su ffix</w> 168128
Di rec 168025
Norm al</w> 168020
p x</w> 167976
load ing</w> 167905
Valid ator</w> 167904
9 . 167884
pro p</w> 167840
c s_ 167825
S AM 167815
Pro vision 167770
cre ating</w> 167743
Fe ed 167729
get Current 167716
TR _ 167708
find View 167702
. res 167691
cach ed 167631
V AR 167621
Cop y_ 167616
Po wer 167555
UN D</w> 167479
Uni que 167432
RE G_ 167430
Deep Copy 167352
ec 2</w> 167281
Modi fied</w> 167247
ec on 167093
th ose</w> 167077
li ter 167004
Rand om</w> 166972
\t \t 166971
um ul 166917
Rec o 166917
Sh ader</w> 166904
back end</w> 166879
i ent</w> 166827
ac y 166744
y et</w> 166694
US A</w> 166569
assert False</w> 166455
Mapp ing 166446
Tri m 166423
di g 166338
C G 166324
C lick</w> 166290
atu m</w> 166255
O NE 166228
Lin es</w> 166168
thread s</w> 166145
_ value</w> 166141
W in 166114
sq l_ 166112
. method</w> 166090
i el 166044
7 :</w> 166039
man y</w> 166023
findView ById</w> 165891
soc k 165809
et c</w> 165723
rit e</w> 165665
Test Case</w> 165654
h app 165652
Set ting</w> 165597
Att ack 165416
DEBU G_ 165401
disp atch 165399
Cle ar</w> 165253
ad v 165247
Bu s 165211
\x0 1 165200
ver tex</w> 165187
INSTAN CE</w> 165174
%class.java_awt_Dimension *,</w> 165170
We ight</w> 165118
ab c 165103
cud a</w> 164991
lin e_ 164965
0x4 8</w> 164909
N S</w> 164900
New Err 164897
scal e 164868
SA Y_ 164786
st ill</w> 164730
te mplate 164656
%class.java_lang_String Builder 164632
c m</w> 164612
In ner</w> 164607
local e</w> 164602
DELE TE</w> 164593
look up</w> 164592
s With 164501
%cast.new ,</w> 164419
de sc 164417
s z</w> 164408
A T_ 164351
B R 164335
render er</w> 164273
Q T_ 164267
ma y 164258
s b 164246
Me asure 164243
0x1 1</w> 164225
w g</w> 164160
m k 164120
P latform 164110
olu tion 164106
av er 164080
De lay</w> 164025
fac tor</w> 164024
chan nels</w> 163933
T S_ 163912
current ly</w> 163896
met adata 163758
L ast</w> 163689
_97 _110 163666
Cont act 163665
Loo p 163651
G it 163644
Rep lace 163564
TEX TUR 163477
M at</w> 163436
Seg ment</w> 163413
Credenti al 163381
@Polyglot_java_awt_Component_ get 163343
%class.java_awt_ Graphics 163320
Criteri a</w> 163290
get C 163279
Un its</w> 163279
fic ation</w> 163254
Snapsho t</w> 163244
Li fecy 163226
Conver t 163199
E mail</w> 163162
yy v 163159
co ok 163045
0 5 163041
str cmp</w> 163023
J O 163020
8 5</w> 163011
code c</w> 162984
ce d</w> 162971
Type Of</w> 162956
send ing</w> 162947
Sca lar</w> 162926
i64 )</w> 162884
ted Exception</w> 162872
7 1</w> 162825
con d 162737
re interpre 162719
8 3</w> 162616
Re al</w> 162605
CR C</w> 162562
A TION</w> 162539
getInterface Method 162490
Or ganiz 162477
@__ getInterfaceMethod 162424
mo st</w> 162417
%class.java_lang_Object *)*,</w> 162414
12 3</w> 162307
OR Y</w> 162298
ci sion</w> 162297
task s</w> 162284
Meta Data</w> 162260
di sk 162219
var _ 162215
pix els</w> 162159
Environ ment 162156
Run ner</w> 162062
Un der 162033
L L</w> 161958
tw e 161889
R S 161869
0 3 161832
_4 7 161828
r p 161826
Int n</w> 161804
de lay</w> 161786
6 9</w> 161783
Comm it</w> 161775
M ag 161723
n umb 161718
E S 161681
I G 161630
_P RE 161566
as List</w> 161560
read y 161526
Click Listener</w> 161484
t_ _ 161470
B IN 161461
not ,</w> 161420
Jav a</w> 161416
j s</w> 161412
h ol 161410
Wor d 161376
iz e 161339
P S</w> 161277
solu te 161238
U int32</w> 161221
GU I</w> 161165
ke ep 161145
flu sh</w> 161062
COL UM 161018
BU TT 161013
Rec ur 160976
App Comp 160946
w are 160921
he x</w> 160866
Ali as</w> 160855
c nt</w> 160846
Pla n</w> 160845
comp ress 160821
ne ver</w> 160820
%class.jlang_runtime_Array **</w> 160807
ne st 160740
7 3</w> 160728
deploy ment</w> 160718
DE FI 160664
lo n</w> 160639
me sh</w> 160634
h l 160631
the ir</w> 160624
l hs</w> 160617
sur face</w> 160588
initializ ed</w> 160587
-0 1 160584
Di stance</w> 160579
Sc ene 160570
NP C_ 160525
Initi alize</w> 160498
_101 _100 160413
ra ft 160290
vi rtual 160217
z oo 160177
Po si 160171
Ch o 160139
ec ess 160123
" 1</w> 160115
p ur 160115
Top ic 160115
SD L_ 160059
%class.java_lang_Class* NEW_LINE 160044
FieldDescriptor Proto_ 160029
NewErr Param 160011
Transp ort 159973
le ast</w> 159969
Sel fer 159969
P refer 159910
8 1</w> 159865
codec Selfer 159861
Saf e 159848
Null Fields</w> 159832
vi deo 159749
mo un 159737
S can</w> 159732
H RESULT</w> 159716
regi on 159692
la im 159671
0x4 2</w> 159634
8 9</w> 159628
snapsho t</w> 159574
th en 159555
V 1 159516
no thing</w> 159475
M ath 159467
Of f</w> 159409
cep tor</w> 159407
rep ort 159397
Co uld</w> 159394
Con sumer</w> 159390
W N 159385
Metri c</w> 159346
si ve 159309
get Text</w> 159297
NE T 159283
Wal let</w> 159272
Sm all 159143
k i 159137
Ve hic 159030
w rap 158958
In formation</w> 158952
dro p</w> 158931
Fi re 158911
f ont 158903
er ase</w> 158900
a k</w> 158889
plugin s</w> 158828
nam ic</w> 158791
Pop ul 158786
%class.java_lang_String *)</w> 158753
c v 158712
0x4 5</w> 158709
s List</w> 158684
Registr y 158662
late st</w> 158658
Ele m 158628
6 1_ 158598
_45 _45 158587
%bb4 NEW_LINE</w> 158510
I F</w> 158495
t ls</w> 158423
0x1 4</w> 158376
Te am</w> 158355
RP C</w> 158300
Pa int</w> 158292
sy m</w> 158220
Align ment</w> 158187
VER IF 158181
local host</w> 158169
yy b 158153
AT TA 158144
Identi ty</w> 158034
C ryp 157945
SP E 157937
graphic s</w> 157923
B lob 157886
In gress 157852
SHA 1</w> 157845
4 3 157820
ren der</w> 157815
bjec t 157726
po w</w> 157711
buff ers</w> 157701
ri ti 157698
Input Method 157660
UN KNO 157649
@Polyglot_java_ io_ 157647
sh e 157625
Sp ac 157613
an ts</w> 157578
on ce</w> 157536
client set</w> 157513
REAC H</w> 157440
m_ i 157420
di m</w> 157413
alet te</w> 157325
c trl</w> 157313
Back ground 157306
sav ed 157284
Dic tion 157281
7 7</w> 157247
B Y</w> 157242
in st</w> 157226
sy mbol 157144
B S 157128
1 D 157113
.loop exit 157104
(%class.java_lang_Object *)*</w> 157083
u ff 157077
k a 157048
CE SS_ 157036
Tup le 157000
Geo metry</w> 156989
leg al</w> 156983
Pre pared 156940
Fa il</w> 156932
d p</w> 156898
_4 8 156885
E t 156871
cap acity</w> 156871
1234 567 156856
visi ble</w> 156832
decla r 156815
uso to 156811
pa ren 156796
fun c_ 156733
Window s</w> 156717
EFF ECT_ 156717
Base URI</w> 156708
Az ure 156584
int _ 156558
e dit</w> 156557
al ity</w> 156504
i v</w> 156498
S leep</w> 156465
con tain</w> 156425
skip _ 156419
Sc ene</w> 156382
0x7f0 100 156381
bi g</w> 156377
get Key</w> 156362
o v 156348
MA P</w> 156344
CL AS 156318
De ad 156276
. 0 156252
(%class.java_awt_Window *,</w> 156236
en ame 156229
char set</w> 156208
In dic 156139
7 6</w> 156128
Mon itor 156122
F ast 156110
subscription Id</w> 156098
@Polyglot_java_lang_ String 156072
sig nal 156068
in put_ 156030
e e</w> 156016
sup er 155997
da emon</w> 155990
yp er 155979
Marshal To</w> 155971
Conn ect</w> 155952
STR U 155946
In str 155917
Sp eed</w> 155895
De velo 155851
Produc tion 155712
ig no 155681
d ri 155595
reinterpre t_cast</w> 155543
do t</w> 155538
interfac es</w> 155533
A TION_ 155483
Li brary</w> 155471
1 ( 155445
ame l</w> 155391
sec urity 155391
deco de 155387
co co 155353
previ ous 155351
B P 155344
Menu Item</w> 155323
dec l</w> 155317
lo g_ 155293
at o 155265
Scop e 155237
ro ute 155184
10 3 155143
R ad 155141
b g 155078
open shift</w> 155078
M AC 155033
RG B 155025
has Next</w> 154922
C lip 154905
Exec ute 154858
oper ations</w> 154819
loc ity</w> 154809
no _ 154768
Ex tra 154704
_1 20 154680
Sig nal</w> 154661
inte gr 154650
enco ded</w> 154643
Imp lement 154613
mem cpy</w> 154598
z e</w> 154574
Require d 154515
categ ory</w> 154480
B ound</w> 154451
conn ected</w> 154428
M P</w> 154311
Mar ker</w> 154302
Pend ing 154292
aut om 154113
o t</w> 154092
i64 ) 154072
Chun k 154047
lo ts</w> 154030
Dr ag 154025
out put_ 153998
0x3 4</w> 153969
Manag ed 153960
Address es</w> 153921
bility _ 153917
cal ly</w> 153901
Rep ort</w> 153880
RE TUR 153856
ar m</w> 153852
Al ert 153849
W i 153726
S av 153678
deco de</w> 153672
S ort</w> 153667
0x1 f</w> 153652
@__GC_malloc( i64)</w> 153651
MO DE_ 153627
m icro 153555
_ 5 153453
8 2</w> 153362
te am</w> 153326
face book</w> 153197
reg exp</w> 153144
2 d</w> 153128
ed u</w> 153119
mac ro 153115
g op 153019
av ai 152984
%interface.java_awt_event_ Hierarchy 152944
sw ap</w> 152890
T y 152867
Per son 152854
simp le 152848
h d 152792
7 4</w> 152780
Cont ents</w> 152765
Dim ension</w> 152748
j j 152722
co mp</w> 152720
O O 152709
persist ence</w> 152697
back ground</w> 152693
0x5 0</w> 152654
LO CA 152627
r 2</w> 152610
ig ned</w> 152600
h w 152558
%bb7 NEW_LINE</w> 152461
scrip tions</w> 152434
m_ caster</w> 152351
t l 152348
mapp er</w> 152345
%cdv_ty.java_io_PrintStream *,</w> 152323
ce eded</w> 152293
war n</w> 152112
v 8</w> 152110
top ic</w> 152096
d k 151959
Be st 151926
object Map</w> 151852
ph ase</w> 151781
Bro ad 151776
4 00</w> 151764
Identi fi 151749
op code</w> 151722
g ate 151709
% f 151698
Ref resh 151636
Deep Equal</w> 151602
Hand lers</w> 151598
AW S</w> 151594
id _ 151495
64 _ 151484
r us</w> 151464
C String</w> 151449
store d</w> 151438
version ed</w> 151405
ker nel</w> 151399
the me</w> 151382
ur al 151355
Swit ch 151298
pro t</w> 151297
Glob al</w> 151274
null NEW_LINE 151253
H it 151202
g g 151184
metri c</w> 151170
Visi ble 151147
c n 151143
e + 151137
_ com_ 151042
0x1 a</w> 151032
Metri cs 150991
del ta 150974
value Of 150973
Dec or 150951
thread _ 150949
G ra 150921
c ert</w> 150900
inher it 150808
de velo 150784
so le 150772
resol ve 150740
b ra 150721
un its</w> 150704
Uni form 150632
in struction</w> 150602
Certific ate</w> 150586
0x0 b</w> 150581
i x</w> 150575
1 16 150552
lig h 150548
host name</w> 150523
R usoto 150503
eri es</w> 150492
s l</w> 150483
lic it</w> 150462
itu de</w> 150428
ER R</w> 150426
ath er</w> 150328
Type s 150299
FAI LED</w> 150283
B et 150226
Re po 150217
List Result 150213
Lo ader 150203
Byte Buffer</w> 150202
soc ket 150202
r ing</w> 150201
ver se 150163
Var s</w> 150154
ent ation 150149
G rid</w> 150132
7 9</w> 150077
%cast. obj 149982
To tal</w> 149935
Re start 149931
t cp</w> 149930
Vo id</w> 149930
0x 20 149926
Op s</w> 149866
t ec 149846
Lan guage 149842
SPEC I 149755
NUM B 149737
Pub Key</w> 149727
Materi al</w> 149714
P l 149694
@Polyglot_java_lang_ Class 149694
en sure 149687
S he 149681
Frag ment 149653
0x5 3</w> 149621
opaqueNEW_LINE%interface.java_util_ List</w> 149572
Conver t</w> 149562
yp o 149553
check er</w> 149544
ge d 149536
Exp ected 149509
z ip 149494
%class. javax_ 149453
var int</w> 149438
opaqueNEW_LINE %interface.java_awt_ 149400
N a 149380
load _ 149370
Pass word 149303
0x4 9</w> 149292
inter rup 149267
RE D</w> 149259
value _ 149254
frag ment</w> 149244
S C</w> 149166
Me sh 149126
Authenti cation 149102
De v 149095
String To 149070
%class. javax_swing_J 149043
Byte Array</w> 148962
Z ero 148952
File Path</w> 148935
1 d 148902
pri mi 148870
Vector 3</w> 148869
b ench 148852
0 7</w> 148838
AR M 148825
A F 148807
%bb 17 148636
_ set 148598
lan g 148518
N ative</w> 148491
0x7 8</w> 148490
st ub</w> 148479
Ma ke</w> 148415
FO REACH</w> 148405
tri m</w> 148400
U INT 148373
Be gin 148334
star ted</w> 148292
Initi al 148266
has _ 148244
Ver ifi 148173
World Session</w> 148166
in f 148134
Sh ard 148109
ST OR 148010
Illegal State 147999
D b</w> 147968
s can</w> 147966
h idden</w> 147959
al gorithm</w> 147936
B la 147918
ase s</w> 147842
struc ts</w> 147832
L D</w> 147802
M arg 147795
WIN DO 147788
US E_ 147764
dis cover 147760
go go_ 147686
Ex ample</w> 147662
ma sk 147645
ag ma</w> 147616
Add r 147593
path Parameters</w> 147573
Chun k</w> 147563
' 0'</w> 147532
comm it 147526
(%class.javax_swing_JComponent *,</w> 147512
b rid 147492
BigDecim al</w> 147468
SE T 147437
p ack</w> 147408
En able</w> 147328
Ref l 147311
%class.java_io_ OutputStream 147304
uti l 147291
T al 147263
red u 147240
br a</w> 147184
In et 147168
li n</w> 147162
Cur ren 147158
get Property</w> 147113
Visi bility</w> 147054
con su 147036
github _com_ 147024
& =</w> 147023
comp o 147021
RE MO 147010
look up 147008
S ite 147002
U INT</w> 146945
V ol 146893
fol der</w> 146856
Pai r 146808
Modi fier</w> 146787
int en 146786
0x4 4</w> 146743
IN TE 146668
JSON Object</w> 146664
%bb2 NEW_LINENEW_LINEbb 146621
sup p 146614
comp ar 146595
CE S</w> 146533
9 4</w> 146507
n ecess 146472
for _ 146463
%interface.java_util_List *,</w> 146436
L ex 146363
k ed</w> 146302
0x2 9</w> 146291
n av 146288
N in 146265
ath er 146219
inclu ding</w> 146160
P ur 146146
0 x</w> 146131
uti li 146106
9 2</w> 146105
He ad 146104
1 , 146099
Separ ator</w> 146098
str ateg 146097
Serializ able</w> 146085
be an</w> 145995
MA L</w> 145985
defa ult_ 145985
n u 145966
On ce</w> 145965
j ack 145957
St ro 145943
ad just 145935
(%class.java_awt_Component *)*</w> 145876
Rec order</w> 145850
2_ - 145827
Instance s</w> 145785
Mo un 145715
Ac c 145684
(%class.java_awt_Component *)NEW_LINENEW_LINEdeclare</w> 145646
E mb 145643
opaqueNEW_LINE%class. javax_swing_ 145641
config ure 145561
exter nal 145551
Comp lex 145522
Re q 145516
spec ial</w> 145494
R ast 145479
Work flow 145456
%class.java_awt_Component *,</w> 145450
schedul er</w> 145394
ow ned</w> 145381
_4 4 145374
25 6 145333
s ca 145294
gener ic</w> 145254
N one 145241
Ext ensions</w> 145239
O W 145209
trig ger</w> 145166
accessi bility_ 145153
Mer ge</w> 145132
0x5 4</w> 145119
Execut or 145119
get Class 145108
node _ 145106
b a</w> 145089
VI E 145089
%class.sun_ java2d_pipe_ 145022
a 1</w> 145019
pa int</w> 145018
min _ 144999
acc ord 144981
app s</w> 144968
c ir 144881
fin d_ 144870
f r</w> 144868
%cdv_ty.java_io_ File 144847
%class.sun_java2d_pipe_ Region 144826
x mm 144825
Th reshold</w> 144816
Down load 144779
AU TH 144779
syn tax</w> 144770
log rus</w> 144767
o de 144744
po inter 144684
de x_ 144673
trans actions</w> 144671
%cast. new</w> 144663
2 )NEW_LINE</w> 144660
shared_ ptr</w> 144651
p b 144638
x x</w> 144630
r r</w> 144629
di agno 144617
f g 144603
fix ed 144595
Get GUID</w> 144589
e li 144576
TC P</w> 144562
read ing</w> 144560
po t 144509
Pre v</w> 144484
ri tes</w> 144472
meth ing</w> 144423
me ans</w> 144418
G ran 144402
E P 144391
MA P_ 144371
b cx</w> 144349
l a</w> 144340
%class.java_lang_String *)*,</w> 144325
float 32</w> 144299
re c</w> 144298
set Name</w> 144295
ti v 144260
v ch 144193
pack age 144182
initi al</w> 144153
Ax is</w> 144130
auto Convert_ 144082
Access Control 144073
Back up 144017
Nav ig 144013
Field 1</w> 143949
k v</w> 143944
INFO _ 143898
vi deo</w> 143838
Ex ist</w> 143822
B ag 143806
S of 143780
Num er 143737
ret val</w> 143625
T C_ 143601
d rop 143583
LE FT</w> 143512
c n</w> 143487
N et</w> 143481
Sup er 143456
Di agno 143440
BE G 143372
Sk ip</w> 143320
FI X</w> 143300
OTH ER</w> 143299
Proto Message</w> 143273
exec utor</w> 143242
codecSelfer_container Array 143226
H ex 143211
9 3</w> 143188
can vas</w> 143163
W HE 143138
np c_ 143109
exec ut 143090
m on</w> 143079
rep lica 142963
No te 142952
Message Box</w> 142917
En ter 142867
C SS 142821
Runtime Exception 142794
Lat in 142769
SPEL L</w> 142710
%call 10 142702
S rc</w> 142696
String List</w> 142679
comm un 142631
Comp ute 142618
Oper ator 142607
H orizontal 142528
5 f 142481
000 1</w> 142460
work s</w> 142411
if est 142325
D om 142309
uni que</w> 142295
aliz e 142255
int o_ 142242
vi a</w> 142176
str len</w> 142151
b order 142116
D U 142085
process or</w> 142040
ence s</w> 141968
GE T 141965
R ound 141947
de ep 141942
do main 141903
EN TR 141812
mem set</w> 141772
jo in 141734
NE X 141724
_p 0</w> 141717
8 7</w> 141641
k o 141634
neg ative</w> 141630
NEW_LINE} NEW_LINENEW_LINEdeclare</w> 141616
I M 141601
Pres ent</w> 141598
h u 141586
Line ar 141551
scri be 141489
20 15</w> 141461
Pri mary 141458
DO M 141447
pr agma</w> 141425
verti ces</w> 141419
get Logger</w> 141410
extract value</w> 141375
Manage ment 141375
block _ 141368
en ar 141299
7 "</w> 141268
d uplic 141263
Pro c</w> 141246
AC K</w> 141147
request ed</w> 141121
B atch</w> 141073
Q Object</w> 141058
Ch oo 141021
Co l</w> 140964
w rapper</w> 140926
Ne g 140908
end points</w> 140848
He x</w> 140838
gorith m 140835
OBJ ECT_ 140818
b ab 140816
8 :</w> 140737
GE NE 140688
FLA G 140684
Cre ation 140600
amil y 140595
Sec tion 140589
0x3 5</w> 140585
- 13 140551
r w</w> 140508
Travers al 140498
C an</w> 140470
Im Gui 140456
adap ter</w> 140378
el ls</w> 140369
v 6</w> 140345
node Name</w> 140288
App end</w> 140226
fix ed</w> 140216
visit or</w> 140204
1. 0 140199
gogo_ proto 140195
github_com_ gogo_proto 140195
@Polyglot_javax_swing_J Component_ 140194
STR E 140184
DIRE CT</w> 140166
Charac ter</w> 140154
buff er_ 140122
11 0</w> 140111
T wo 140060
Sup p 140046
z ip</w> 140010
%class.java_awt_ Font 140010
Rusoto Error</w> 140005
Con ditions</w> 139998
1 b 139982
_ C 139964
n a 139949
en code</w> 139930
Ti p</w> 139922
In puts</w> 139849
mar ker</w> 139794
ar ds</w> 139748
%a 0</w> 139709
m ight</w> 139708
Rel ation 139685
ro und 139675
P k 139651
Ob server</w> 139560
Con current 139519
m c</w> 139431
f ld 139403
kube let</w> 139394
b row 139385
_116 _104 139370
call back 139253
buck et 139236
d i</w> 139175
e f 139171
Secon d 139125
te am 139105
Inte gr 139034
Amaz on</w> 139001
ifi ed 138960
_ count</w> 138938
OU T_ 138920
requ ency</w> 138898
TH RO 138871
c amel</w> 138855
H ard 138855
Sur face</w> 138844
S ound 138765
AC TION</w> 138748
y 1</w> 138736
fet ch</w> 138729
map s</w> 138720
opaqueNEW_LINE%class.java_ io_Print 138720
SE D</w> 138714
Z oo 138707
struc ture 138695
lay out 138603
ul k 138579
p wallet 138565
su ite</w> 138563
A G 138440
A dv 138382
)" ,</w> 138381
%class.java_ net_ 138345
9 1</w> 138324
struc tion 138316
IllegalArgument Exception 138293
tup le</w> 138232
m y_ 138229
0x 4</w> 138229
dis abled</w> 138152
0. 00 138123
b p</w> 138099
is Null</w> 138061
p r</w> 138045
i ch 138042
compon ent 138034
di st 138011
ca se 137957
it ch</w> 137909
he alth 137895
0x5 5</w> 137867
s Map</w> 137725
dis able 137667
sp rintf</w> 137592
tit le 137587
cor rect 137504
m n 137468
0x3 a</w> 137441
m 1</w> 137406
f al 137406
f x 137399
HTM L 137392
F ER 137388
11 1</w> 137386
Pri vile 137367
a i</w> 137366
enti al 137362
Fil l 137358
ke ep</w> 137357
applic ation 137334
device s</w> 137331
alloc ate</w> 137312
Credenti als</w> 137312
In d 137278
_m m_ 137273
Access or</w> 137231
k l</w> 137221
0x7 7</w> 137205
per form 137180
as m</w> 137170
Track er</w> 137165
a h 137150
Server Response</w> 137134
module s</w> 137128
y ear</w> 137123
Hel p 137103
resol ve</w> 137097
%interface.java_util_List *</w> 137080
k a</w> 137062
p node</w> 137037
Look up</w> 137029
TEXTUR E_ 136913
class _ 136882
%class.java_lang_Object **</w> 136865
le ar 136846
ist ic</w> 136811
windo ws</w> 136811
St ub</w> 136748
p lace</w> 136716
0 b 136707
V ER_ 136689
sum er 136635
\ '</w> 136625
Read Only</w> 136618
Cap abilities</w> 136592
0x3 8</w> 136581
AR Y</w> 136579
hist ory</w> 136530
min ec 136428
get Num 136395
sp ect</w> 136395
State ment 136394
ev t</w> 136391
ro le 136375
0x2 c</w> 136327
ro l 136326
Rece ived</w> 136281
cop ies</w> 136270
POR T</w> 136238
Std err</w> 136234
c 2 136166
R aw</w> 136162
w ere</w> 136120
Lo wer</w> 136068
i a</w> 135941
met ry 135880
Valid ation</w> 135873
h y 135869
Ar n</w> 135865
Wh ite 135861
6 2 135850
Comp act 135838
Poly g 135785
s un</w> 135767
Pre v 135705
let on</w> 135655
u me 135612
pro gram 135612
do m</w> 135597
0 3</w> 135596
0 _</w> 135586
_97 _114 135561
Sho w</w> 135554
Back end</w> 135534
Err no</w> 135519
coun ter 135491
hoo k</w> 135481
Rect angle</w> 135442
Im Gui</w> 135441
c lock</w> 135416
Fai led 135413
cle s</w> 135409
Me sh</w> 135396
throw n</w> 135379
in es</w> 135352
ol d_ 135306
\x0 3 135297
BOOST_ CHECK_ 135281
di date</w> 135279
co me</w> 135257
Reserv ed</w> 135233
Pr incip 135167
pe er 135139
F oo 135110
arg 0</w> 135108
Group Version</w> 135106
mu x</w> 135092
wait For 135064
LO W</w> 135058
Pre pare</w> 135050
Un ix 135043
1 / 135032
CT x 134993
string Len</w> 134977
He ap 134969
S lot 134959
Compar ator</w> 134943
f 4j</w> 134857
c err</w> 134844
spec ify</w> 134811
V AL</w> 134782
comp ati 134722
D X 134695
stand ard</w> 134635
String Len</w> 134598
R C 134578
en v 134549
scri be</w> 134538
s amp 134530
E mail 134527
ph ra 134451
@_char_arr _ 134414
rout er</w> 134406
64 "</w> 134392
NE R</w> 134380
ff i</w> 134355
Create Or 134317
rec ords</w> 134311
si cal 134285
Hist ory</w> 134280
service Name</w> 134271
Preference s</w> 134255
P attern 134247
Rec over 134238
D ur 134208
e ed 134166
Col li 134123
Draw able</w> 134093
C enter</w> 134082
Tup le</w> 134070
AR _ 134069
bo dy 134045
Time stamp 134043
memb ers</w> 134020
\0 '</w> 133998
Conver sion 133989
re ssion</w> 133979
%class.java_awt_ Container 133976
index Of</w> 133955
%bb7 NEW_LINENEW_LINEbb 133952
need s</w> 133896
cont act</w> 133886
The me</w> 133864
Anim ation 133826
publi sh 133824
S imp 133812
comp lex 133780
can cel 133773
S ample</w> 133768
pla n</w> 133705
l r</w> 133560
h dr</w> 133540
su ffix</w> 133520
sig ned 133509
log in</w> 133475
Det ail</w> 133450
P AT 133437
An gle</w> 133419
STAT E</w> 133344
20 14</w> 133277
Ter m 133277
Bu f 133276
Q Variant</w> 133242
s lot 133155
g gest 133150
Ass et 133146
execu tion</w> 133144
ch oo 133107
Inform er</w> 133106
Type Name</w> 133039
b lob</w> 133019
Avai lable 133011
0x3 6</w> 132993
ar g_ 132973
V k 132934
M I</w> 132917
Sp aw 132917
Volume s</w> 132895
uint 16_t</w> 132886
State s</w> 132853
pix el 132843
Co st</w> 132821
Q Name</w> 132803
Dest roy 132749
V 2</w> 132737
@__getInterfaceMethod (i8*</w> 132729
swit ch 132728
Sin ce</w> 132725
Tri p 132715
Get Spell 132694
igh b 132683
po w 132651
wid th 132586
9 "</w> 132559
Fr ont 132550
QUE ST_ 132532
un used</w> 132504
T w 132502
list ener 132397
bu s 132346
AT E 132332
F ace</w> 132326
AM E</w> 132314
Get Name</w> 132308
0x1 3</w> 132301
bit map</w> 132296
ie ve 132283
TEX T_ 132273
P C</w> 132264
Content Type</w> 132232
Se q 132171
br ary 132168
par ser 132149
se l</w> 132147
char s</w> 132142
Vari ables</w> 132108
C K 132092
sh ift 132086
P lease</w> 132068
FORMA T_ 131987
I T</w> 131967
U tf 131953
W rap</w> 131922
s ound 131838
D er 131825
Group Layout</w> 131824
accessibility_ Accessible 131824
f c</w> 131810
pix el</w> 131786
We ap 131779
Sh adow 131774
0x2 1</w> 131756
ag ain</w> 131722
e ve</w> 131666
h igh</w> 131660
dat abase 131598
Si de</w> 131585
s amples</w> 131582
Log ical 131574
Categ ory 131555
enti ties</w> 131530
H int</w> 131505
aw a 131498
j et 131469
is Valid</w> 131464
Wor ker 131464
mi x 131459
constan ts</w> 131446
Quanti ty</w> 131385
c lip 131372
g ers</w> 131352
s 3</w> 131350
%cdv_ty.java_util_ ArrayList 131342
Error Code</w> 131325
perim ent 131313
mu l</w> 131267
Extr a</w> 131263
User s</w> 131261
int StringLen</w> 131247
i64 NEW_LINE</w> 131243
n l</w> 131217
ran k</w> 131181
u _ 131151
TL S 131151
medi a</w> 131126
De legate</w> 131123
st on</w> 131077
Sca lar 131040
im al</w> 131013
pre t 131001
ste p 130999
s From 130992
AN _ 130982
sh ader</w> 130952
match er</w> 130895
CONTRAC T</w> 130875
Q t 130859
Node Name</w> 130824
FLO AT</w> 130824
%class.java_util_ Date 130768
S N 130727
e as 130696
comp ile</w> 130694
confi g_ 130665
E st 130625
f e</w> 130624
google _ 130594
reg ex 130584
asyn c</w> 130574
9 3 130523
process ing</w> 130519
si n</w> 130507
__pyx_ t_ 130502
C C</w> 130423
AUR A_ 130402
n 1</w> 130395
d river 130392
pro gress 130390
i 18 130370
ig nore 130359
FI R 130353
run e</w> 130211
Sp an 130197
STATU S</w> 130153
ac comp 130053
MI N</w> 130051
mo v 130015
De lay 130000
0xff fe 129997
(%class.java_lang_Object *)NEW_LINENEW_LINEdeclare</w> 129943
address es</w> 129934
c lick 129774
VI SI 129774
12 0</w> 129737
S qu 129711
sr c_ 129695
identi ty</w> 129677
m 2</w> 129645
M L 129598
( ) 129583
F amily</w> 129566
v 4 129534
Bund le 129532
Time Millis</w> 129529
z er</w> 129495
9 2 129477
%bb5 ,</w> 129472
BOOST_ FOREACH</w> 129467
im g 129466
x t</w> 129463
LA I 129438
F X 129419
produc t</w> 129319
Miss ing 129297
al f 129235
CO LO 129221
ba z</w> 129213
List Options</w> 129196
7. 0.0. 129188
for m_ 129162
%bb8 ,</w> 129147
F uture 129070
table s</w> 129069
b lob 129066
p Item</w> 129055
st yle 129022
Sin k</w> 128991
RE ST 128948
strateg y</w> 128944
M IN_ 128937
0x1 5</w> 128920
limit s</w> 128912
Op t</w> 128902
coco s2 128889
equal To</w> 128813
Object Reference</w> 128797
H S</w> 128788
A ux 128776
pop ul 128754
ud it 128714
t re 128668
Authoriz ation 128652
T X 128618
po wer 128597
Fol der 128562
af fi 128558
Tr ack</w> 128552
af ter 128550
Deploy ment</w> 128526
Comp il 128513
sp ar 128417
Ex p</w> 128402
In cre 128379
as h</w> 128358
Ass emb 128246
t un 128227
C ASE</w> 128171
Coun ter 128168
_ load_class()</w> 128144
E lastic 128122
__ (%class.java_awt_Component*)NEW_LINENEW_LINEdeclare</w> 128093
ITE M</w> 128061
per son</w> 128054
a e 128027
Camer a 128025
all _ 127991
bri ef</w> 127962
DO WN</w> 127954
L ar 127941
c 0</w> 127877
Te mp</w> 127863
beans_ PropertyChange 127833
D ro 127823
With out 127814
Ali g 127764
Rep res 127759
3 00</w> 127745
0x3 9</w> 127742
Notific ation</w> 127693
__ _ 127640
parti tion</w> 127615
Prefer red 127615
is on</w> 127611
Case s</w> 127563
9 :</w> 127552
t m</w> 127544
DE VI 127542
op rot</w> 127539
Rol l 127536
D L 127514
server s</w> 127458
B on 127452
l v 127436
. 0,</w> 127365
internal _ 127253
p d 127249
Enc SendContainerState</w> 127248
fil ters</w> 127215
ati le</w> 127208
l p</w> 127184
so me 127170
%load.dv ,</w> 127148
Filter s</w> 127122
%load. dv</w> 127025
%load.dv .method</w> 127003
K ind 126984
ARRA Y</w> 126955
necess ary</w> 126954
Call Option</w> 126918
0x2 3</w> 126853
Struc ture 126804
pop r</w> 126799
FIEL D</w> 126789
Brea k 126738
in side</w> 126676
M igr 126672
Fe atures</w> 126633
E p 126608
un marsh 126600
0x2 4</w> 126580
Trig ger</w> 126545
n er_ 126523
wor ld 126509
ba sic</w> 126497
ac y</w> 126482
DI R</w> 126480
con dition 126476
PRO VI 126472
1 L</w> 126427
0 \ 126417
0x3 7</w> 126373
Vari ant 126341
O F 126335
Bo ston</w> 126309
_8 3 126280
arg 2</w> 126272
k api</w> 126217
Pay ment 126215
be low</w> 126201
DI P 126191
provid ers</w> 126115
por ts</w> 126072
Scri p 126065
Aut o</w> 126045
Im ages</w> 126035
ho me</w> 126021
S 3 126016
B G 125947
Defa ults</w> 125946
con sumer</w> 125942
Sof t 125915
d ar 125904
Min ute</w> 125842
v p 125810
List er</w> 125780
CUR R 125780
con si 125723
Class es</w> 125693
S um</w> 125648
Al gorithm</w> 125641
in v</w> 125632
start ing</w> 125617
z ero 125614
fin ally 125609
Su ch 125609
TH ER</w> 125604
Bran ch</w> 125548
w rapp 125546
AD D</w> 125535
medi a 125527
met he 125515
ch ro 125511
S ub</w> 125502
Action Listener</w> 125483
Unsupported Operation 125447
V 2 125440
8 2 125409
bu ff</w> 125409
M ore</w> 125400
B order</w> 125396
P K 125394
ch or</w> 125390
0x 7</w> 125387
av oid</w> 125377
_ a</w> 125314
rep r</w> 125227
cla zz</w> 125192
ra in 125183
ti d</w> 125042
fin ish</w> 125031
Dec SendContainerState</w> 125002
de ad 124986
expre ssion 124978
st ic</w> 124942
wh ite 124942
\x0 2 124923
_ state</w> 124907
De pth 124890
ind ent</w> 124874
E qu 124856
_ r 124840
C A</w> 124836
n n 124830
AT OR</w> 124816
C ip 124803
distribu tions</w> 124747
m id</w> 124744
R UN 124733
U int</w> 124721
%class.java_lang_StringBuilder *</w> 124685
lar ge</w> 124684
inherit Doc</w> 124660
Map s</w> 124657
Pre pare 124648
Non Null</w> 124644
ro tt 124617
U L</w> 124614
Date Time 124614
Resource List</w> 124592
Ret en 124549
Token s</w> 124545
_ map</w> 124485
LI ST</w> 124465
stream ></w> 124457
_32_32 _32_32 124449
w in</w> 124370
lo gs</w> 124356
fe ature 124340
par sing</w> 124328
ow n</w> 124277
TE MP 124103
0x1 7</w> 124102
sl f4j</w> 124097
_114 _101 124072
List en 124052
scan ner</w> 124049
0x 16</w> 124047
En dian</w> 124028
j or</w> 123997
Sign ature 123996
comp lex</w> 123982
BUFF ER_ 123970
ine ss 123965
bro ad 123937
perio d</w> 123920
Q Widget</w> 123890
Cap ture 123890
Not To</w> 123853
end or 123847
s n</w> 123791
1 32 123790
@" Polyglot_ 123757
st ates</w> 123755
local_unnamed_addrNEW_LINENEW_LINENEW_LINE declare</w> 123721
_115 _32 123701
Adap ter 123645
Anim ation</w> 123597
b c 123573
Comp ress 123540
11 11 123527
Ma il 123523
logi c</w> 123509
%class.java_lang_Integer *,</w> 123491
0 5</w> 123480
file system</w> 123468
BOOST_ CHECK</w> 123465
do Request</w> 123457
ch r</w> 123399
Buffered Reader 123399
p ing 123398
%class.java_lang_ Long 123368
at ely</w> 123354
pip eline</w> 123335
Func tions</w> 123309
%"op18 32 123281
contro l 123230
%class.java_lang_Integer *</w> 123227
EN CE</w> 123222
c ut 123201
gr ade</w> 123195
Instance State</w> 123191
s leep</w> 123141
HAND LE</w> 123091
%f binop 123081
200 0</w> 123073
And roid 123044
FLA GS</w> 123039
temp or 123014
Sh utdown</w> 122979
Ext ended 122955
W atch</w> 122920
U S</w> 122917
f ur 122912
ve hic 122888
i ons</w> 122882
f all 122877
_116 _105 122862
start sWith</w> 122829
La unch 122817
0 6</w> 122794
V ictim</w> 122792
Milli second</w> 122792
de legate</w> 122776
I T 122768
U 32</w> 122754
Su bject</w> 122718
__ J 122712
load. le 122671
a ren 122665
Indi ces</w> 122663
Dest ination 122648
C trl</w> 122646
opaqueNEW_LINE%class.java_io_Object InputStream</w> 122645
0x4 f</w> 122644
Check er</w> 122631
m_ ui 122629
No Such 122614
LL VM 122606
5 NEW_LINE</w> 122599
end point 122598
dat at 122595
HTM L</w> 122582
a udio 122565
Da y</w> 122564
du mp 122561
# pragma</w> 122522
run ner</w> 122491
Alph a</w> 122485
Alloc ator</w> 122460
fe ed 122411
No Method</w> 122401
row _ 122376
CRE ATE</w> 122339
DeepCopy Into</w> 122336
M Q 122294
e very</w> 122288
DA G</w> 122284
f lat 122273
trans form 122265
Sur face 122210
be ans</w> 122139
%bb 19 122133
Rece iver</w> 122091
AT ED</w> 122079
d ns</w> 122077
Interrup tedException</w> 122072
Fini shed</w> 122071
NEW_LINE NEW_LINE</w> 122022
ed ges</w> 122007
}NEW_LINE %class.java_io_ 121969
do _ 121960
b order</w> 121958
disc laim 121943
Equal To</w> 121939
igno red</w> 121912
%"op1832 1( 121900
0x4 c</w> 121896
w t</w> 121864
0xf e</w> 121861
Immutable List</w> 121858
fld Path</w> 121849
ME DI 121819
Rec ip 121812
mit ted</w> 121762
Stand ard</w> 121746
Wor k</w> 121700
G en</w> 121674
WI TH</w> 121656
fini shed</w> 121656
ol er 121633
conver t_ 121623
0x2 a</w> 121599
deco der</w> 121568
bt n 121553
Mach ine</w> 121534
List s</w> 121505
WRI TE</w> 121503
s ,</w> 121502
Set up 121475
%bb 16 121469
Comp are</w> 121465
T ouch 121458
opaqueNEW_LINE%class.java_awt_ event_ 121457
low er 121395
De st</w> 121362
da o</w> 121359
Del ta</w> 121355
" ,</w> 121346
p u</w> 121341
objec t_ 121313
Camer a</w> 121296
Logger Factory</w> 121274
pi ec 121241
% icmp</w> 121227
P et 121227
gra de 121186
mar t 121104
For ward 121091
AL S</w> 121084
con sist 121081
disclaim er</w> 121036
S ame 120964
ult i</w> 120962
curren cy</w> 120957
0x8 3</w> 120935
P ho 120931
SY STE 120908
\x0 4 120882
A ws</w> 120874
pri mary</w> 120869
v p</w> 120861
Z ip 120832
PU T_ 120760
for ward</w> 120725
Get ter</w> 120710
tra it_ 120695
Can cel</w> 120677
TL S</w> 120662
parti tion 120638
clean up</w> 120635
k log</w> 120621
re po 120595
0x6 b</w> 120551
ri de 120534
user Id</w> 120534
Hoo k</w> 120518
camer a</w> 120513
Can vas</w> 120509
Tas ks</w> 120482
b en 120433
n c</w> 120430
d ue</w> 120410
H ello</w> 120408
gl yp 120406
Sub net 120375
number Of 120356
Serial ize</w> 120346
struc tions</w> 120301
github_com_gogo_proto buf_ 120284
CONT RO 120241
print _ 120193
_10 7 120150
up per</w> 120141
T CP 120087
p ic 120069
12 7</w> 120033
Rel ative</w> 120026
20 ,</w> 120007
Set up</w> 120003
bran ch</w> 120001
AR IS 119892
im medi 119881
dest roy</w> 119831
Host name</w> 119825
U P_ 119806
SS L 119781
C r 119716
runtime_ error</w> 119708
D F 119684
in form 119670
cur s</w> 119586
Ver ify</w> 119547
pack et 119536
so mething</w> 119507
bu sy 119502
check s</w> 119488
par alle 119456
16 _ 119426
B ind</w> 119409
O VER 119400
_class_id ,</w> 119327
Command s</w> 119311
p g 119268
version s</w> 119265
Char Sequence</w> 119263
then Return</w> 119255
table Name</w> 119210
inclu de 119206
h it</w> 119166
WAR NING</w> 119161
(%class.java_lang_Enum *)*,</w> 119153
00 "</w> 119152
_P RI 119058
UT C</w> 119034
I mpl 118996
st age</w> 118977
T P 118964
ar _ 118935
0x3 f</w> 118922
S amp 118900
I s</w> 118899
re gex</w> 118834
D ump 118833
Chan nels</w> 118803
metho d_ 118779
MO DE</w> 118768
%icmp ,</w> 118765
analy sis</w> 118736
_108 _101 118715
UNKNO WN</w> 118715
0x4 6</w> 118641
co st</w> 118638
Affin ity</w> 118635
D OU 118616
Class Name</w> 118601
a b</w> 118574
r ad 118571
MO D_ 118559
r x</w> 118550
s Count</w> 118526
ab ri 118482
D raw</w> 118430
SLO T_ 118409
RE G</w> 118362
S orted 118350
conn ections</w> 118324
add All</w> 118320
sel ection 118320
require s</w> 118318
class Name</w> 118304
ran k 118279
File Info</w> 118231
C V 118201
ty _ 118194
PROVI DED</w> 118191
W ire 118172
TOR S</w> 118161
core _ 118094
_ 2,</w> 118052
Bench mark 118044
INDE X</w> 118034
a sc 118024
%gep 10 118017
Tit le 118006
He alth</w> 118002
et cd</w> 118000
D R 117949
unw rap 117939
LENG TH</w> 117912
ver bose</w> 117897
0x2 d</w> 117866
de serialize</w> 117836
15 0</w> 117836
g c 117834
Number Of 117819
New Reader</w> 117788
Sim ul 117759
b 2 117758
confi gs</w> 117697
wait ing</w> 117678
m_ spellInfo</w> 117674
raw _ 117662
bund le</w> 117645
fr ames</w> 117639
0x7 f</w> 117623
Scan ner</w> 117604
OR S</w> 117593
i32) *</w> 117591
er *,</w> 117569
%call 8</w> 117558
Cal led</w> 117544
exist ing 117536
NAM E 117516
Sign al 117514
opt _</w> 117508
trans action 117502
Mo unt</w> 117491
DAMA GES</w> 117415
M ON 117414
0x4 e</w> 117404
S ent 117389
he ap</w> 117346
get User 117344
%class.java_awt_Component *</w> 117335
register ed</w> 117334
Re distributions</w> 117308
Lig h 117293
Coin s 117273
OTH ER 117237
si de 117212
T S 117205
separ ator</w> 117184
Null Pointer 117172
match ing</w> 117164
SH ALL</w> 117146
name _ 117135
0x3 d</w> 117120
d l</w> 117112
LI ABLE</w> 117102
sc r 117089
a a</w> 117080
ST I 117056
credenti als</w> 117055
con sole</w> 116989
De leg 116968
UT F</w> 116966
_P ER 116961
t i</w> 116949
nam ed</w> 116902
List Meta</w> 116898
pwallet Main</w> 116823
ref s</w> 116810
Emb ed 116807
bu s</w> 116800
s al 116782
w rap</w> 116762
0 4</w> 116735
Inter val 116724
tolua_ S</w> 116716
COMP ARE</w> 116706
or ph 116692
_ cast</w> 116688
%class.sun_java2d_pipe_Region *,</w> 116668
TE D_ 116628
PORT_ DIP 116628
att ack 116627
be havior</w> 116607
F ace 116590
Micro soft</w> 116588
qui val 116583
d m 116529
Foc us</w> 116527
accord ing</w> 116509
p v</w> 116500
e s_ 116498
m_ n 116462
NE D</w> 116454
ac c</w> 116442
ve y</w> 116440
X Y 116438
lin ks</w> 116422
Di st 116360
t l</w> 116352
Z _ 116352
Ar c</w> 116280
0x0 c</w> 116280
v c 116255
Noti fy 116238
f ri 116237
%" interface 116183
EXP RESS</w> 116145
K o 116125
SECON DS</w> 116107
Uni x</w> 116048
start Time</w> 116027
STR I 115990
0- 9</w> 115970
EX CEP 115958
IP V 115954
cd v</w> 115901
Initializ ed</w> 115890
%"op18321( load.le 115870
R T_ 115866
F amily 115861
excep tions</w> 115860
th et 115850
*) *NEW_LINE</w> 115824
Version s</w> 115822
5 12</w> 115786
G LO 115783
11 6</w> 115773
F AC 115748
sen si 115741
LAN G_ 115684
Se q</w> 115682
Z ER 115679
spaw n 115667
Wait For 115660
e val 115625
de p 115617
WI SE</w> 115612
G D 115506
_ 50 115422
p ho 115392
8 6_ 115392
L LI 115383
UTF 8 115354
O K 115346
N S 115324
ony m 115297
Typ ed 115269
me asure 115257
Message Info</w> 115255
um p</w> 115244
R atio</w> 115230
TI ME_ 115185
Produc t</w> 115165
Get TypeId</w> 115145
ro n</w> 115135
un known 115090
Pri ority 115085
0x0 f</w> 115075
Re store 115059
ta g_ 115037
awt_ App 115009
MO V 114998
Mon itor</w> 114985
k now</w> 114978
0x8 2</w> 114964
1 c 114963
__ Ljava_ 114963
sh utdown</w> 114934
0x8 8</w> 114932
trigger ed</w> 114931
repres entation</w> 114930
B rid 114917
} NEW_LINE</w> 114910
50 9 114910
di ag 114877
struc t_ 114868
10 "</w> 114824
B C 114768
Wid th 114753
s an 114739
Re stri 114720
NU M_ 114701
s *</w> 114687
Di gest</w> 114654
ut ors</w> 114643
ti p</w> 114639
b 1</w> 114624
materi al</w> 114598
ARIS ING</w> 114585
Go t</w> 114578
li t 114529
pro p 114526
sec ret 114519
minec raft</w> 114491
Graphic s</w> 114477
Info s</w> 114456
Create d 114441
T run 114435
2 C 114423
lu a 114414
Y ear</w> 114385
Pre vi 114378
Spell Script</w> 114364
ter n 114324
__I ( 114320
bit Field 114310
a de 114308
S ound</w> 114303
Match es</w> 114281
Con flic 114272
MESSA GE</w> 114214
Attr s</w> 114206
det ail</w> 114158
en c</w> 114139
Temp or 114129
GH T_ 114124
Ignore Case</w> 114109
He ad</w> 114101
0x1 9</w> 114095
R adius</w> 114086
TC_ LOG_ 114083
WHE THER</w> 114067
14 ,</w> 114007
w s 113931
sub str</w> 113893
T ur 113888
In ner 113854
Back end 113835
0x4 d</w> 113828
MUL TI 113822
TE S</w> 113807
Con st</w> 113766
R B 113755
Table Name</w> 113699
po wer</w> 113680
b d 113664
no te 113652
LE R</w> 113588
c ut</w> 113561
Sy m 113525
0x1 b</w> 113472
Brea k</w> 113430
Ori entation</w> 113392
kub econ 113383
W S</w> 113376
auto scal 113365
Th ere</w> 113350
g ing_ 113347
Pro p</w> 113313
VERIF Y</w> 113303
pre cision</w> 113301
atter ns</w> 113290
cal end 113282
SIZ E_ 113281
w tx</w> 113276
olog y</w> 113272
C S</w> 113266
Sche me 113266
arra y_ 113259
Sk ill 113242
ab ility 113240
k in 113218
IllegalState Exception</w> 113216
_ re 113215
Up dat 113175
co bra</w> 113163
Primi tive 113127
SP ACE</w> 113109
w ell</w> 113105
mon th</w> 113105
M D</w> 113070
fi t</w> 113062
Cach ed 113039
constra int</w> 113014
uld n</w> 113007
ob serv 112942
0x1 e</w> 112939
Bran ch 112907
DAMA GE</w> 112890
%cdv_ty.java_lang_ ClassCastException 112888
noti fy</w> 112883
st u 112818
OTHER WISE</w> 112788
b g</w> 112775
0 8</w> 112769
chun k 112734
L S 112702
Authenti c 112664
vol atile</w> 112663
end er</w> 112646
un able</w> 112612
g ue 112606
Rel ative 112604
0 L</w> 112600
__Ljava_lang_String_ 2 112565
Check s</w> 112514
sum mary</w> 112514
p from</w> 112478
fin al 112446
AT URE_ 112445
Extr act 112436
we ap 112433
0x 8</w> 112431
t le 112425
RG B</w> 112416
bo ss_ 112414
p atch 112406
work er</w> 112402
0x6 0</w> 112388
over flow</w> 112383
20 16</w> 112376
a si 112375
T ool</w> 112363
Tran sition 112362
0x2 6</w> 112354
lan ding 112287
Comp are 112286
bitField 0_</w> 112282
oper and</w> 112276
Lo w</w> 112271
Data Source</w> 112236
po pu 112222
Print er</w> 112207
iss ue</w> 112178
TE ST 112162
ref resh 112159
TOR T</w> 112150
arch ive</w> 112105
MO D 112098
share d 112082
lo o 112067
end ing</w> 112053
d x 112023
N A 111952
Id ent</w> 111942
ME MB 111940
18 ,</w> 111938
Ax is 111927
0x8 1</w> 111925
t c 111924
D RA 111915
Op tim 111913
0. 5f</w> 111913
local _ 111893
Complet ion 111876
G RE 111861
a 2</w> 111857
Fe e</w> 111854
art be 111833
SER I 111827
ari es</w> 111822
M R 111798
Re d 111792
exp an 111787
hand led</w> 111781
SCH E 111739
Q List</w> 111734
sin k</w> 111718
cop ied</w> 111711
SH IF 111704
String Value</w> 111694
Compon ents</w> 111691
m_ h 111668
pan el</w> 111640
vi sor</w> 111632
remain ing</w> 111628
sGet Call</w> 111620
Si de 111614
Dis card 111607
i prot</w> 111603
BU IL 111600
volume s</w> 111590
p atch</w> 111587
Oth er</w> 111534
Std out</w> 111485
Th et 111475
Y P 111468
sp i</w> 111449
un versioned</w> 111440
SP _ 111397
_p layer</w> 111393
skip_ serializ 111337
m x 111315
G S 111262
codecSelfer_container Map 111251
co ur 111167
fini sh 111153
re ts</w> 111120
} *)</w> 111081
de precated</w> 111065
13 ,</w> 111062
FA IL 111041
Be en 111027
T ools</w> 111014
Co ord</w> 110998
Bit map 110979
_PLAY ER</w> 110944
Li ve 110928
Register Type</w> 110904
skip_serializ ing_ 110903
Field 2</w> 110889
CON TRIBU 110889
Ad just 110827
D C 110803
_1 _ 110771
Enum er 110755
0x FF 110713
Decim al 110708
Con sole 110706
lib _ 110699
th reshold</w> 110696
string stream</w> 110676
int 16</w> 110659
LOG GER</w> 110651
0x7 1</w> 110639
Norm al 110603
@Polyglot_java_lang_Object_ wait 110594
1 a 110564
3 00 110545
Registr ation</w> 110541
skip_serializing_ if</w> 110492
col li 110490
__ Py 110477
3 .0</w> 110422
lan k</w> 110394
com_ sun_ 110364
B G_ 110323
Per son</w> 110318
manage ment</w> 110317
n io</w> 110300
tr y_ 110291
o c</w> 110287
vari able 110287
Encryp tion 110263
avai lable 110249
iz ation</w> 110241
Code s</w> 110222
Res p</w> 110213
landing pad</w> 110202
byte s 110171
f 1</w> 110159
inst all 110148
R W 110136
di gest</w> 110118
path _ 110116
2 000 110115
CHAR _ 110112
RE AD</w> 110111
St age 110110
y 2</w> 110106
0x4 7</w> 110106
Ke ep 110101
Po ssi 110097
F ri 110036
Latin 1 109993
%class.java_awt_Font *,</w> 109987
Ab solute 109975
Schedul er</w> 109954
ass ign</w> 109913
2 d 109910
metri c 109902
fir st_ 109900
hoo k 109886
C RI 109882
Time Unit</w> 109849
N V 109823
C pu 109818
Tr ust 109811
wx T</w> 109810
" *)*,</w> 109765
%class.java_ math_ 109763
Rec ords</w> 109756
Avai lab 109756
Clo ud</w> 109744
Q COMPARE</w> 109739
t p 109705
i b 109690
pri vate 109645
EX T</w> 109645
Inst all 109643
Sp rite 109639
0x1 c</w> 109623
pro methe 109606
AT TRIBU 109599
dum my</w> 109582
boo st 109577
Do t 109561
R ights</w> 109557
ro ss</w> 109557
and roid 109547
ffic ul 109528
si cs</w> 109483
io s</w> 109470
Enco ding 109468
Q StringList</w> 109447
N T</w> 109419
_8 4 109399
P AS 109376
%cdv_ty. javax_swing_J 109354
k i</w> 109350
update _ 109340
get Int</w> 109289
dum p</w> 109274
E val 109246
ser ies</w> 109240
Un ary 109196
liter al</w> 109153
sm all</w> 109144
Update d</w> 109137
Soc k 109111
be st 109045
S nap 109026
re sp 109025
ast ore</w> 109018
g am 109016
m b</w> 108998
Ser ve 108982
64 Map</w> 108962
0000 000 108928
h ard 108919
32 "</w> 108880
GO O 108863
p et</w> 108852
c riteri 108830
Li b 108830
cor responding</w> 108791
i se</w> 108790
err no</w> 108654
D TO</w> 108653
call ing</w> 108559
n ers</w> 108541
Di ag 108538
Up per 108524
(%class.java_lang_ Thread 108497
contains Key</w> 108497
Bit coin 108450
oc curred</w> 108435
col ors</w> 108430
@_string_lit_ 10 108397
ly ing</w> 108392
.loopexit .split-lp 108385
0x5 6</w> 108357
fal se 108356
hand lers</w> 108334
32 Map</w> 108321
autom ati 108315
L iter 108310
G RA 108290
Process ing 108290
Config ur 108280
Range s</w> 108275
en sure</w> 108264
reser ve</w> 108260
0 )NEW_LINE</w> 108253
%a0 )NEW_LINE</w> 108245
E A 108225
U uid</w> 108200
i18 n</w> 108172
NOR MAL</w> 108098
Q Latin1 108089
Vector *,</w> 108055
Start Time</w> 108019
w _ 107967
LEVE L_ 107955
Invent ory 107945
7 NEW_LINE</w> 107922
base _ 107916
th er 107913
H AS 107891
on t_ 107883
dy namic</w> 107882
ado w</w> 107846
Accep t 107844
sv c 107822
0x 3</w> 107806
stati c 107805
@Polyglot_java_lang_System_ load_class()NEW_LINE</w> 107772
Stati stics</w> 107765
set Property</w> 107754
Get Position 107739
Object Mgr</w> 107725
set ting 107717
Sum mon 107708
_class _id</w> 107678
D ri 107665
O L 107655
St age</w> 107653
Rout er</w> 107653
rece iver</w> 107628
B ack</w> 107612
ON LY</w> 107609
Resource s 107590
i ent 107583
_ j 107579
Syn tax 107564
Debug f</w> 107547
%class.java_ nio_ 107545
@Polyglot_java_lang_String Builder 107509
%cast.new )NEW_LINE</w> 107500
16 0</w> 107495
o m_ 107487
0x a</w> 107475
li es</w> 107444
List Result</w> 107441
L en 107429
c ls</w> 107421
q _ 107407
code _ 107407
R M 107401
wh o</w> 107401
draw able</w> 107397
0x9 0</w> 107392
paint er</w> 107361
invo ke 107290
Sh ift</w> 107249
J Text 107242
b j</w> 107226
%c ast</w> 107216
Per cent 107203
comp il 107192
REQU IR 107170
Base URL</w> 107165
%class.java_lang_String*) **</w> 107158
%cast ,</w> 107140
Can on 107139
CONTRIBU TORS</w> 107118
Co ord 107117
to k 107117
On ClickListener</w> 107092
d p 107091
Read y 107084
file Path</w> 107080
v a</w> 107075
bet a</w> 107075
0x0 d</w> 107046
\ NEW_LINE 107004
man ifest</w> 106992
0x2 7</w> 106966
th er</w> 106960
S I</w> 106955
Access or 106938
uni x</w> 106931
10 5</w> 106928
a ded 106927
Hoo k 106914
Ad dition 106911
)" NEW_LINE</w> 106905
0x2 5</w> 106903
Flo w</w> 106894
g gle 106893
s ent 106887
Comp iler</w> 106847
AC K_ 106830
p adding</w> 106820
Flu sh</w> 106784
DE P 106766
l y_ 106758
Materi al 106753
l b 106745
format s</w> 106741
Scan ner 106716
Di al 106707
Security Group 106698
set Visible</w> 106675
Sig ned 106672
notific ation</w> 106654
di men 106639
URL Params</w> 106597
Gener ator 106596
_111 _117 106576
i32) NEW_LINENEW_LINEdeclare</w> 106575
tr act 106565
n p</w> 106558
char _t</w> 106557
pk g 106551
in dex_ 106527
Change s</w> 106522
ce _ 106515
is n</w> 106502
ex tra 106500
d 1</w> 106497
Thread s</w> 106496
DB _ 106491
HO LD 106474
Per form 106466
min imum</w> 106459
Ti le</w> 106437
f amily</w> 106428
op _ 106427
. 0f</w> 106357
RE D_ 106338
li te 106327
Nan o</w> 106309
use _ 106286
ME M 106259
M utable 106222
%bb 2. 106217
comm on 106216
C lock</w> 106200
err no 106190
pre par 106175
B lu 106174
r u 106158
Di e</w> 106133
g ri 106129
OBJ ECT</w> 106109
publi sh</w> 106095
d t 106085
c lean</w> 106083
unwrap _ 106075
b er</w> 106063
j p 106051
test util</w> 106046
coun t_ 106042
mu st 106038
0x2 b</w> 106003
ST O 105982
F P 105975
A to 105961
0000000000000000 0000000000000000 105959
anim ation</w> 105959
Exp ir 105950
U N</w> 105918
run time 105885
%call 11 105856
c ert 105852
re l</w> 105842
M T</w> 105811
COMP LE 105792
m_ creature</w> 105760
St ud 105752
Stream s</w> 105752
LE D_ 105750
S and 105747
Mock ito</w> 105710
we st</w> 105678
T ech 105661
TRAN S 105659
RE F</w> 105642
0x1 d</w> 105635
%bb3 ,</w> 105622
0x4 b</w> 105603
Auth or</w> 105596
Version UID</w> 105580
0xe 0</w> 105572
sq rt</w> 105552
D uplic 105540
ra in</w> 105538
0x5 8</w> 105536
0xc 0</w> 105530
r h 105506
ev al</w> 105492
Focus Traversal 105473
oper ation 105469
olog y 105460
x 0</w> 105458
qu er 105427
pp ed</w> 105382
0xb f</w> 105369
opaqueNEW_LINE%class.java_io_Object OutputStream</w> 105354
Allow ed</w> 105353
Memb ers</w> 105348
restri ction</w> 105317
n e</w> 105303
constra ints</w> 105303
field Name</w> 105295
M ix 105288
LE S</w> 105281
Pod Spec</w> 105275
l 2</w> 105262
S core 105221
A DER</w> 105214
comp i 105183
Utili ties</w> 105171
vi te 105165
ErrIntOverflow Generated</w> 105164
de lay 105145
Gl yp 105140
_115 _116 105134
Pan e 105099
IN S_ 105076
no t_ 105049
chan t 105038
serial VersionUID</w> 105033
si d</w> 105029
_ index</w> 105019
Or acle</w> 105012
r pc 105006
aur a</w> 104991
SOUR CE_ 104975
ACTI VE_ 104965
fail s</w> 104959
def _id</w> 104945
6 NEW_LINE</w> 104918
De serializer</w> 104875
2 24 104873
4 f</w> 104855
0x8 4</w> 104839
P ages</w> 104803
\x8 0 104791
or . 104786
i pt 104783
c cx</w> 104781
Alph a 104773
rece ive</w> 104761
0xf 8</w> 104744
%class.java_io_ InputStream 104730
Re view 104704
get Value 104682
rec ip 104635
v in</w> 104631
@Polyglot_java_lang_System_ class,</w> 104619
( %interface.java_util_ 104605
Page Token</w> 104599
f t_ 104564
gen _ 104559
" 2"</w> 104538
Ljava_lang_ String_ 104505
Key Event</w> 104504
Auto scal 104493
Loc ator</w> 104453
_ 7 104438
le e 104417
li fet 104381
proble m</w> 104367
Time s</w> 104359
B LOCK_ 104358
Dis abled</w> 104352
N ON 104344
st ro 104315
wx String</w> 104299
29 ,</w> 104278
Ne ed 104275
cur sor 104269
Observ able</w> 104260
s r</w> 104244
dimen sion</w> 104235
VALU ES</w> 104223
@Polyglot_java_awt_Window _ 104184
Lin ux 104167
uni code</w> 104141
hi de</w> 104090
busy box</w> 104084
Scal ing 104067
Attribute s 104062
0xd 8</w> 104017
Un safe 103998
LINE _ 103996
he alth</w> 103994
out puts</w> 103979
g y 103947
RO O 103935
Arti fact 103932
Pro ble 103925
Buff ers</w> 103917
imp l_ 103897
geo metry</w> 103846
Clo sed</w> 103812
Node Id</w> 103806
18 0</w> 103775
u id 103766
spaw n</w> 103765
Oper ations</w> 103753
Declar ation</w> 103746
Stati c</w> 103702
0x3 c</w> 103696
Execu tion</w> 103684
Or g 103681
\ 3 103673
rec v 103665
n Height</w> 103658
Has Prefix</w> 103657
d 2</w> 103634
polic y 103608
Pri ce</w> 103578
Conn ector 103575
rel ative</w> 103555
%class.java_awt_ image_ 103553
b p 103548
Rect angle 103527
SE QU 103523
a round</w> 103507
F T_ 103499
Has Been 103478
cli ents</w> 103457
get Context</w> 103438
promethe us</w> 103427
0xb 0</w> 103397
G C</w> 103356
match ed</w> 103351
en ough</w> 103347
Cir cu 103341
Te le 103331
Colo ur 103315
in vent 103291
tr ace 103284
TH E 103282
gu lar 103278
File System</w> 103259
SUP POR 103258
R c</w> 103256
le ep 103240
ob tain 103228
@Polyglot_java_lang_ ClassCastException 103225
@Polyglot_java_lang_String_ cdv</w> 103211
rel ation 103204
Ite ms 103176
Noti fy</w> 103145
Quo ta</w> 103055
be st</w> 103048
P atch</w> 103025
di ag</w> 103023
UPDAT E</w> 103016
%class.java_ security_ 102969
0x7 d</w> 102965
oo th 102957
QU ER 102951
OR T_ 102941
Tree Node</w> 102939
SOC KE 102925
si mul 102911
F D</w> 102907
p in 102904
M one 102893
ir d 102880
Linked List</w> 102868
An on 102818
TRAN SL 102790
De scription 102780
Custom er 102779
dis able</w> 102776
x s</w> 102743
v 20 102727
Wor ker</w> 102726
provi sion 102705
con ven 102696
i ver 102686
DI SP 102684
Z Z 102676
get Max 102654
ing er 102651
T mp 102645
seg ments</w> 102639
Base Path</w> 102637
sh adow 102619
0x5 9</w> 102609
name space 102567
t ool</w> 102548
Per formed</w> 102498
mem ory 102479
dy n_ 102470
Warn ing 102468
Buffer *</w> 102447
NEW_LINE} NEW_LINENEW_LINENEW_LINENEW_LINEdeclare</w> 102431
cal ler</w> 102419
Dam age</w> 102411
en ted</w> 102409
it self</w> 102407
struc tor 102396
ar an 102392
0x7 b</w> 102321
0x3 b</w> 102313
qu anti 102309
init _ 102290
open source</w> 102287
%cdv_ty.java_lang_String NEW_LINE 102284
Par ts</w> 102280
Resource Name</w> 102280
FIL TER_ 102269
P ATH</w> 102262
Bu d 102261
tx n</w> 102242
Target s</w> 102197
Discover y 102192
Lo aded</w> 102157
de ps</w> 102143
ex change</w> 102105
Flo or</w> 102071
un checked</w> 102067
Accep t</w> 102057
19 2</w> 102053
% or. 102050
mi ted</w> 102048
Get String</w> 102036
la mb 102022
ne ss 101989
Vec 2</w> 101959
act ually</w> 101943
U ri 101927
IN SER 101925
Balan ce</w> 101905
produ ce</w> 101877
Parti tion</w> 101870
e u</w> 101815
in v 101813
Rec y 101800
WID TH</w> 101798
n an 101797
CM D_ 101783
Uni ver 101770
L it 101765
w t 101742
me t</w> 101714
plan e</w> 101697
%bb9 NEW_LINE</w> 101693
z one 101679
C ross 101678
0x8 6</w> 101675
lo ok</w> 101640
c lang</w> 101614
Rec v</w> 101577
table _ 101574
%bb6 NEW_LINE</w> 101568
STA TI 101537
ut down 101530
%bb8 NEW_LINENEW_LINEbb 101511
0xfffe 30 101486
a udio</w> 101478
P lace</w> 101459
log ging_ 101458
0x3 e</w> 101453
person al 101453
Inte ger_ 101427
0. 0"</w> 101422
cur r</w> 101418
Clo sing</w> 101406
C L</w> 101395
J N 101391
mon itor</w> 101386
v n 101384
0xf 0</w> 101384
cur _ 101367
F RE 101350
xxxxxxxxxxxxxxxx xxxxxxxxxxxxxxxx 101337
Co ur 101306
per form</w> 101256
FUN C</w> 101255
A E 101223
O Auth 101169
api server</w> 101159
sched ule 101158
deploy ment 101129
r adi 101113
dr ag 101112
update s</w> 101110
WIN 32</w> 101087
%call 4 101076
Result Set</w> 101052
ri t</w> 101051
b son</w> 101029
Input Service 101025
ar row</w> 101018
3 )NEW_LINE</w> 100990
key sFor 100988
10 2</w> 100978
work space</w> 100961
war n 100956
bit coin</w> 100910
%cdv_ty.java_io_PrintStream *</w> 100897
%cdv_ty.java_io_PrintStream **</w> 100895
Su bject 100849
W nd</w> 100823
g y</w> 100822
Linked List 100819
Rast er 100817
\x0 5 100783
C ard</w> 100765
re gs</w> 100765
Combo Box</w> 100757
%class.java_io_PrintStream **</w> 100727
awa it</w> 100727
parse Int</w> 100720
sing le 100693
ErrInvalidLength Generated</w> 100618
20 13</w> 100608
%cdv_ty.java_io_PrintStream ,</w> 100575
to a</w> 100566
%class.sun_ awt_App 100558
C ALL</w> 100552
k it 100546
IS D</w> 100540
l c</w> 100532
li d</w> 100526
HOLD ERS</w> 100525
LOC K 100521
\x0 6 100504
%class.sun_awt_App Context*,</w> 100468
bu g_ 100450
c_ char</w> 100434
as_ ref</w> 100421
Confi gs</w> 100410
core v1</w> 100396
b 2</w> 100395
repres ents</w> 100390
rot ation</w> 100388
r d</w> 100350
mi r 100335
j i 100328
ber n 100301
M ir 100281
sp ro 100253
a / 100219
Comp ile</w> 100206
m_ f 100190
Po wer</w> 100185
UN D_ 100182
h ar 100156
boost / 100156
saved InstanceState</w> 100152
Cla im</w> 100151
all ing 100138
pend ing</w> 100122
%call 4</w> 100092
Ser ies 100083
NO OP</w> 100079
HttpServlet Request</w> 100052
success ful</w> 100045
Ap pro 100044
is In 100043
H our</w> 100042
C EN 99992
v1beta 1_ 99977
0x8 5</w> 99956
LE N</w> 99953
Cast Spell</w> 99928
__ (%class.java_lang_Object*)NEW_LINENEW_LINEdeclare</w> 99923
publi c 99913
Li brary 99909
alloc ator</w> 99900
equals IgnoreCase</w> 99874
m id 99872
Et cd 99870
Format ter 99845
0x0 e</w> 99824
Ht ml 99811
ech o</w> 99799
li tt 99789
go ing</w> 99785
Multip le 99712
From String</w> 99666
Perio d 99658
Prepared Statement</w> 99645
%class.javax_ accessibility_Accessible 99637
C ert</w> 99582
numb ers</w> 99557
S P</w> 99540
\ 1\ 99540
current TimeMillis</w> 99484
i8 * 99482
Star ted</w> 99476
gu lar</w> 99473
k b 99466
be fore 99463
103 ( 99434
to_ owned</w> 99427
gu ard</w> 99425
SETT ING</w> 99396
go t 99390
CAL L 99370
Rend er</w> 99337
NO N</w> 99334
stream s</w> 99329
g i</w> 99321
et cd 99315
ROM_ LOAD</w> 99309
%class.java_io_PrintStream ,</w> 99301
2 f 99271
ref resh</w> 99270
midd le</w> 99252
predic ate</w> 99238
P F 99201
LO NG</w> 99196
th on</w> 99182
Attach ment</w> 99180
HasBeen Set</w> 99171
R Unlock</w> 99167
%bb7 ,</w> 99152
< boost/ 99149
CHEC K 99120
gin k 99110
p block</w> 99091
AD D_ 99062
AM E_ 99061
arg o</w> 99058
METHO D</w> 99057
Mar k</w> 99042
DEFI NE_ 99009
gt k_ 99003
utf 8</w> 98993
v ictim</w> 98991
Par ty 98964
r b</w> 98954
Cla use</w> 98939
Per missions</w> 98912
0x8 b</w> 98906
http test</w> 98904
TRAC E</w> 98898
SA F 98878
Enable d 98873
Comb ine 98871
cap ture 98869
Update d 98842
0xe 2</w> 98794
20 12</w> 98792
8 00</w> 98789
Con sole</w> 98789
Builder _</w> 98789
_ 69 98770
ifi cation</w> 98752
OP ER 98746
authenti cation</w> 98738
pre st 98728
0x6 a</w> 98714
BEG IN</w> 98709
direct ly</w> 98706
very thing</w> 98701
Map *</w> 98672
in k 98669
gl m</w> 98666
excep tion 98660
Sw ap 98656
o l</w> 98654
R pc 98652
M M</w> 98646
ect l</w> 98646
co lo 98580
Mo re 98562
C BlockIndex</w> 98543
0x8 7</w> 98490
-0 1</w> 98484
Ad ded</w> 98427
lo y 98414
e qu 98410
mach ine 98386
get Height</w> 98351
Produc er</w> 98348
yy q 98300
regi ons</w> 98287
EN O 98259
f q 98256
Stati stic 98245
sp an 98239
n a</w> 98238
prepar ing</w> 98212
Public Key</w> 98163
ne mon 98129
3 f 98101
%interface.java_util_Set *,</w> 98077
B g 98069
D uration 98046
Dest roy</w> 98044
Bot tom</w> 98031
bind ings</w> 97997
v t 97972
0x8 e</w> 97952
action _ 97928
Allow ed 97925
modi fication</w> 97884
) ,</w> 97860
get Operand</w> 97860
Aux Int</w> 97851
G ue 97849
M k 97837
Device s</w> 97800
w 3 97784
an swer</w> 97773
UnsupportedOperation Exception</w> 97757
Iss ue 97724
Ali as 97718
Call s</w> 97693
Log ging 97683
Compo site 97667
Event s 97653
%call 12 97651
4. 1</w> 97636
fr ont 97625
Affin ity 97624
C AP 97615
Origin al 97607
PLAY ER_ 97606
OFF SET</w> 97591
int 8</w> 97586
ite d 97571
%bb2 NEW_LINE</w> 97562
p ool 97544
Fini sh 97538
Lifecy cle 97525
d at</w> 97521
- 2</w> 97515
r int</w> 97505
a o 97476
lap sed</w> 97475
get Width</w> 97474
J AX 97471
result 1</w> 97469
re ssion 97462
2 c 97457
Data set 97437
And roid</w> 97437
co s</w> 97422
%gep 4 97419
%cast.er asure</w> 97412
10 :</w> 97386
Next Token</w> 97384
la z 97353
< c 97339
get Parent</w> 97319
amaz on</w> 97306
DA O</w> 97256
a rea 97229
m al 97225
Y Y 97217
Table s</w> 97209
subscription ID</w> 97174
w all 97154
Ac tor</w> 97126
b ur 97112
BUFF ER</w> 97104
VERSI ON_ 97092
mar gin</w> 97083
Coll ector</w> 97080
L F 97074
Man ifest</w> 97070
R C</w> 97034
0x4 a</w> 97021
Less er</w> 96994
PRO PER 96979
Hist o 96952
check ing</w> 96944
Gate way</w> 96897
\x8 9 96886
F ull</w> 96884
8 00 96861
We ak 96850
H D 96841
ub e</w> 96835
norm aliz 96823
File s 96805
0xc 3</w> 96730
M s</w> 96717
sol ute</w> 96710
get ting</w> 96708
Data Source 96664
certific ate</w> 96652
b lu 96651
T un 96639
%bb9 NEW_LINENEW_LINEbb 96632
Exp and</w> 96614
opaqueNEW_LINE %interface.java_awt_event_ 96611
List By 96594
\ 00 96545
EX T 96522
G au 96518
ori entation</w> 96477
TAB LE_ 96476
%bb 8NEW_LINE</w> 96468
0x5 7</w> 96464
__ L 96462
rec v</w> 96458
en s</w> 96457
Comm un 96444
Top ic</w> 96433
i8* ]</w> 96425
or m</w> 96391
U int64</w> 96363
Organiz ation 96358
In c 96350
or g 96338
s ound</w> 96336
Sys call</w> 96313
w as 96307
E DI 96290
az el 96287
COMM AND_ 96286
re try</w> 96281
de pth 96278
la unch 96223
par sed</w> 96206
%"op18 103( 96195
in str 96178
Kub elet 96168
contrib utors</w> 96165
0x4 F</w> 96162
me an</w> 96159
ir d</w> 96100
11 90 96097
Lin ux</w> 96097
R Lock</w> 96085
job s</w> 96085
JSON RPC 96024
String Ref</w> 96010
ur ity</w> 95958
Key s 95943
ar y_ 95927
C Y 95904
Imp ort</w> 95894
0xe f</w> 95875
r u</w> 95806
sk top</w> 95795
ST AM 95794
alloc ated</w> 95771
USE R</w> 95752
Test Case 95748
get All 95735
NUMB ER</w> 95728
ad min 95705
String Buffer</w> 95703
Li b</w> 95695
V m 95673
_4 8_ 95673
get Last 95670
gink go</w> 95647
unit Target</w> 95615
in com 95574
SH AD 95574
t cp 95562
Q MessageBox</w> 95555
our s</w> 95508
B and 95481
Ar m 95475
S K_ 95473
make_ pair</w> 95472
ce s 95461
Buff er_ 95455
[ 3</w> 95435
We ek 95428
0xa 0</w> 95423
depend ent</w> 95419
test Case</w> 95417
Text String</w> 95398
Game Object</w> 95387
old ers</w> 95371
_s lice</w> 95369
update d 95341
Pip eline</w> 95332
est im 95321
0x7 c</w> 95318
tra in 95306
defini tions</w> 95294
i 2</w> 95276
FAIL URE</w> 95274
Schedul er 95271
cal c 95259
ste ps</w> 95236
v t</w> 95217
math_ rand</w> 95217
Ori entation 95216
11 4</w> 95205
In spect 95194
b n 95188
ifi ed</w> 95182
%gep 2 95157
%a 2,</w> 95132
if None 95127
Dam age 95095
user Agent</w> 95093
Date Format</w> 95088
Option al 95080
" 0 95073
comb in 95033
hel pers</w> 95030
Decode As 95028
m ade</w> 95018
NewErrParam Required</w> 95014
/ go 94993
goo d 94977
0x0000 0000</w> 94964
Di stance 94946
h ex 94938
ai r 94921
p et 94911
0x8 9</w> 94906
db c 94905
Util s_ 94905
get P 94904
B T 94884
i 16 94863
al ert</w> 94860
new Request</w> 94858
L C 94852
Exp an 94838
Ali ve</w> 94812
sup port 94805
J Label</w> 94800
z _ 94791
DecodeAs Nil</w> 94763
Try DecodeAsNil</w> 94752
con s 94748
Pro p 94710
s w</w> 94708
f 2</w> 94665
r ng</w> 94649
INTE GER</w> 94629
I GHT</w> 94602
boo t</w> 94602
_P A 94595
I toa</w> 94554
ACH E</w> 94544
cl er 94516
out ,</w> 94504
11 5</w> 94473
' \ 94447
25 0</w> 94427
personal ity_ 94412
0x9 4</w> 94401
0x9 2</w> 94383
Cook ie</w> 94377
B LOCK</w> 94372
Float 64</w> 94367
Diff er 94336
Ign ore</w> 94323
A P</w> 94311
0xf c</w> 94289
Un less 94283
r i</w> 94263
\x0 f 94257
vi su 94256
Suppor ted</w> 94240
z er 94218
Ser ies</w> 94196
Con sumer 94185
der ived</w> 94161
F all 94143
ENAB LED</w> 94138
dest roy 94126
pre Index</w> 94080
ENTI AL</w> 94077
DE F_ 94066
v 6 94023
AM D 94009
FORMA T</w> 93995
Proto s</w> 93978
iz er 93956
l 1</w> 93953
om g_ 93937
authenti c 93936
STR _ 93930
declar ation</w> 93870
determin istic</w> 93855
org_ omg_ 93852
is EqualTo</w> 93841
java_ personality_ 93839
@__ java_personality_ 93839
lock ed</w> 93830
sy m 93803
ss l</w> 93778
ran ges</w> 93778
f li 93771
V R 93749
0x5 a</w> 93736
ti ck</w> 93713
an g</w> 93709
AppComp at_ 93709
0x9 3</w> 93698
F UL 93682
Class $ 93667
He ap</w> 93663
Deep Copy</w> 93662
li k 93656
Check Box</w> 93644
red is</w> 93619
T mp</w> 93605
Listener s</w> 93587
repres ent 93583
C nt</w> 93581
finally .res 93573
Iter able</w> 93571
materi als</w> 93562
phra se</w> 93560
equals __Ljava_lang_ 93545
Sp ring 93519
UNI T</w> 93488
@Polyglot_java_lang_System_ out,</w> 93474
api Version</w> 93461
Mouse Event</w> 93454
Invo cation 93447
Big Integer</w> 93402
roo m</w> 93388
U i 93327
on e_ 93326
0x7 a</w> 93326
i64) *,</w> 93319
enti al</w> 93294
S ign</w> 93252
P adding</w> 93246
\x8 b 93242
up dat 93237
Re ach 93234
Respon d</w> 93220
%bb10 ,</w> 93212
ms g_ 93208
e ffic 93163
Pl ural 93161
In line 93157
AC KE 93128
B lob</w> 93124
sel f 93121
Valid ator 93067
RE G 93012
COL OR_ 93003
AR N</w> 92998
Add SC_ 92977
Mon th</w> 92968
d k</w> 92955
param _ 92952
e 2</w> 92939
0x5 1</w> 92922
errno Err</w> 92918
< io 92891
0xf 7</w> 92888
Google Cloud 92884
am b 92878
0x9 9</w> 92824
4 00 92822
qu ick 92817
de bug_ 92809
Q Action</w> 92791
cl one 92791
roll ers</w> 92784
attemp t</w> 92772
\ a</w> 92763
sh ard 92759
th on 92749
ti n</w> 92746
Fil l</w> 92731
Error List</w> 92727
0x9 8</w> 92710
Action Event</w> 92710
A udit 92704
AT TR_ 92703
F D 92689
sec tion 92687
Item Stack</w> 92687
0xd 0</w> 92687
Test ing</w> 92684
Re vision 92672
VI DE 92661
r l</w> 92644
0x5 d</w> 92641
SH _ 92640
Ph ase 92614
SU MM 92608
QLatin1 String</w> 92585
Complet e 92583
ro ach 92572
bor row</w> 92564
0xf d</w> 92558
Co ver 92541
sub scriptions</w> 92536
s Delete 92515
ang les</w> 92507
coll ections</w> 92496
up load 92489
v l 92464
ne ighb 92455
R ust</w> 92447
Pix el</w> 92436
0xf a</w> 92386
Rec on 92378
Al ready 92371
s 3 92363
RAN GE</w> 92356
coordin ates</w> 92351
Is Empty</w> 92307
MI LLI 92305
e - 92276
Mo vi 92275
D ER 92271
Syn chron 92266
ass emb 92265
GL_ TEXTURE_ 92265
numer ic</w> 92246
B ASE_ 92229
c ra 92221
PRO CESS_ 92193
b oun 92183
macro _ 92166
Add Arg</w> 92165
Del ta 92164
NO DE_ 92159
5 00 92141
STAR T_ 92139
Spec ial 92107
P I</w> 92104
0xf b</w> 92090
D H 92055
		 		 92044
CID R</w> 92032
n g 92024
V 3</w> 92011
tran si 91998
Comb in 91998
G o</w> 91979
Base d 91920
me sh 91908
%call 17 91884
Trim Space</w> 91874
Col ors</w> 91866
dic t</w> 91852
Stream ing 91850
Ho me 91822
may be 91818
dyn_ cast</w> 91806
re verse</w> 91799
0x9 f</w> 91794
posi tive</w> 91760
auth ors</w> 91754
11 2</w> 91717
New Decoder</w> 91701
\x00\x00\x00\x00 \x00\x00\x00\x00 91701
il legal</w> 91673
rec order</w> 91666
Config ure 91661
%class.java_lang_ Throwable 91632
5 )NEW_LINE</w> 91618
res ult_ 91615
SO _ 91606
Element Type</w> 91561
Go ssi 91546
Main Window</w> 91541
CreateOr Update 91532
ho me 91527
ar n</w> 91503
Conn ections</w> 91453
k v 91450
d it 91445
o stream</w> 91435
GRO UP</w> 91426
NullPointer Exception</w> 91422
iti es</w> 91396
_114 _111 91380
0 9</w> 91375
\x1 f 91342
Virtual Network 91342
Identifi er 91337
pro mo 91328
E B 91300
w 3</w> 91286
L ua 91284
u d_ 91281
_97 _109 91273
r p</w> 91261
Clo ser</w> 91174
Na N</w> 91172
Liter al 91171
default Value</w> 91166
v in 91146
li t</w> 91141
Buil tin 91141
se n</w> 91138
op t_ 91094
Cre ator</w> 91087
en _ 91083
dn d_ 91083
0xb d</w> 91048
ca ss 91046
config ure</w> 91042
get Data 91029
r or 91012
A RE 90992
_ 2( 90976
Vi deo</w> 90931
DE F 90924
ine ss</w> 90919
6 1 90893
P ush</w> 90882
sh all</w> 90864
1. 1</w> 90860
O M 90843
produc t 90841
exp ort</w> 90822
ou ch</w> 90817
spel ls</w> 90799
do t 90789
Object_ _ 90772
An d</w> 90769
D RO 90747
6 2_- 90737
pri v 90726
Pa ren 90722
te le 90698
C ustom</w> 90652
g it 90646
provi de</w> 90645
defa ults</w> 90637
T OR</w> 90635
A tom</w> 90628
0x0000 000 90628
f it 90627
0x 10 90608
add Widget</w> 90598
Log in</w> 90598
Error Message</w> 90593
0xb a</w> 90593
in k</w> 90588
Is Valid</w> 90559
IMA GE_ 90542
_ list</w> 90537
C EL 90514
ID _PLAYER</w> 90510
VALU E_ 90509
Flu sh 90506
resol ver</w> 90502
la rit 90501
GL enum</w> 90499
boo tstr 90491
con flic 90485
\x1 d 90472
14 . 90471
BAC K</w> 90441
add Action</w> 90410
Ker nel 90405
Process or 90395
h base</w> 90378
Struc ture</w> 90372
Anon $ 90372
App ly</w> 90369
Lig ht</w> 90366
Anon$ Class$ 90357
Scale Set 90352
\xf c 90350
200 1</w> 90332
v1alpha 1</w> 90331
ve locity</w> 90321
Value s 90292
Diction ary</w> 90272
Limit s</w> 90267
w an 90266
AR D</w> 90266
0x5 c</w> 90257
A lar 90253
er ci 90246
E mp 90211
Dl g</w> 90200
com ments</w> 90183
To ast</w> 90182
_ info</w> 90175
W AL 90150
De serialize</w> 90132
B RE 90120
Know n 90115
Paralle l 90113
Gr adi 90082
0x db</w> 90078
go v</w> 90075
12 5</w> 89953
source s</w> 89943
use d_ 89934
kub ectl</w> 89921
view s</w> 89913
set Attribute</w> 89906
\ U</w> 89901
RE AD_ 89885
%class.java_awt_ event_ 89884
new Instance</w> 89863
e y 89862
f Help</w> 89851
\x6 1 89827
w char_t</w> 89817
get Type 89804
s v</w> 89755
re store</w> 89755
Change d 89755
no Method</w> 89734
Node s 89725
LO AD 89720
0. 1</w> 89719
CLAS S</w> 89714
Security Context</w> 89711
un lock</w> 89652
T cp 89649
%call 13 89617
LO AD_ 89617
Ex amples</w> 89605
ns w</w> 89578
Min imum 89568
In gress</w> 89567
Cont act</w> 89561
d 4 89542
TRAC E_ 89539
Lo w 89535
re v</w> 89529
fac es</w> 89526
Value Ref</w> 89515
proto col 89481
Mon th 89472
Kube let</w> 89453
_ g 89443
{ }</w> 89433
Reten tion 89430
PO SI 89416
la s</w> 89396
Phy sical 89391
d m</w> 89352
parse d 89350
Tr ac 89316
%interface. javax_ 89312
SS L</w> 89309
in f</w> 89303
%call 15 89284
s q</w> 89278
T A</w> 89275
B t 89275
pre fix 89266
\xe 7 89207
M B</w> 89166
Schedule d 89166
_ get_ 89161
un ge 89160
5 000</w> 89141
D st 89138
Per cent</w> 89129
Geo metry 89128
Conn ector</w> 89127
ag rap 89112
Client Config</w> 89112
gr ad 89104
DN S</w> 89098
sFor Call</w> 89093
0xc 2</w> 89086
. not,</w> 89082
ati s 89061
N S_ 89041
COR BA 89036
0xa a</w> 89013
TRANSL ATE_ 88997
0xd 3</w> 88983
0xc f</w> 88982
U M</w> 88967
Man ifest 88965
Sec ure 88954
Cl one 88947
transl ate</w> 88947
Ran k</w> 88942
V M_ 88932
is o 88929
Lin ks</w> 88929
limit er</w> 88928
19 78</w> 88903
pri ce</w> 88892
Tr y</w> 88880
0xc 5</w> 88826
@Polyglot_java_lang_String_ valueOf 88823
QUE ST</w> 88807
ex amples</w> 88803
bin op</w> 88773
__Py x_ 88757
H ub 88731
@throw UnwindException(i8*)</w> 88712
0x9 6</w> 88691
US ER_ 88636
i i 88618
reference s</w> 88605
UN USED</w> 88593
) ;</w> 88586
ra g</w> 88584
N id 88577
25 ,</w> 88570
brea k 88568
A bb 88556
Std String</w> 88508
0x9 7</w> 88500
App ear 88493
World Packet</w> 88486
7 f 88441
MAX_ VALUE</w> 88433
0x de</w> 88425
Update s</w> 88422
Th umb 88401
Uni code 88384
Wh en 88372
FUN CTION_ 88361
tx t 88356
ASSERT_ EQ</w> 88349
ted _ 88338
Ex change</w> 88327
\xf 0 88323
Deep Copy_ 88302
0x7 e</w> 88300
pair s</w> 88298
get Column 88289
mon th 88261
. not</w> 88252
Conn ected</w> 88240
AC K 88238
Inclu de 88234
Sp rite</w> 88207
Server Error</w> 88203
app lied</w> 88198
Tra ffic 88197
CHAN NE 88191
Dum my 88178
m igr 88177
_ 65 88172
cach ed</w> 88153
org_omg_ CORBA 88153
oc k 88149
file Descriptor 88145
Th is 88143
As String</w> 88120
ID E</w> 88107
Pro be</w> 88106
v as 88085
0xc 7</w> 88068
Ad min</w> 88064
Must Exec</w> 88052
get Local 88049
0xc 8</w> 88028
true ,</w> 88003
get Path</w> 87998
Cal lable</w> 87995
index es</w> 87958
instan ti 87954
SAM P 87949
tra its</w> 87939
ac ity 87914
ta ke 87912
Pre conditions</w> 87910
cook ie</w> 87906
Con f 87900
fi g 87872
p This</w> 87868
align ment</w> 87859
Depend encies</w> 87852
se ek</w> 87822
10 8</w> 87803
dE lement</w> 87800
send _ 87790
enco der</w> 87789
0x8 a</w> 87782
to ml</w> 87774
p f 87761
process ed</w> 87750
Basic Block</w> 87748
sub st 87740
0xb 8</w> 87739
h am 87720
l_ _ 87714
D UM 87712
0 1 87705
F IN 87699
p d</w> 87692
11 :</w> 87690
Event Type</w> 87689
didate s</w> 87677
Char s</w> 87672
0xd a</w> 87643
m k_ 87642
A m 87624
O NE</w> 87613
J Panel</w> 87569
S amples</w> 87543
appro pri 87540
D on</w> 87527
fail ure 87507
redu ce</w> 87489
s And 87476
Det ach 87461
V a 87458
o a 87445
QT_ TRANSLATE_ 87375
Exp and 87370
0x9 5</w> 87341
AL LO 87333
DA TA 87325
\xf 7 87321
calcul ate</w> 87320
HE AD</w> 87299
0x8 f</w> 87286
0x be</w> 87266
R S</w> 87263
db c</w> 87263
0xe 7</w> 87254
Compact TextString</w> 87247
ben ch</w> 87216
mon itor 87215
NO TE</w> 87198
( %class.java_io_PrintStream*</w> 87188
24 ,</w> 87171
Sum mary 87165
Ret ry</w> 87155
Parse Error</w> 87153
\xf d 87149
C 1</w> 87118
23 ,</w> 87095
mat h 87077
ti ves</w> 87070
inst all</w> 87032
To k</w> 87014
Sched ule</w> 87004
g ar 87001
bl ue</w> 86975
QT_TRANSLATE_ NOOP</w> 86968
L az 86962
di rs</w> 86932
Te mplates</w> 86923
De precated</w> 86915
0xc 4</w> 86892
fi re</w> 86876
D Y 86865
bo se 86859
tr l 86856
\xc 0 86854
lin k_ 86852
m ati 86850
%indvars.iv . 86816
id x 86808
Pol l 86799
S B 86795
ifNone Match 86792
m r</w> 86791
trun c</w> 86778
codec 1978</w> 86775
f at 86767
Verti cal 86738
S olution 86737
Rad io 86732
Get Player</w> 86721
33 33 86717
Con su 86705
play ers</w> 86704
0x9 a</w> 86700
Que st</w> 86699
Ho me</w> 86654
AL PH 86647
comp ut 86641
ip s</w> 86605
BAC K 86531
char ge</w> 86528
Attach ment 86513
ifNoneMatch _</w> 86508
ch _ 86505
Swit ch</w> 86501
V ATE</w> 86458
0xf 4</w> 86451
0xa b</w> 86448
Runn ing 86445
Media Type</w> 86440
trans fer 86413
unknown Fields</w> 86412
ref _ 86402
W ER_ 86401
O S_ 86401
is Set 86385
0xb b</w> 86378
ec h</w> 86364
D atum</w> 86359
\xf 8 86343
Match ers</w> 86337
cu lar</w> 86315
%class.javax_swing_ Input 86306
0xc c</w> 86256
sequ ence 86255
affi li 86246
\xf 4 86201
se xt</w> 86192
Popul ated 86190
h int</w> 86187
c en 86176
ce ed</w> 86160
Or Die</w> 86147
Miss ing</w> 86138
With Error 86111
0xb 1</w> 86111
j a 86107
bra ins</w> 86104
Fr ames</w> 86090
AB LE_ 86089
Mo des</w> 86083
pro file 86080
complet ed</w> 86065
0xe 4</w> 86060
cal l_ 86027
NEX T</w> 86022
ato i</w> 85999
Co ls</w> 85979
roug h 85962
b f 85960
p Player</w> 85954
Se manti 85946
0. 00000000 85925
re start</w> 85904
_110 _111 85897
unreach able</w> 85869
S G 85867
Support *,</w> 85843
ma c</w> 85840
SC AL 85836
0xd f</w> 85835
Parti cle 85831
10 4</w> 85829
61_ - 85829
DAT E</w> 85821
Handler Func</w> 85819
tex ts</w> 85815
sh are</w> 85810
0x9 1</w> 85801
new Value</w> 85799
An ce 85783
time stamp 85760
HE ADER</w> 85740
Is In 85721
cuda 4.1</w> 85689
_ 2</w> 85673
Cal c 85664
State ful 85630
%bb9 ,</w> 85609
TYPE ID_PLAYER</w> 85598
%call 17</w> 85592
Json Property</w> 85591
0x8 c</w> 85584
0xb 6</w> 85563
Render er 85559
0x5 b</w> 85556
pre vout</w> 85555
Fa ult</w> 85551
ver t</w> 85542
jet brains</w> 85536
v ely</w> 85522
LEVE L</w> 85522
gl Get 85506
N G 85503
v m_ 85499
V ALI 85488
%class.java_awt_ Point 85479
regi sters</w> 85474
N LS</w> 85466
\xe 0 85449
T oo 85448
IP T_ 85428
trun c 85420
\xf 6 85401
authoriz ation</w> 85388
\xf 3 85382
co ord</w> 85379
char At</w> 85379
able _ 85343
0xa e</w> 85333
L et 85299
20 8</w> 85299
ass igned</w> 85293
list s</w> 85286
Me m</w> 85275
ag ing</w> 85232
m er</w> 85229
fic ation 85229
inter ceptor</w> 85211
0xe 3</w> 85208
\xf 9 85181
ch or 85176
opaqueNEW_LINE%class.java_io_Print Stream</w> 85168
Dispatch er</w> 85167
_44 _32 85164
cre ation</w> 85151
\xe 8 85151
ErrInvalid Params</w> 85150
rel ated</w> 85146
\xa 4 85139
Serializ ed 85127
_ p</w> 85113
_6 1_</w> 85109
Service s 85102
TI VE_ 85092
D to</w> 85072
Utf 8</w> 85069
Ba sic</w> 85046
Pip e</w> 85030
get Bytes</w> 85011
Sy m</w> 85009
25 5 85005
byte s_ 84989
met a_ 84977
gre ater</w> 84976
ign ite</w> 84950
\x0 e 84950
MI T 84943
Aut ow 84935
LoadBalan cer</w> 84935
roo t_ 84927
pri mary 84920
RE SP 84920
String For 84912
z i 84901
M idd 84877
Class Loader</w> 84857
0x9 c</w> 84850
top ic 84848
ta r</w> 84829
} NEW_LINENEW_LINE 84827
can on 84812
ac cel 84809
wid gets</w> 84806
p Creature</w> 84795
Tab let 84789
github_com_gogo_protobuf_ proto</w> 84782
In jec 84781
re vision</w> 84779
pend ing 84779
%call ,</w> 84736
\xe b 84703
n n</w> 84701
t v</w> 84676
SHIF T</w> 84673
sc enar 84672
W HI 84668
0x ad</w> 84664
S mart 84658
_c ap 84652
l b</w> 84650
0xf 9</w> 84648
\xf b 84644
0xa 4</w> 84644
0xc 6</w> 84621
mock ito</w> 84613
\x9 2 84605
I p</w> 84600
\xe a 84593
Off er 84592
6 e 84576
\xe f 84560
wa p</w> 84552
quo te</w> 84543
C LE 84539
Se ek 84539
_ path</w> 84532
p at</w> 84519
set Id</w> 84485
RU N</w> 84472
Q Model 84470
cep t 84448
\xf 5 84443
Pay load 84439
n pc</w> 84437
cont roller 84424
S an 84414
ba si 84399
New Populated 84377
Amaz on 84372
@create UnwindException(i8*)</w> 84366
3 1 84354
End 1234</w> 84342
0xa 1</w> 84342
H int 84323
Statu s_ 84323
0xd 1</w> 84301
u lar</w> 84298
\x1 e 84297
0xf 2</w> 84295
Sh ift 84293
C B</w> 84290
bu fi 84281
0xe 8</w> 84272
p ages</w> 84263
A ch 84256
Con tract</w> 84237
Ser ial</w> 84237
\xb 7 84214
N T 84205
Re size 84188
F s 84182
D ol 84145
L ang 84127
DI SC 84094
\xe 9 84094
co res</w> 84092
Move ment 84087
W R 84083
\x1 b 84081
BOOST_CHECK_ EQUAL</w> 84076
%class.java_util_ Vector*,</w> 84049
prev ent</w> 84035
or ganiz 84026
0xc d</w> 84024
Sp in 84016
W M_ 84000
Plugin s</w> 83984
Load ing</w> 83976
Modifi ed 83969
flu sh 83959
dynamic _cast</w> 83943
0xf 5</w> 83923
Al gorithm 83918
0xc 1</w> 83906
MESSA GE_ 83906
L ate 83892
calcul ate 83886
Must Parse</w> 83873
ec tive 83864
The se</w> 83846
TA I 83827
Gener ation</w> 83818
ac ts</w> 83806
nemon ic</w> 83797
Comp ut 83791
j k 83789
20 17</w> 83776
0xf 1</w> 83758
col or_ 83753
accep t 83746
projec ts</w> 83746
re vi 83740
%call 14 83737
sor ted</w> 83722
run _ 83712
compare To</w> 83712
0xb 4</w> 83696
li ve</w> 83680
vi de 83676
0xc a</w> 83675
GP L</w> 83675
INVALI D</w> 83665
In struction 83660
PAR AM</w> 83625
local es</w> 83619
Boo tstr 83608
q Debug</w> 83601
Field 3</w> 83567
n 2</w> 83561
FAI L</w> 83554
D P 83550
se en</w> 83549
I T_ 83534
ma _ 83532
get Next 83518
u ed 83516
0xb 5</w> 83515
in structions</w> 83502
_9 5 83499
ST ER_ 83496
Watch er</w> 83495
discover y</w> 83480
0xd 7</w> 83393
0xa f</w> 83390
AR E_ 83388
ss Route 83380
2 15 83372
HE AD 83350
Rot ation</w> 83348
0x ec</w> 83346
a o</w> 83328
0xa 6</w> 83327
0xa 8</w> 83317
b ol 83305
0xa 3</w> 83295
siz es</w> 83293
m alloc</w> 83291
DE F</w> 83289
FLA G</w> 83278
10 3</w> 83277
DE SCRIP 83276
Ro les</w> 83274
Source s</w> 83272
0x ed</w> 83271
lay ers</w> 83256
im p</w> 83253
0xe e</w> 83246
EX TR 83232
allow s</w> 83231
X 0000</w> 83230
determin e</w> 83230
J NI 83229
ph an 83204
0xa 7</w> 83203
tr ail 83194
m v</w> 83192
Qu ick 83188
0x9 e</w> 83175
correct ly</w> 83171
Colli sion 83163
C K</w> 83152
Index es</w> 83121
Aura Script</w> 83112
0xb 2</w> 83102
replica s</w> 83076
Display Name</w> 83054
butt ons</w> 83048
on Create</w> 83035
Assign ment 83035
Dec la 83021
h yper 83005
\xe 5 83005
MO DE 82996
set Current 82994
t g</w> 82967
44 NEW_LINE</w> 82950
e ve 82938
Use d 82938
%load. length</w> 82924
sh ell</w> 82906
happ en</w> 82898
c mp 82879
_97 _115 82879
gate way</w> 82874
FOR M_ 82868
Unless StatusCode</w> 82863
gu i 82830
U B 82823
0xa 5</w> 82818
op eng 82816
IP_ ACTIVE_ 82807
\x9 4 82790
buil d_ 82783
0xa 9</w> 82749
0xd d</w> 82714
r atio</w> 82704
kube ad 82700
inclu des</w> 82691
WithError UnlessStatusCode</w> 82689
der iv 82685
create d 82683
0xf 3</w> 82682
Get Current 82680
esc ap 82680
\x0 1\x 82660
te mplates</w> 82658
%class.java_util_ Locale 82658
g mail</w> 82653
g id</w> 82648
Tw o</w> 82645
b 3 82642
0xc 9</w> 82631
p ad 82624
Enc Binary</w> 82615
PORT_ BIT</w> 82607
WITH _ 82606
dec imal</w> 82601
re tain</w> 82592
de scrib 82592
pri me</w> 82580
host s</w> 82578
Cast er</w> 82561
Un signed 82521
per mitted</w> 82499
A ver 82491
Pix map</w> 82489
Alig n</w> 82488
acc umul 82478
o auth 82471
gre en</w> 82464
mac ro</w> 82454
Uni on</w> 82449
Query Parameters</w> 82439
a ke</w> 82436
He ight 82432
u lar 82424
exp and 82409
L u 82402
Wrap per 82376
Event Handler</w> 82357
FO UND</w> 82338
p in</w> 82318
Ch ro 82316
Unix Nano</w> 82314
RP C_ 82306
With BaseURL</w> 82305
Delet ed</w> 82293
pri or</w> 82291
f th</w> 82288
contain ed</w> 82283
ar t</w> 82282
orizont al</w> 82275
e ast</w> 82268
0x8 d</w> 82254
LI ST_ 82252
i32 NEW_LINE</w> 82242
%bb 3</w> 82228
th ree</w> 82223
Est im 82215
g d 82210
F it 82200
sec ure 82199
m gr</w> 82184
0000 0 82167
ms gs</w> 82165
Image View</w> 82165
le ware</w> 82144
\xe 3 82081
Sec urity</w> 82033
Server s</w> 82029
t ls 82022
N G_ 82019
CO DE 82013
i me 81992
or ing</w> 81980
50 9</w> 81977
f name</w> 81972
Act ual 81968
Ne eded</w> 81965
Cryp to 81965
ps i</w> 81957
Re d</w> 81936
C enter 81924
API _ 81913
0xf 6</w> 81907
i m_ 81905
%cast )NEW_LINE</w> 81905
Sys Message</w> 81900
er Name</w> 81862
cla im 81849
0xb 9</w> 81843
Layout Params</w> 81838
_101 _99 81825
\xb f 81810
Encode String</w> 81800
Up grade 81784
Inter pol 81749
P G 81724
%call 15</w> 81715
f abri 81694
0 21 81694
codecSelfer_containerArray Elem 81679
REQUIR E</w> 81678
Date Format 81673
Inter pre 81659
0. 9 81632
p lay</w> 81630
Simp le</w> 81629
A sc 81618
Autow ired</w> 81604
pip e</w> 81597
A udio</w> 81590
ker nel 81580
tain er</w> 81556
ag ger 81554
0xa 2</w> 81551
_ 53 81532
\xf 1 81531
EV E 81525
/ =</w> 81524
depend encies</w> 81518
4 f 81514
Discard Unknown</w> 81512
0xe b</w> 81511
0x5 e</w> 81510
_4 6_ 81485
exp ort 81469
11 _ 81457
it al 81456
Di st</w> 81455
\xf 2 81421
AR G</w> 81416
P en</w> 81415
10 9</w> 81387
\xe 1 81380
Di rect</w> 81377
0xb 7</w> 81366
ERR UP 81357
N il 81342
2 14 81338
Object InputStream 81336
12 6</w> 81307
pla f_ 81307
R IN 81303
Field Name</w> 81293
STR ING_ 81291
listener s</w> 81287
Implement ation</w> 81282
0x9 b</w> 81266
0x ce</w> 81248
name spaces</w> 81247
ain st</w> 81247
set Max 81246
INT ERRUP 81225
12 9</w> 81223
0xe 1</w> 81199
p w 81196
Re du 81189
ST ER</w> 81183
0xd 9</w> 81183
a 0 81182
%class.java_lang_Class CastException 81177
n r</w> 81163
\xe 4 81148
In ject</w> 81145
Colo ur</w> 81143
inc rea 81135
"12 7.0.0. 81130
all en 81122
RETUR N</w> 81106
en o</w> 81102
Descript ors</w> 81087
get Data</w> 81077
6 )NEW_LINE</w> 81067
nav ig 81067
se m 81035
la t</w> 81034
g v 81032
11 5 81021
get S 81018
fficul ty</w> 81015
qu eries</w> 81011
0xd 2</w> 81003
Or d 80999
Not Exist</w> 80995
h it 80982
Sub st 80979
Gener al 80976
Service Account 80970
codecSelfer_containerArrayElem 1234</w> 80958
re g_ 80953
\x8 a 80944
Marsh aller</w> 80944
0xe 9</w> 80943
Tra it 80939
Mi me 80928
bo ss</w> 80923
ri er</w> 80912
m c 80910
act ly</w> 80895
i size</w> 80881
0xa c</w> 80876
ernet es 80857
Change Listener</w> 80856
Roo m 80856
Object_ 2( 80854
to Int</w> 80840
0xb c</w> 80831
Disp atch</w> 80827
W S 80819
new Builder</w> 80806
1D Array 80790
UL ON 80762
ARRA Y_ 80758
Verti ces</w> 80758
re try 80757
\x1 a 80742
mut able</w> 80732
Obj C 80721
F lat 80716
map key</w> 80711
LA Y</w> 80698
f cx</w> 80697
%class.java_awt_Graphics Configuration 80688
0x9 d</w> 80674
Tra in 80673
\x9 9 80671
tt er</w> 80669
vo l</w> 80666
cla im</w> 80649
\xe e 80642
Bu s</w> 80636
Be Nil</w> 80631
Bro ker 80626
evalu ate</w> 80620
<io stream></w> 80617
GO _ 80577
/ kubernetes</w> 80572
bufi o</w> 80536
0xc b</w> 80532
Az ure</w> 80505
FI X 80453
v a_ 80439
sh ard</w> 80431
nu w</w> 80429
In sp 80423
down load</w> 80416
C Wallet 80395
_ 56 80392
\x8 5 80374
mis match</w> 80373
TT L</w> 80367
n y 80363
G i 80357
W X 80353
2 34 80340
nest ed</w> 80337
0xb 3</w> 80309
dnd_ Drop 80307
oo l_ 80306
Order ing</w> 80293
Do Retry 80288
O s 80279
TA G_ 80273
%"class.java_ awt_ 80272
Bl end 80256
\xe 6 80250
%c ont 80245
ALI Z 80243
11 7</w> 80239
2 e 80227
0xe a</w> 80204
Instance Id</w> 80203
CLI ENT_ 80175
0xd c</w> 80174
asyn c 80161
Type Info</w> 80154
Comp ute</w> 80146
retri eve</w> 80130
Be havi 80129
se p</w> 80116
\xc 1 80114
total _ 80107
aran te 80097
F rank 80090
D ash 80085
velo pe</w> 80081
Buffered Reader</w> 80075
Adv ance 80065
et o 80064
Asser tion 80059
\x8 f 80047
F X_ 80033
$ Anon$Class$ 80001
lik ely</w> 79991
rg b</w> 79983
Call ing</w> 79976
Pend ing</w> 79967
Ev ic 79964
NO UN</w> 79961
One of 79960
Rep ly 79952
jack son</w> 79951
v_ 0</w> 79949
mar ks</w> 79943
%"op18103( indvars.iv 79932
print Line</w> 79927
\xb 3 79921
_ 0</w> 79913
J S_ 79907
%or. cond 79905
get Selected 79904
\x8 4 79902
Im medi 79897
any thing</w> 79891
assert Null</w> 79871
G H</w> 79870
GL int</w> 79854
Aura Effect</w> 79820
\x8 d 79802
Reserv ed 79775
window _ 79773
A F_ 79767
0xd 5</w> 79760
co ords</w> 79747
Read All</w> 79739
Arch ive 79735
[...]
