▁ 242055964
) 126486115
( 126373021
. 111849493
, 95250751
; 75113867
" 60817332
{ 42412099
} 41387605
= 41235034
NEW_LINE 35092584
* 32498759
STRNEWLINE 21259833
: 20364100
if 15863200
[ 13818301
] 13617733
return 13210156
// 12209319
< 12056339
/ 12042172
:: 11662764
> 11462214
the 11371587
- 11178964
0 11118732
-> 11115696
ENDCOM 10979443
_ 10232776
& 7028913
1 6918434
+ 6728840
i 6665243
@ 6405076
int 6162371
public 6026261
void 5890928
err 5844583
to 5820127
:= 5552214
import 5237899
this 5175721
String 5032052
for 5025314
a 4984530
s 4969455
new 4830152
!= 4701223
== 4686309
type 4664612
' 4553734
TABSYMBOL 4453868
string 4288896
% 4118332
nil 4114229
/* 4003830
*/ 3989837
of 3953558
2 3820309
! 3782800
get@@ 3542837
func 3520554
in 3459106
const 3435924
is 3337330
` 3167379
t 3096533
c 3037053
_@@ 2824060
else 2805255
false 2769022
true 2756161
org 2661142
case 2632333
name 2619037
static 2616262
final 2590190
null 2562809
m_@@ 2457956
v 2411896
p 2392690
i16, 2390547
x 2302885
com 2300984
and 2270630
private 2231527
i32 2215908
value 2199721
set@@ 2120996
&& 2072072
3 2065323
error 2055828
<< 2053495
License 1958893
++ 1958184
\n 1921233
or 1921153
m@@ 1912418
Type 1905717
Name 1896292
e 1891347
data 1884808
b 1882232
d 1853770
class 1813925
m 1793220
Get@@ 1740892
bool 1715141
s@@ 1674576
not 1668090
size 1666066
#include 1659382
be 1635092
List 1629916
code 1627055
p@@ 1621444
java 1610061
std 1598361
it 1597944
label 1589432
# 1584700
id 1583052
r 1560374
file 1541931
? 1517013
4 1516346
h 1514490
break 1500893
\" 1461733
result 1454453
call 1446067
is@@ 1399494
n 1379763
out 1356210
with 1314716
f 1310773
Id 1272432
y 1268169
param 1262813
get 1243575
|| 1239835
that 1237484
Override 1236534
T 1230381
http 1207781
| 1199883
tail 1185641
f@@ 1172481
ID 1168338
The 1142955
i8*, 1142824
n@@ 1138208
Object 1134921
align 1125321
util 1113401
on 1102803
Value 1099955
io 1095239
C@@ 1091529
i32, 1089018
map 1080677
Exception 1078872
by 1069089
len 1062666
A 1056524
Data 1048940
byte 1031147
json 1022754
char 1017875
j 1016015
Set@@ 1015011
Context 1011553
key 1010112
throws 994355
double 992326
an 990936
Info 981715
as 979936
NULL 976686
Error 975654
5 973566
add 965809
Map 964042
from 963721
context 963078
time 962117
var 960442
load 959380
l 958435
+= 955038
struct 953420
fmt 944859
boolean 939385
at 934903
package 925094
test 916469
client 913398
8NEW_LINE 908055
%class.java_lang_String* 902460
preds 901427
b@@ 892925
C 892132
d@@ 887232
under 883456
index 877883
c@@ 867481
append 860424
8 858936
Node 858289
apache 857974
v@@ 855305
path 853026
set 847968
File 846770
To@@ 837912
new@@ 832480
i1 831026
api 830034
float 829833
ctx 829596
self 826231
o 826100
i@@ 818276
This 816243
use 815429
i64 813487
i8* 813183
test@@ 811314
list 807011
add@@ 799940
Set 799145
end 797412
bitcast 793432
length 791186
t@@ 786631
%class.jlang_runtime_Array* 784731
Test 784018
br 782689
k@@ 777166
I@@ 766314
node 764383
k 758998
w 749656
a@@ 743627
ing 742173
6 740170
10 733866
Size 732703
Path 732400
T@@ 732365
we 730981
e@@ 717940
%class.java_lang_String*, 712812
range 711227
P@@ 707457
request 701223
state 697289
State 693049
Request 692267
are 685908
x@@ 683042
S@@ 680588
Test@@ 679327
%class.@@ 679240
info 678884
0, 678738
7 675108
g 667254
New@@ 661041
Index 654793
long 653143
0x00 647019
getelementptr 644449
create@@ 641355
g@@ 640291
u 638654
Key 636782
D@@ 634775
Response 634735
count 634405
F@@ 630405
version 629414
R@@ 628439
r@@ 627666
may 626831
E@@ 623505
h@@ 621572
ret 620119
Config 619663
z 619422
V@@ 618636
X 617908
link 617055
can 613145
2@@ 611735
Result 611196
R 608687
throw 607444
Errorf 606555
Is@@ 606328
G@@ 605689
Count 604613
-1 601085
log 599844
try 599549
X@@ 599172
will 598877
default 598406
s_@@ 595627
distributed 595586
B@@ 592971
object 588906
Manager 586998
A@@ 585571
global 585265
OR 584919
let 583732
j@@ 582780
unsigned 579026
i1, 578158
config 577588
item 577118
interface 573356
you 570326
Service 569946
args 569181
H@@ 568856
Version 564797
input 560522
fn 559467
req 557833
>= 555562
copy 553203
catch 552797
L 552658
l@@ 552270
M@@ 550501
Time 544740
Q@@ 541895
all 539951
in@@ 539196
res 537366
$ 537037
str 535076
L@@ 535064
In@@ 534071
Type@@ 532095
on@@ 531938
N@@ 528061
%class.java_lang_Class* 527880
ing@@ 527122
text 522789
Status 521360
message 521000
have 520853
target 519968
github 517713
K@@ 516787
assert 516086
S 515760
ok 513040
B 510090
Data@@ 509473
w@@ 508781
uint32 508058
user 506189
store 504864
Event 504732
Item 504255
core 503862
event 503357
Message 502839
List@@ 502800
2.0 501834
buf 501794
google 501448
should 500994
Class 500022
start 499874
Builder 499429
View 498372
method 497233
to@@ 497167
os 496605
while 492878
field 492474
android 491710
If 490771
model 490304
o@@ 490120
W@@ 490025
protected 487981
9 487073
OF 485345
u@@ 481234
assertEquals 480004
buffer 477568
re@@ 476519
O@@ 473563
J@@ 473425
%cdv_ty.java_lang_String*, 471140
y@@ 470735
File@@ 467065
pos 467035
ANY 465111
auto 462461
v1 461457
See 460725
Client 460321
switch 458003
q 457292
put 454336
obj 454053
namespace 453036
my@@ 451992
*, 449002
msg 447402
System 446364
P 445798
4@@ 444829
values 444590
make 444519
32 443481
bytes 442697
www 441535
local_unnamed_addr 440578
#endif 440524
%load.@@ 439349
no 437589
8@@ 436007
first 434995
I 434154
Create@@ 433143
val 432399
one 432192
net 431360
pub 430526
line 429695
testing 429607
un@@ 428713
status 427426
16 427066
Add@@ 425318
extends 422760
q@@ 422497
Y 422414
With@@ 421226
Copyright 420408
omitempty 420072
ed@@ 419956
Integer 418541
3@@ 418102
offset 417664
params 417221
number 416131
er@@ 415063
javax 414515
IOException 413291
Handler 412651
source 410082
next 409948
1@@ 409596
E 409388
Entry 408864
On@@ 408489
@Polyglot_@@ 408447
equals 407120
}* 406535
D 406404
z@@ 405726
any 405386
super 404644
U@@ 403466
expected 402477
toString 402206
QString 402049
software 400936
continue 400819
You 400563
er 399479
vector 399142
block 398037
2, 397866
N 396353
For@@ 396286
check 395278
Text 393646
Node@@ 393593
Assert 392996
Element 392527
Get 392293
str@@ 392158
9@@ 391060
get_@@ 390666
%a0, 390241
other 389296
types 389079
but 387756
Mode 386386
when 385634
output 385182
external 384050
format 383769
width 383674
Public 383225
Key@@ 382036
-@@ 381760
server 381605
table 381279
F 381222
max@@ 381015
5@@ 380347
function 379228
1" 378362
ed 377749
create 377375
height 377360
__@@ 377055
V 376638
response 376546
entry 374013
6@@ 368789
General 367727
used 367363
stream 366255
Action 365991
GNU 364380
begin 364295
required 364231
0@@ 363306
instance 363240
see 363008
... 362529
mut 362178
only 361510
Factory 360977
Field 360348
either 359217
licenses 359207
From@@ 358840
tr 356951
Header 356066
Spec 355883
Update@@ 355174
<= 354477
7@@ 353062
Buffer 352944
Y@@ 349073
lang 347811
Z@@ 347751
parent 346363
delete 344977
service 344430
ui 344259
push_back 344154
Software 343421
go 342253
has 341210
Group 340473
found 339728
view 339713
num@@ 339142
WITHOUT 339090
using 338157
0x0 337747
strings 336771
IS 336095
autorest 335732
ArrayList 335682
write 335174
icmp 334626
which 334162
Options 334105
empty 334000
64 332838
M 332836
common 332608
array 331560
Command 330861
iNdEx 329869
more 328683
query 327873
Map@@ 326841
url 326179
URL 325769
current@@ 325589
"@@ 324669
current 324050
Model 323814
And@@ 323006
int64 322251
id@@ 321475
implied 321173
%cdv_ty.@@ 321034
src 320649
second 320196
Object@@ 319982
resp 319962
sizeof 319833
max 319621
uint64 319523
12 319415
al@@ 319065
%gep@@ 319057
base 317219
able 317121
has@@ 317032
User 316779
Log 316128
nonnull 315148
mode 315125
do 314854
group 314342
User@@ 314117
must 313668
Color 313658
options 311778
so 311574
p_@@ 311302
Code 311120
sub@@ 311105
read 310223
10@@ 310138
Ptr 309703
Table 309446
player 309196
db 308642
.@@ 308397
address 308247
Array 308016
image 307910
Un@@ 307898
Value@@ 307612
position 307390
de@@ 307267
Date 306731
read@@ 306287
g_@@ 305994
check@@ 303826
defer 303029
100 301376
Service@@ 300847
11 300780
=> 300122
AS 299990
resource 298687
c_str 298508
nullptr 298426
foo 296096
m_p@@ 295755
t_@@ 295546
Number 295190
xml 294633
es 294028
update@@ 293826
Event@@ 293812
eq 290695
st@@ 290579
cmd 290335
int32 289632
Re@@ 289052
Apache 288926
Point 288176
Item@@ 287948
%call@@ 287647
String@@ 287547
Utils 287269
token 287133
size_t 287118
Image 286122
element 285789
Name@@ 285646
flags 285572
16@@ 284979
Image@@ 284803
errors 284112
LICENSE 283261
New 283202
Input 282673
action 281984
Text@@ 281643
Query 280279
%cast@@ 280233
Offset 280034
color 279796
specific 279644
proto 279316
(@@ 278588
Default@@ 276585
Sub@@ 276176
To 275813
row 275656
ptr 275646
println 274733
S_@@ 274646
pkg 273990
12@@ 273576
getName 272765
Add 272739
20 272695
body 272612
~ 272454
builder 272236
protobuf 272192
failed 271678
Token 271314
U 269933
WARRANTIES 268283
Unit 268270
<@@ 267770
Format 267285
language 267035
Block 267034
Sprintf 266950
Filter 266813
_t 266501
K 265933
$@@ 264904
program 264353
/@@ 263849
match 263726
content 263005
Output 262930
Server 262889
Length 262727
build 262698
do@@ 262446
No@@ 262415
Base@@ 262313
ref 261378
without 261337
left 260931
Util 260701
32@@ 260645
>> 260193
Method 259952
td 259244
session 259224
2" 259102
Log@@ 259073
Resource@@ 258632
k8s 258279
Pos 258154
wx@@ 257848
update 257705
Address 257453
Check 257330
level 257319
dir 256994
Values 256773
Listener 256755
key@@ 256743
d_@@ 256350
iterator 255197
Source 255119
arg 255082
last@@ 255036
0.@@ 254563
Settings 254452
Flags 254359
me 253888
write@@ 253827
Impl 253646
({ 253149
\\ 252066
point 252058
close 251933
iter 251296
Description 251136
Configuration 250387
Width 250381
map@@ 250302
%cdv_ty.jlang_runtime_Array*, 249602
Args 249375
fields 249206
free 248704
Ref 248681
Message@@ 248522
shift 248310
endl 248043
All 247527
find 247469
Player 247047
Position 246902
Resource 246503
st 246407
main 246385
command 246306
Label 246113
Read@@ 246051
By@@ 245826
20@@ 245784
Function 245606
Request@@ 244854
Delete@@ 244834
0NEW_LINE 244209
Block@@ 244188
15 244161
)NEW_LINE 243623
template 242954
Start 242923
flag 242881
Properties 242539
}, 242393
State@@ 242066
Button 241932
up 241771
data@@ 241664
file@@ 241321
G 240916
hash 240806
able@@ 240566
local_unnamed_addrNEW_LINENEW_LINEdeclare 239909
impl 239391
idx 239201
Base 238923
op 238878
start@@ 238767
Target 238758
3, 238386
#define 237880
Client@@ 237659
except 237562
Time@@ 237525
run 237409
was 237315
tag 237236
Level 237173
%gep, 236892
14@@ 236315
addr 236261
container 236057
Group@@ 236013
Store 235986
port 235735
min 235625
Container 235306
TYPE_@@ 235131
13@@ 234937
Table@@ 234886
clear 234877
{NEW_LINEbb1:NEW_LINE 234406
app 234183
opaqueNEW_LINE%class.sun_reflect_annotation_AnnotationType 234165
Kind 233627
Foundation 232880
Cache 232771
root 232566
permissions 232074
15@@ 231752
en@@ 231085
.h> 230946
handler 230564
Err 230444
RE@@ 230290
got 230184
i16 230128
Option 230093
Field@@ 229945
set_@@ 229887
THE 229626
KIND 229313
Info@@ 228900
exception 228840
Dir 228611
Index@@ 227897
contains 227577
Params 227301
al 227248
min@@ 226377
Query@@ 226324
ch 226088
remove 225156
Bytes 225148
log@@ 225047
Logger 224948
View@@ 224905
cache 224762
@"@@ 224599
Update 224499
end@@ 223997
Create 223376
writing 223036
bar 222960
Interface 222938
itr 222816
an@@ 222766
Check@@ 222063
Types 221938
init 221578
0.0 221400
doc 221373
Stream 221277
spec 221063
header 220924
filter 220312
Long 220125
11@@ 220029
Items 219952
Handle 219684
option 219634
Server@@ 219460
Returns 219076
Licensed 218786
Class@@ 218758
NAME 218629
li@@ 218484
Free 218351
Equal 217829
Config@@ 217669
Z 217658
Height 217601
Max@@ 217567
Path@@ 217215
out@@ 217163
Fatalf 217015
instanceof 216643
opaqueNEW_LINE%class.jlang_runtime_Array 216128
19@@ 215910
op@@ 215892
ar@@ 215882
Provider 215826
se@@ 215652
T_@@ 215589
ch@@ 215540
as@@ 215523
ts 215054
author 214791
nullNEW_LINE 214722
Write@@ 214397
given 214291
Or@@ 214228
Thread 214211
tmp 214172
%gep 214127
Window 213979
old@@ 213929
ad@@ 213675
Line 213268
right 213201
Vector 212913
expected@@ 212825
Reader 212784
list@@ 212688
no@@ 212115
^ 211125
form 211040
logger 210900
into 210616
express 210480
insert 210413
%load.dv.method@@ 210335
user@@ 210174
17@@ 210016
Helper 209994
property 209973
sp@@ 209957
ac@@ 209776
64@@ 209578
isEmpty 209343
4NEW_LINE 209310
IN 208807
18@@ 208367
In 208357
FOR 208194
compliance 207924
Property 207765
reflect 207721
information 207686
obtain 207452
its 207346
13 206806
Input@@ 206665
cout 206655
limitations 206585
page 206553
CONDITIONS 206526
Iterator 206280
Str 205979
Body 205883
de 205745
Names 205717
description 205629
End 205536
or@@ 205503
ms 205464
governing 205315
BASIS 205305
ers 205303
want 205114
Action@@ 204631
Range 204573
W 204541
Rect 204319
specified 204227
14 204188
Load@@ 204137
Abstract@@ 204058
co@@ 203885
ation@@ 203763
frame 203027
applicable 202177
runtime 202110
db@@ 202073
Frame 201926
pod 201675
parameters 201527
i32* 201344
printf 200520
Stream@@ 200479
attribute 200226
debug 200018
Timer 199902
Instance 199280
node@@ 199178
annotation 199137
fs 198664
Pointer 198278
Start@@ 198200
window 198040
Local@@ 198000
is_@@ 197826
Close 197705
Entity 197623
num 197474
Of@@ 197426
Lock 197159
host 197082
law 196998
Expr 196907
files 196742
Collection 196248
sb 195970
Error@@ 195856
255 195326
_c@@ 195150
Unless 194526
opts 194403
1.@@ 194223
default@@ 194082
at@@ 194074
ic@@ 193885
Port 193159
agreed 192971
ec@@ 192894
_P@@ 192846
ss 192766
stack 192404
ation 192238
parse@@ 192206
location 192175
di@@ 191942
implements 191888
last 191156
#ifdef 190865
24@@ 190748
Task@@ 190520
Parser 190477
Layout 190467
terms 190271
connect 190010
0x65 189986
_p@@ 189764
Id@@ 189562
Tag 189518
find@@ 189413
%icmp@@ 189182
top 189179
unwind 188962
|= 188699
tree 188556
%class.java_lang_Object* 188380
static_cast 188255
handle 188176
le@@ 187984
gl@@ 187963
Val 187668
It 187147
then 187092
Task 186020
Call 186019
assertThat 185951
arg@@ 185925
uint8 185907
opt 185821
25@@ 185725
O 185718
Controller 185710
Constants 185289
Location 184829
lock 184702
Len 184658
For 184545
opaqueNEW_LINE%interface.java_util_Map 184362
where 184018
settings 184012
defined 183795
now 183725
** 183710
items 183701
ST@@ 183517
30@@ 183477
ss@@ 182982
need 182624
50@@ 182510
%@@ 182490
ro@@ 182085
Int 182037
All@@ 181586
load@@ 181475
ab@@ 181441
thread 181302
non 181301
remove@@ 180978
open@@ 180851
sql 180792
24 180701
DB@@ 180683
Property@@ 180549
%load.dv@@ 180036
details 179968
junit 179954
select 179338
TODO 179311
rc 179120
\@@ 179093
after 179006
your 178984
Color@@ 178902
65@@ 178865
Writer 178837
AND 178734
30 178621
project 178390
local@@ 178357
next@@ 178221
ID@@ 178142
sh@@ 177924
work 177831
Page 177178
HashMap 177150
nodes 177074
1.0 176959
@InternStringLit({ 176871
As@@ 176850
child 176684
ns 176660
Op@@ 176490
Component 176106
nocapture 176091
assertTrue 176018
\ 175896
metadata 175865
Open@@ 175720
H 175527
#if 175332
it@@ 175231
li 175184
go@@ 175008
D_@@ 174937
None 174772
us 174474
filename 174019
Array@@ 173738
Instance@@ 173635
target@@ 173424
2_@@ 173408
task 173377
Line@@ 173171
base@@ 172953
env 172944
order 172623
tx 172608
Source@@ 172578
No 172576
Scope 172321
type@@ 172311
TYPE 172172
cfg 172060
part 171882
%class.java_lang_Class** 171762
Write 171571
M_@@ 171546
Target@@ 171446
LOG 171348
utils 171242
Connection 170852
IN@@ 170720
34@@ 170684
C_@@ 170642
internal 170453
00@@ 170313
Namespace 170282
Widget 170122
modify 169879
rs 169723
la@@ 169717
Failed 169670
Has@@ 169518
L_@@ 169513
}NEW_LINE%class.sun_reflect_generics_repository_ClassRepository 169508
date 169464
es@@ 169408
Model@@ 169306
App@@ 169301
c_@@ 169244
style 169215
local 168953
results 168948
assert@@ 168777
reference 168366
ate 168062
Content 168018
ERROR 167589
Status@@ 167065
%class.java_lang_Class*, 166950
Cache@@ 166944
ti@@ 166869
Url 166858
28@@ 166786
there 166748
Dialog 166353
el@@ 166320
Duration 166163
Func 166077
ds 166011
does 165832
dAtA 165825
re 165764
22@@ 165612
names 165092
mp@@ 165044
Code@@ 164810
27@@ 164689
Point@@ 164506
conn 164472
%bb1NEW_LINE 164444
device 164339
Session 164207
er_@@ 164158
Boolean 164088
engine 163835
Job@@ 163720
int@@ 163633
Search@@ 163530
Template 163246
Num 163186
column 163169
0x0@@ 162733
ex 162525
0.0f 162490
license 162473
invoke 162454
ObjectMeta 161933
Method@@ 161838
MAX_@@ 161737
UN@@ 161737
uint 161652
Parameters 161415
pre 161402
-- 161380
Filter@@ 161253
https 161142
%cast.new@@ 161041
Send@@ 161041
Expression 160870
Metadata 160719
received 160555
\u@@ 160394
parse 160195
tt 160102
build@@ 160013
layout 159562
69@@ 159529
si@@ 159481
Int@@ 159477
Attribute 159445
Read 159303
unit 159187
connection 159146
Op 158827
memory 158823
uint32_t 158777
Frame@@ 158711
before 158697
Rule 158523
invalid 158422
ps 158371
following 158357
Style 157971
Qt 157959
Handle@@ 157871
Out 157868
Fields 157867
ASSERT 157762
_id 157518
init@@ 157424
parser 157300
Fatal 157111
Context@@ 157040
Window@@ 156819
ri@@ 156745
th@@ 156480
50 156405
38@@ 156402
title 156139
cs 156096
ast 156032
29@@ 156027
cur@@ 155959
et@@ 155922
Column 155881
aws 155862
37@@ 155652
Multi@@ 155417
getValue 155329
open 155237
properties 155222
dst 155199
00 155102
send@@ 155093
ce@@ 155078
same 155034
Some 154794
<- 154659
Container@@ 154384
57@@ 154353
My@@ 154331
entity 154198
33@@ 154183
PURPOSE 154169
generated 154087
68@@ 154013
valid 154001
even 153969
ar 153925
show@@ 153889
40@@ 153816
FITNESS 153559
PARTICULAR 153480
temp 153418
pre@@ 153346
system 153291
MERCHANTABILITY 153250
conf 153213
Size@@ 153202
API 153200
], 153071
Simple@@ 152863
with@@ 152763
keys 152715
17 152654
"(%class.@@ 152567
Inc 152546
Callback 152376
Flag 152344
Tree@@ 152167
67@@ 152152
swing 151952
prefix 151934
Enabled 151903
kubernetes 151834
all@@ 151818
network 151648
Command@@ 151631
DI@@ 151504
Web@@ 151337
0x6f 151252
Result@@ 151105
De@@ 151103
Param 151073
boost 150779
Page@@ 150772
Process@@ 150487
parameter 150351
since 150320
%class.jlang_runtime_Array*, 150241
text@@ 150192
Entity@@ 149973
mask 149718
Element@@ 149627
ing_@@ 149305
sc@@ 149275
Pair 149214
am@@ 149045
tmp@@ 149031
time@@ 149023
SP@@ 148794
SPELL_@@ 148772
channel 148582
Matrix 148472
than 148387
mo@@ 148334
box 148264
Num@@ 148175
run@@ 148024
Descriptor 147979
here 147963
1000 147961
widget 147766
Record 147751
Default 147668
DB 147643
lt 147506
application 147440
protocol 147183
getInstance 147072
storage 147039
be@@ 147022
Function@@ 146998
Document 146897
Build@@ 146615
80@@ 146569
copyright 146468
framework 146268
events 146222
example 146183
Addr 146043
timeout 145976
Box 145924
18 145917
IP 145858
0x00@@ 145671
%class.java_lang_String** 145435
Tree 145411
55@@ 145374
Change@@ 145320
We 145140
exists 145105
Buffer@@ 145083
Output@@ 145019
ty 144989
schema 144974
ff@@ 144822
getString 144765
-= 144749
1NEW_LINE 144654
0x74 144584
Double 144543
SIZE 144531
Pod 144432
0xff 144428
Device 144365
Row 144356
NOT 144286
Call@@ 144194
Mask 144106
0x20 143960
manager 143960
_1@@ 143815
1, 143761
process 143595
temp@@ 143500
tr@@ 143492
Policy 143442
attr 143440
ip 143324
image@@ 143246
se 143152
Schema 143089
expr 142916
app@@ 142878
con@@ 142573
39@@ 142542
original 142501
DE@@ 142431
Msg 142424
already 142345
l_@@ 142227
first@@ 142118
60 141935
ca@@ 141919
fail 141765
Custom@@ 141680
le 141605
IP@@ 141602
Thread@@ 141600
some 141571
back 141541
te@@ 141289
process@@ 141117
58@@ 140878
25 140833
input@@ 140811
GL_@@ 140667
21 140650
GL@@ 140579
Script@@ 140441
v2 140383
Parse@@ 140379
endpoint 140183
support 140119
Changed 139911
done 139858
ip@@ 139856
Obj 139806
E_@@ 139776
print 139641
22 139628
html 139609
value@@ 139511
OK 139442
col 139377
Attribute@@ 139088
print@@ 138920
index@@ 138784
each 138574
rect 138446
Auto@@ 138429
been 138405
Device@@ 138144
Run@@ 137857
ate@@ 137840
Cluster@@ 137663
23@@ 136880
unsafe 136820
setText 136736
Pre@@ 136693
Network@@ 136631
po@@ 136607
P_@@ 136535
WARRANTY 136495
short 136445
source@@ 136380
19 136333
#0 136254
\r 136230
a_@@ 136201
change 136165
Tag@@ 136053
23 136034
ap@@ 135974
Operation 135935
Host 135839
48@@ 135827
llvm 135827
Token@@ 135797
item@@ 135787
the@@ 135624
bit 135620
ui@@ 135556
opaqueNEW_LINENEW_LINEdefine 135548
directory 135499
System@@ 135265
ator 135123
points 135076
include 135019
31 135016
configuration 134946
from@@ 134932
Module 134920
reset 134713
line@@ 134178
getId 134082
reader 133950
block@@ 133940
%bb2, 133931
Stats 133894
client@@ 133794
Hash 133556
im@@ 133505
database 133495
move 133470
77@@ 133276
later 133276
1_@@ 133173
Render@@ 133166
3" 133156
(%class.@@ 133115
54@@ 132740
(%class.java_lang_Object*)*, 132665
NotNull 132472
desc 132168
dest 132134
Project 132003
Files 131986
78@@ 131971
Reference 131872
Definition 131846
to_@@ 131797
Panel 131749
scope 131717
name@@ 131657
Player@@ 131653
src@@ 131591
useful 131549
0" 131489
cluster 131377
inline 131374
sc 131350
Channel 131343
26@@ 131192
%class.null@@ 131187
queue 131180
springframework 131178
(%class.java_awt_Component*, 131177
Connection@@ 131065
me@@ 131022
bind 130983
Control 130948
Channel@@ 130781
Storage@@ 130738
60@@ 130711
Row@@ 130528
Last@@ 130459
use@@ 130180
enum 130084
field@@ 130084
_type 130014
Desc 129983
Parameter 129937
44@@ 129831
Not@@ 129819
ent 129617
%class@@ 129582
0x80 129506
ations 129446
:@@ 129359
Keys 129314
Remove@@ 129164
class@@ 129152
35@@ 129024
lo@@ 128977
FROM 128886
sync 128853
search 128715
up@@ 128649
ted 128583
Link@@ 128467
limit 128465
scale 128274
AC@@ 128176
Attributes 128172
bits 128151
Timeout 128147
returns 128075
writer 128059
59@@ 128003
table@@ 127971
don 127968
published 127956
meta 127889
Pattern 127821
res@@ 127668
%a0) 127612
Json@@ 127530
Template@@ 127447
space 127344
make@@ 127337
Queue 127334
Find@@ 127316
operation 127203
F_@@ 127141
Invalid 127085
ER_@@ 126975
At 126945
group@@ 126886
googleapi 126815
Content@@ 126578
tests 126466
Delete 126431
delete@@ 126359
Prefix 126116
test_@@ 126062
err@@ 125933
called 125923
s_ 125791
float64 125738
Idx 125619
ly 125557
40 125523
Engine 125392
sTo@@ 125385
Math 125341
Range@@ 125302
,@@ 125252
Current@@ 125224
region 125217
2.@@ 125210
%a1, 125074
99@@ 125066
raw 125041
diff 124846
exec 124585
Version@@ 124518
Stack 124488
cannot 124416
x_@@ 124257
ed_@@ 124044
End@@ 123727
0x01 123714
Join 123622
Left 123600
stmt 123558
script 123413
%ibinop@@ 123396
row@@ 123354
job 123190
fd 123160
0x72 123134
Label@@ 122982
70@@ 122919
def 122885
Parameter@@ 122823
new_@@ 122803
en 122786
ag@@ 122776
validation 122646
ma@@ 122632
path@@ 122586
Max 122578
Run 122575
Nodes 122274
vec 121872
bb@@ 121804
document 121755
Adapter 121595
ated 121574
IllegalArgumentException 121558
Format@@ 121549
Return 121526
TA@@ 121347
actual 121326
URI 121256
Volume@@ 121154
resourceGroupName 120993
chan 120893
intellij 120869
along 120849
Response@@ 120764
returned 120745
Out@@ 120555
Game@@ 120422
Store@@ 120366
layer 120312
event@@ 120274
uint8_t 120233
Host@@ 120203
service@@ 120018
span 119966
redistribute 119916
getType 119722
_44@@ 119501
execute 119365
volume 119338
36@@ 119245
step 119237
account 119135
Button@@ 119132
Column@@ 119130
CP@@ 119079
NO@@ 118971
wireType 118961
y_@@ 118861
Err@@ 118804
server@@ 118663
module 118357
send 118337
Do@@ 118072
By 117959
Min@@ 117935
request@@ 117934
Ok 117915
Menu 117878
Qgs@@ 117835
apply 117712
expression 117689
metav1 117578
From 117553
kind 117428
uri 117398
Arg 117391
Application@@ 117324
ul@@ 117260
Per@@ 117201
Float 117042
conditions 116989
Init@@ 116978
query@@ 116828
action@@ 116817
listener 116729
rows 116714
binary 116590
MC@@ 116513
Copy 116396
Access@@ 116375
AR@@ 116358
Layer 116318
Arrays 116289
component 116257
callback 116250
79@@ 116192
matrix 116186
because 116013
var@@ 116004
Char@@ 115965
button 115949
Rule@@ 115941
0x61 115752
available 115629
ms@@ 115466
Sets 115338
created 115327
enabled 115302
null, 115272
off 115120
guid 114993
tc 114840
Activity 114803
plugin 114779
provided 114726
warranty 114683
TO 114669
Mock@@ 114643
Stack@@ 114637
Storage 114637
Now 114623
Debug 114514
SI@@ 114511
Invalid@@ 114389
Do 114355
th 114333
stop 114331
0x4@@ 114293
k_@@ 114266
total@@ 114137
Component@@ 113981
view@@ 113909
Co@@ 113901
math 113886
Non@@ 113858
lib 113739
*)*, 113525
ex@@ 113481
hope 113395
code@@ 113319
argv 113242
Document@@ 113227
Next@@ 113184
API@@ 113069
per@@ 112999
for@@ 112956
ent@@ 112735
show 112721
Use 112542
Entry@@ 112479
just 112414
parent@@ 112385
record 112324
0x8@@ 112240
200 112219
Bit@@ 112022
handle@@ 111879
pair 111831
domain 111790
SE@@ 111767
Pool 111724
SC@@ 111716
LI@@ 111703
error@@ 111637
Header@@ 111559
LE@@ 111507
in_@@ 111495
clone 111488
Project@@ 111473
stats 111342
graph 111328
Control@@ 111311
register@@ 111256
90@@ 111253
Pod@@ 111162
Root 111138
Configuration@@ 111118
output@@ 111089
AI 111061
Memory@@ 111021
Vec 110964
NONE 110960
Spell@@ 110941
Cmd 110842
DEFAULT_@@ 110567
ur@@ 110531
Change 110517
col@@ 110338
0x69 110295
AS@@ 110250
elements 110219
Session@@ 110184
Http@@ 110178
EN@@ 110161
extern 110158
resources 110104
R_@@ 110075
_45@@ 110064
ids 110009
hashCode 109995
66@@ 109986
i64, 109921
cast 109864
Global@@ 109847
services 109735
Region 109725
@__GC_malloc(i64 109714
Post@@ 109704
[0 109670
Expected 109668
old 109636
CHECK 109615
CC@@ 109530
goto 109337
e_@@ 109330
St@@ 109282
ON 109261
Registry 109222
draw@@ 109211
Ref@@ 109204
Exception@@ 109161
Ty 109094
JSON 109053
Ids 109051
Generic@@ 108803
ID_@@ 108777
49@@ 108669
factory 108410
ref@@ 108371
menu 108354
ER@@ 108348
MA@@ 108332
_32@@ 108264
ated@@ 108148
0x2@@ 108115
n_@@ 108040
result@@ 108024
Statement 108015
Creature 107916
os@@ 107824
Ch@@ 107763
control 107690
SLOT 107639
pro@@ 107602
%class.java_lang_Object*, 107597
Account@@ 107564
56@@ 107534
\t 107401
Describe@@ 107385
AL@@ 107283
bit@@ 107209
ted@@ 107162
FALSE 107139
two 107087
arguments 107084
can@@ 106923
push 106862
END 106846
CH@@ 106794
Q 106652
Java@@ 106617
28 106594
cb@@ 106592
hpp 106580
Expect 106423
objects 106346
Child 106245
also 106164
loop 106163
cc 106153
Reg 106040
api@@ 105990
Directory 105886
ge@@ 105871
Sk@@ 105818
Vector@@ 105772
above 105731
sp 105487
Grid@@ 105474
owner 105440
us@@ 105436
Register@@ 105393
47@@ 105288
pointer 105217
Reset 105165
89@@ 105123
argument 105049
em 105040
NE@@ 105007
88@@ 104938
SOFTWARE 104878
Next 104848
success 104751
awt 104685
weak_odr 104589
controller 104584
io@@ 104559
access 104550
%class.java_lang_Object*NEW_LINE 104410
override 104378
Decl 104316
param@@ 104282
total 104266
Link 104233
pb 104141
Bundle 104076
AD@@ 104070
pp@@ 103998
Loc 103900
u32 103862
password 103736
readonly 103723
r_@@ 103663
KEY 103654
spell 103556
mock@@ 103531
f_@@ 103255
Manager@@ 103204
Send 103111
el 103003
128 102794
AT@@ 102764
Address@@ 102656
rights 102586
Open 102542
SchemaProps 102539
RT@@ 102538
Font@@ 102537
Printf 102502
Note 102468
UI@@ 102447
CO@@ 102410
abstract 102313
Draw@@ 102275
Unit@@ 102244
changed 102202
0x0000 101980
sz@@ 101931
Repository 101920
Identifier 101895
Record@@ 101889
attributes 101820
256 101800
1.0f 101798
e1 101777
cpp 101772
Selector 101742
SELECT 101708
phi 101671
variable 101650
max_@@ 101639
world 101607
RO@@ 101512
Xml@@ 101490
SIGNAL 101468
zero 101388
Con@@ 101370
frame@@ 101332
Order 101232
additional 101160
fake 101151
Unmarshal 101134
encoding 101003
0x6e 100949
num_@@ 100948
Failure 100907
Char 100791
save@@ 100786
Operation@@ 100774
strconv 100730
3.@@ 100666
Labels 100639
val@@ 100628
Texture@@ 100627
font 100572
Objects 100535
sort 100469
char@@ 100455
security 100414
100@@ 100358
G_@@ 100316
Match 100236
At@@ 100217
Init 100181
X_@@ 100131
gen@@ 100050
driver 99958
hash@@ 99955
GET 99849
methods 99846
Title 99842
Only 99831
26 99778
80 99757
0x73 99745
%class.jlang_runtime_Array*) 99723
TRUE 99653
Limit 99646
task@@ 99599
Mode@@ 99554
exit 99533
panic 99518
hadoop 99501
Double@@ 99471
unwrap 99419
message@@ 99405
save 99399
ASF 99319
Bean 99293
cx 99290
s2 99222
EVENT_@@ 99194
Date@@ 99155
av@@ 99097
If@@ 99089
Resources 99074
vi@@ 99024
feature 98992
IO@@ 98981
slot 98898
creature 98741
Menu@@ 98562
Use@@ 98475
state@@ 98401
int32_t 98392
cursor 98390
amount 98356
Str@@ 98343
postIndex 98338
config@@ 98290
af@@ 98288
per 98267
Policy@@ 98211
ErrUnexpectedEOF 98196
s1 98068
Internal@@ 98017
K_@@ 97995
display 97995
search@@ 97988
StringBuilder 97959
Collections 97958
sum 97908
Job 97896
Protocol 97845
library 97830
ToString 97799
net@@ 97650
on_@@ 97631
InputStream 97629
string@@ 97622
ic 97599
98@@ 97586
Timestamp 97468
thrift 97468
Intent 97417
Right 97379
ter 97265
Buf 97233
Generator 97233
Var@@ 97168
AN@@ 97147
Layout@@ 97135
FILE 97130
dw@@ 97057
Metadata@@ 97038
transaction 97006
register 96992
fe@@ 96956
29 96930
Module@@ 96908
FileName 96907
Number@@ 96855
Second 96840
Var 96829
Encode 96656
functions 96471
Param@@ 96429
Meta 96317
%cdv_ty.java_lang_String* 96297
@Polyglot_java_lang_String_cdv, 96297
cloud 96244
ter@@ 96232
ING 96142
Chain 96129
i_@@ 96102
27 96098
Media@@ 96083
3NEW_LINE 96003
direction 95998
#else 95936
packet 95926
uintptr 95880
ut@@ 95830
Style@@ 95827
game 95771
Queue@@ 95724
_s@@ 95605
syscall 95589
(%class.java_awt_Container*, 95488
txt 95460
getClass 95454
UI 95413
um@@ 95351
ps@@ 95304
pod@@ 95216
TI@@ 95164
Api@@ 95142
Cursor 94971
psz@@ 94958
MI@@ 94844
web 94832
our 94788
Spell 94710
ra@@ 94641
obj@@ 94543
loc 94540
if@@ 94513
integer 94502
active 94320
fa@@ 94283
Count@@ 94247
bad 94227
editor 94132
OS 94079
XML@@ 94045
mod 94019
Lock@@ 93990
mi@@ 93975
Memory 93969
App 93966
Details 93962
Show@@ 93837
Equals 93787
v_@@ 93776
fi@@ 93725
Font 93629
53@@ 93615
split 93607
Debug@@ 93602
ep@@ 93561
Points 93417
Order@@ 93359
0x2e 93290
ls 93282
%class.jlang_runtime_Array, 93214
axis 93205
b_@@ 93133
ns@@ 93098
lib@@ 93079
structure 93061
Sh@@ 93051
33 92942
lines 92886
DATA 92847
Net@@ 92785
resource@@ 92783
notice 92750
Matrix@@ 92673
Optional 92659
pattern 92530
annotations 92512
01 92507
Script 92481
Database@@ 92479
KEY_@@ 92420
argc 92420
socket 92397
bo@@ 92330
mock 92259
Mgr 92237
ly@@ 92201
entries 92184
Unlock 91893
Println 91841
Process 91765
sClient 91758
INFO 91686
Events 91656
TO@@ 91626
Nullable 91620
of@@ 91532
Byte@@ 91523
3_@@ 91476
ve@@ 91460
Edit@@ 91455
put@@ 91442
StatusCode 91231
post@@ 91165
STATE_@@ 91073
ne@@ 91073
Display@@ 91031
Audio@@ 90981
rule 90937
Wrapper 90820
Select@@ 90789
that1 90778
filepath 90707
Tab@@ 90676
color@@ 90643
Copy@@ 90515
Attr 90446
pool 90356
yy@@ 90311
Interval 90270
Not 90079
host@@ 90004
Plugin 89880
getMessage 89820
filter@@ 89801
Print@@ 89759
label@@ 89756
Package 89746
allErrs 89745
Level@@ 89698
tags 89674
Single@@ 89616
dialog 89587
%load.length@@ 89540
Created 89511
Port@@ 89479
Tags 89411
Enum 89378
DEBUG 89244
valueOf 89222
matches 89212
GUID 89089
blocks 89032
AP@@ 89008
stream@@ 88991
MAX 88986
Sync@@ 88954
Reg@@ 88931
reserved 88890
Inst 88790
alpha 88644
p1 88643
Option@@ 88642
74@@ 88610
0x9@@ 88583
fs@@ 88507
Save@@ 88476
Enum@@ 88427
Video@@ 88378
tag@@ 88375
tx@@ 88360
labels 88339
__, 88311
point@@ 88253
provider 88194
Role 88176
texture 88106
clear@@ 88082
Future 88027
Msg@@ 87952
word 87934
Rows 87912
Stop@@ 87907
Y_@@ 87899
Auth@@ 87896
-0.@@ 87850
TEST 87779
Def 87721
Register 87708
Root@@ 87620
uint16 87598
Volume 87565
raw@@ 87505
Doc@@ 87475
proxy 87473
TH@@ 87408
Ad@@ 87359
reg@@ 87280
2NEW_LINE 87273
Mem@@ 87266
34 87230
Uri 87218
json@@ 87189
Variable 87132
USE 87084
Member@@ 86769
wrong 86745
sub 86707
ks 86702
whether 86653
ve 86575
Vertex@@ 86538
42 86517
'@@ 86513
call@@ 86502
timestamp 86416
pt 86400
mm@@ 86365
te 86348
\NEW_LINE 86336
conversion 86320
0x3@@ 86314
constant 86260
Hash@@ 86248
docker 86236
ator@@ 86212
TEST_@@ 86147
copy@@ 86145
Pro@@ 86144
auto@@ 86108
Bool 86071
Plugin@@ 86028
Step 85998
Database 85949
0x@@ 85948
Profile 85942
_name 85939
Proxy 85934
36 85858
Endpoint@@ 85855
Counter 85852
Arg@@ 85826
Min 85813
comp@@ 85813
cl@@ 85794
MP@@ 85735
assert_eq 85735
Go@@ 85641
An@@ 85620
Basic@@ 85613
finally 85605
Handler@@ 85592
Schema@@ 85585
Texture 85582
Bits 85545
wire 85539
Load 85503
md 85482
ment@@ 85435
Make@@ 85431
fake@@ 85399
exp 85383
models 85362
virtual 85345
Scale 85330
wait 85242
Long@@ 85205
character 85181
ts@@ 85164
Application 85156
member 85098
based 84966
Free@@ 84957
First@@ 84950
u8 84950
depth 84872
implementation 84832
0x6@@ 84814
Icon 84728
Db@@ 84659
age 84599
000@@ 84594
_49@@ 84576
%bb4@@ 84574
sure 84543
always 84537
root@@ 84515
INT 84503
Can@@ 84382
Transaction 84370
vm 84324
Up@@ 84269
A_@@ 84254
SQL@@ 84253
Processor 84224
INCLUDING 84188
Condition 84184
Graph 84152
par@@ 84149
web@@ 84139
cause 84035
51 83949
35 83930
Main@@ 83910
xml@@ 83906
Core 83790
pc 83758
ON_@@ 83733
Part 83719
Remove 83718
mi 83683
Move@@ 83591
operator 83514
Strategy 83477
gen 83469
pa@@ 83464
about 83408
transform 83400
Profile@@ 83367
Py@@ 83247
Fn 83241
Cell 83203
pass 83203
cr@@ 83192
object@@ 82995
0x5@@ 82902
typedef 82886
TE@@ 82821
def@@ 82798
Location@@ 82711
Sp@@ 82662
symbol 82648
Background 82620
0x6c 82493
Float@@ 82447
@throwUnwindException(i8* 82414
require 82401
%a1) 82391
Child@@ 82354
*NEW_LINE 82265
0x7@@ 82183
Results 82143
Report@@ 82116
PO@@ 82115
from_@@ 82069
children 82028
Mouse@@ 82016
username 82001
cd@@ 81991
Area 81977
Struct 81837
Fragment 81700
constructor 81652
multi@@ 81621
sets 81584
cp@@ 81579
B_@@ 81570
Usage 81560
Flow@@ 81530
what 81525
cc@@ 81499
4.@@ 81440
and@@ 81438
NO_@@ 81371
TS 81327
@_string_lit_@@ 81253
%bb3NEW_LINE 81245
single 81239
om@@ 81086
ED 81067
Driver 81004
between 80993
const_iterator 80990
hr 80990
down 80870
Position@@ 80825
ir@@ 80807
Stop 80792
sequence 80721
Match@@ 80676
Editor 80656
75@@ 80643
Errors 80634
Form 80561
ds@@ 80554
Env 80552
running 80549
policy 80521
top@@ 80520
CR@@ 80454
0x63 80446
Editor@@ 80420
dev 80409
Endpoint 80338
selected 80336
Import@@ 80332
msg@@ 80314
Proxy@@ 80302
none 80295
ver@@ 80268
Provider@@ 80240
il@@ 80171
N_@@ 80147
TAG 80142
]NEW_LINE 80137
TR@@ 80103
could 80065
origin 80012
SS@@ 80003
exist 79945
Remote@@ 79903
DWORD 79849
they 79778
add_@@ 79753
synchronized 79747
render@@ 79734
Box@@ 79705
0.0@@ 79677
eclipse 79649
Packet 79629
Batch@@ 79605
Holder 79593
messages 79588
One@@ 79542
Throwable 79539
ioutil 79527
Socket 79510
glog 79506
such 79493
container@@ 79489
Put@@ 79473
like 79465
NO 79443
unexpected 79434
NEW_LINE} 79395
headers 79380
trace 79361
ER 79359
counter 79340
dst@@ 79279
SET_@@ 79265
layer@@ 79216
reg 79215
_class, 79188
random 79182
link@@ 79108
48 79100
4" 79095
Common@@ 79093
Space 79025
inter@@ 78973
ST 78926
page@@ 78895
CA@@ 78893
Renderer 78888
6, 78841
edge 78839
main@@ 78805
的@@ 78797
fileName 78785
supported 78763
45@@ 78733
tex@@ 78725
child@@ 78723
Account 78721
Mapping 78698
selected@@ 78664
IN_@@ 78651
SH@@ 78651
cpu 78643
Symbol 78623
Graph@@ 78607
ai@@ 78573
m_b@@ 78555
cache@@ 78550
Headers 78460
job@@ 78450
head 78355
verify 78348
file_@@ 78268
0x70 78196
tab@@ 78158
Loader 78130
ation_@@ 78128
cb 78111
icon 78077
76@@ 78018
LO@@ 77974
Po@@ 77944
ba@@ 77918
t1 77898
current_@@ 77890
active@@ 77881
http@@ 77822
ING_@@ 77813
al_@@ 77791
Reference@@ 77779
Mutex 77769
x1 77767
qu@@ 77762
ta@@ 77731
gl 77720
}NEW_LINE@_string_lit_@@ 77719
First 77703
0x64 77662
Done 77659
COPYRIGHT 77595
Layer@@ 77595
LE 77560
allow 77555
Sql@@ 77538
cli 77533
replace 77525
%load.arr.elem@@ 77500
collect 77500
close@@ 77441
pt@@ 77408
ig@@ 77390
non@@ 77378
Meta@@ 77368
Messages 77356
37 77341
BO@@ 77329
Feature@@ 77328
Static@@ 77256
%call1 77232
stop@@ 77211
validate@@ 77200
Form@@ 77183
should@@ 77100
stack@@ 77088
FLAG_@@ 77068
ad 77036
On 77004
so@@ 76981
Active@@ 76875
Cell@@ 76865
registry 76861
GE@@ 76839
href 76803
ho@@ 76780
duration 76764
0x67 76690
skip 76682
gnu 76677
Parent 76626
rate 76544
allowed 76527
visit@@ 76503
97@@ 76387
Transaction@@ 76387
Settings@@ 76378
Fake@@ 76362
STRING 76358
Member 76349
condition 76305
them 76256
EC@@ 76212
RuntimeException 76209
ment 76125
optional 76116
"*, 76099
Collection@@ 76080
Access 76029
0xFF 76022
ph@@ 76006
After 76004
bin 75997
Pool@@ 75915
generate@@ 75913
am 75912
AM@@ 75906
CT@@ 75905
tok 75894
ke@@ 75803
VALUE 75802
chain 75769
logging 75745
Operator 75649
rt@@ 75626
added 75579
%"class.@@ 75575
Conn 75535
lp@@ 75533
ates 75531
Close@@ 75509
GL 75491
Vertex 75457
rest 75402
future 75356
Local 75340
descriptor 75316
Bar@@ 75252
UUID 75165
Build 75145
Ex@@ 75094
Variable@@ 74964
Cur@@ 74944
87@@ 74909
format@@ 74885
rhs 74848
59 74802
concurrent 74798
Domain@@ 74733
rc@@ 74714
ol@@ 74700
5, 74679
gs 74656
dest@@ 74618
columns 74607
ws 74558
\u0@@ 74533
46@@ 74424
#ifndef 74403
cell 74392
Binary@@ 74351
World 74331
Psi@@ 74302
Gen@@ 74294
oc@@ 74171
elasticsearch 74146
0x02 74113
append@@ 74080
5.@@ 74053
1024 74035
Category 74026
rand 73967
i32)*, 73958
Empty 73927
%class.java_lang_String*))NEW_LINE 73897
doesn 73877
MS@@ 73858
over 73811
red 73797
another 73769
back@@ 73767
sh 73672
Empty@@ 73648
Ctx 73615
permission 73602
Security@@ 73600
Null 73588
bi@@ 73561
Effect@@ 73541
parts 73524
J 73513
000 73479
comment 73478
Rate 73451
Tests 73407
pu@@ 73404
sLog 73396
Transform 73386
master 73342
En@@ 73322
Self 73288
grpc 73254
setting 73244
Disk@@ 73169
repo 73166
_115@@ 73150
Internal 73122
pr@@ 73014
size@@ 73013
Execution@@ 73008
display@@ 72989
statement 72949
Region@@ 72926
Groups 72925
Network 72876
mem@@ 72830
mu 72801
normal 72794
ors 72740
exp@@ 72707
Blocks 72700
column@@ 72666
IC@@ 72630
bottom 72621
sRequest 72617
possible 72595
ON@@ 72558
mp 72528
EXPECT_EQ 72515
mem 72495
38 72461
payload 72458
Byte 72380
gi@@ 72364
um 72350
Unknown 72343
draw 72285
AL 72229
ce 72199
Selection@@ 72175
External@@ 72140
join 72135
OR@@ 72132
or_@@ 72096
Raw@@ 72042
ads 72008
Bean@@ 71934
Cluster 71928
identifier 71924
azure 71875
StringUtils 71842
0x10 71778
distribution 71747
ap 71745
change@@ 71734
UID 71694
he@@ 71624
0.5 71595
metrics 71584
"1" 71573
gc 71524
Before 71462
timer 71433
setValue 71387
MO@@ 71370
CS@@ 71319
being 71284
equal 71243
right@@ 71207
Sample@@ 71187
Mapper 71106
TO_@@ 71091
8" 71071
(%class.java_lang_Object*, 71045
damage 71040
tab 71036
expect 71011
Track@@ 71003
delta 70928
lock@@ 70919
sFor@@ 70919
wallet 70911
auth 70900
Dynamic@@ 70869
Plan@@ 70846
WHERE 70814
left@@ 70812
Required 70777
df@@ 70759
4_@@ 70754
screen 70745
device@@ 70717
@Polyglot_jlang_runtime_Helper_toString__Ljava_lang_Object_2(%class.java_lang_Object* 70710
prev@@ 70683
img 70675
XML 70649
Expression@@ 70634
associated 70628
subject 70624
calls 70612
OP@@ 70552
_size 70510
soap 70503
SQLException 70495
extension 70457
collection 70421
DATA_@@ 70384
printStackTrace 70356
p2 70351
select@@ 70327
Di@@ 70288
seed 70141
.0 70138
ct@@ 70135
signal 70131
One 70086
Scan@@ 70038
actions 70002
otherwise 69964
int64_t 69915
different 69880
sample 69860
0x1@@ 69859
Parse 69844
area 69773
Domain 69737
OUT 69726
emit@@ 69720
urlParams_ 69658
200@@ 69631
HashSet 69560
tion@@ 69547
Dao 69487
TextView 69474
Constant 69473
mb@@ 69418
dc 69393
read_@@ 69356
token@@ 69355
Elements 69329
bounds 69299
distance 69294
Permission 69265
cf@@ 69250
byte@@ 69222
gr@@ 69215
<Q@@ 69209
IsNil 69203
CE@@ 69178
DEFAULT 69149
0x12 69130
cluster@@ 69123
less 69099
44 69079
Effect 68970
JS@@ 68959
Display 68934
fp 68916
usize 68900
Password 68870
ERROR_@@ 68852
tcx 68846
Validate@@ 68833
Parser@@ 68800
reason 68777
pc@@ 68752
Dir@@ 68746
sr@@ 68731
Random@@ 68713
Ar@@ 68696
game@@ 68683
7, 68646
Environment 68625
model@@ 68622
gt 68577
.get@@ 68576
BE 68540
Amount 68478
)@@ 68471
DO@@ 68431
Runtime@@ 68389
setEnabled 68350
Be@@ 68319
ings 68300
reply 68281
dis@@ 68268
Slice 68239
Resolver 68199
sw@@ 68196
Obj@@ 68147
68 68108
doc@@ 68108
I_@@ 68071
der@@ 68065
commons 68053
08@@ 68028
through 67953
Feature 67933
cmd@@ 67895
lin@@ 67888
Shared@@ 67849
usr 67838
rv 67828
56)NEW_LINE 67799
ALL 67734
45 67731
Role@@ 67729
4, 67725
Res 67700
documentation 67667
convert 67662
39 67642
46 67616
cl 67599
Left@@ 67595
2D 67580
mapping 67580
content@@ 67551
zone 67541
release 67515
vec@@ 67507
Enable@@ 67485
slt 67474
84@@ 67431
90 67409
SuppressWarnings 67389
FI@@ 67345
%class.null, 67323
substring 67289
0x1 67279
tion 67259
5" 67248
ers@@ 67226
%class 67212
%class, 67212
%class.null 67212
unknown 67204
accept 67194
errs 67183
Req 67152
ll@@ 67149
GC@@ 67148
Spec@@ 67127
_101@@ 67119
auth@@ 67100
Comment 67084
too 67084
Core@@ 67002
Section 66986
Folder 66935
box@@ 66913
instead 66887
Back@@ 66858
not@@ 66849
.hpp> 66840
SET 66835
Direction 66781
96@@ 66780
Common 66775
Col@@ 66764
Instruction 66748
insert@@ 66738
56 66723
command@@ 66693
Temp@@ 66671
note 66665
Paths 66627
full 66617
V_@@ 66589
man@@ 66562
count@@ 66560
player@@ 66555
grid 66552
_T 66546
09@@ 66529
Notification@@ 66488
Extension 66479
\t@@ 66427
ownership 66414
dd 66394
dx 66391
Protocol@@ 66378
uc@@ 66372
Bitmap 66353
Push@@ 66343
Sequence 66334
ating 66324
custom@@ 66323
NOTICE 66315
FF@@ 66302
tt@@ 66296
Constant@@ 66268
stat 66252
After@@ 66232
section 66177
RA@@ 66168
admin 66161
THIS 66138
_)NEW_LINE 66104
fprintf 66081
**NEW_LINE 66037
cs@@ 66008
Native@@ 66006
sql@@ 65996
indices 65983
role 65980
Work@@ 65979
Route@@ 65952
one@@ 65951
Selection 65930
side 65881
IDs 65840
Columns 65832
selection 65799
Slot 65775
BE@@ 65774
EVENT 65707
req@@ 65702
ke 65695
Contains 65693
property@@ 65660
dec@@ 65655
LA@@ 65635
existing 65603
force 65585
OP_@@ 65579
previous 65543
Suite 65538
World@@ 65504
Short 65470
Res@@ 65454
da@@ 65422
67 65411
Geo@@ 65383
@Polyglot_java_lang_String_concat__Ljava_lang_String_2(%class.java_lang_String* 65374
Annotation@@ 65367
shape 65280
LOG_@@ 65260
work@@ 65238
pods 65220
Filename 65210
Body@@ 65169
mu@@ 65150
Properties@@ 65135
data_@@ 65130
AB@@ 65129
Infof 65111
response@@ 65102
_f@@ 65075
scene 65058
0x03 65025
Gets 65006
*= 64983
Top 64980
by@@ 64975
tile 64950
ob@@ 64935
amazonaws 64929
good 64922
ser@@ 64914
my 64913
57 64854
buffer@@ 64845
br@@ 64839
groups 64831
bs 64812
SD@@ 64776
Screen@@ 64767
CON@@ 64742
Visitor 64737
JSON@@ 64697
c1 64676
Offset@@ 64639
script@@ 64613
@createUnwindException(i8* 64588
Shader@@ 64522
ME@@ 64517
Tool@@ 64517
0x0a 64490
resize 64488
window@@ 64487
sk@@ 64473
apis 64461
Constraint 64456
prev 64433
_-@@ 64424
uid 64408
lu@@ 64355
Full@@ 64316
array@@ 64316
speed 64300
button@@ 64291
*)* 64271
thread@@ 64261
sIn@@ 64260
Bounds 64178
ul 64169
Dialog@@ 64071
si 64050
Dis@@ 64042
3D 64031
Of 64030
Null@@ 64011
IMPLIED 63996
within 63972
track 63969
Search 63954
Tx@@ 63906
changes 63882
cp 63851
initialize 63846
helper 63837
emit 63836
QStringLiteral 63789
bt@@ 63763
angle 63754
type_@@ 63754
vo@@ 63750
Runnable 63748
tools 63723
Virtual@@ 63714
valid@@ 63712
seconds 63707
day 63697
info@@ 63689
compare 63658
0x7f0100@@ 63569
actual@@ 63548
led 63507
md@@ 63469
Scale@@ 63371
6.@@ 63367
containing 63355
DA@@ 63344
0_@@ 63339
Opts 63337
ST_@@ 63334
Success 63324
41 63299
method@@ 63276
atom 63253
ses 63240
ii 63225
Interface@@ 63192
Shape 63182
LIMITED 63172
Activity@@ 63163
Metrics 63162
Socket@@ 63151
bind@@ 63134
An 63115
Binding 63111
Elem 63110
0x75 63097
HTTP 63060
alt 63048
IO 63039
MA 62991
Mo@@ 62988
63 62975
500 62957
\u00@@ 62955
sPer@@ 62910
email 62896
86@@ 62884
OS@@ 62815
native 62812
rules 62759
VI@@ 62690
Controller@@ 62666
IS_@@ 62615
Edge 62614
ext@@ 62609
Val@@ 62600
usage 62600
%bb3NEW_LINENEW_LINEbb2: 62580
unreachableNEW_LINENEW_LINEbb@@ 62552
POST 62520
ev@@ 62489
pid 62433
Found 62417
99 62394
SA@@ 62393
VM@@ 62373
fill 62325
Children 62264
Comp@@ 62236
Executor 62216
AST 62166
_116@@ 62161
ES 62112
URL@@ 62095
variables 62037
store@@ 62015
i8]* 61985
Up 61959
shared 61947
0xffffffffffffffff 61934
Reason 61919
Th@@ 61888
regarding 61871
Json 61868
assertNotNull 61820
_data 61806
dc@@ 61790
profile 61781
compute 61775
Top@@ 61770
compiler 61769
Insert@@ 61707
Marshal 61696
Pass@@ 61691
Strings 61646
Select 61642
BUT 61612
getCurrent@@ 61576
dt 61575
RI@@ 61569
Owner 61519
push@@ 61515
Join@@ 61497
Annotation 61475
interval 61428
Step@@ 61425
ub@@ 61425
Priority 61365
%class.sun_reflect_generics_repository_ClassRepository 61316
users 61304
verify@@ 61304
to_string 61296
TABLE 61285
%cast.interface.method@@ 61267
cal@@ 61255
global@@ 61235
True 61209
%bb3NEW_LINENEW_LINEbb3: 61142
attrs 61113
these 61083
term 61076
TT@@ 61072
Guid 61056
written 61042
Windows 61005
_PRO@@ 60987
destination 60956
ext 60944
ast@@ 60907
caster 60898
Support 60882
score 60870
hi 60844
dd@@ 60830
way 60830
Find 60821
both 60788
Scroll@@ 60763
port@@ 60728
Locale 60727
Validate 60727
typename 60693
Inter@@ 60673
scan@@ 60664
Stat@@ 60653
3D@@ 60649
0x04 60648
Gr@@ 60645
tk 60599
bar@@ 60598
CHECK_@@ 60523
55 60473
LIABILITY 60452
Engine@@ 60409
dy 60409
Rules 60401
%call 60399
Cast@@ 60393
Product@@ 60358
Case 60339
Move 60269
peer 60247
O_@@ 60224
bb 60194
radius 60181
x2 60180
Rest@@ 60168
uint256 60151
last_@@ 60129
voidNEW_LINE} 60129
VERSION 60127
move@@ 60127
contributor 60090
52 60083
ge 60067
removed 60061
Ptr@@ 60021
Return@@ 60018
Tab 59933
map_@@ 59931
Metric@@ 59919
pe@@ 59904
Services 59901
would 59886
findViewById 59866
Mod@@ 59864
intent 59845
ll 59831
Parent@@ 59825
opaqueNEW_LINE%class.@@ 59812
0000 59807
included 59802
servlet 59755
mouse@@ 59730
MIT 59728
Al@@ 59717
0000@@ 59710
HTTP@@ 59695
Bar 59658
_100@@ 59630
missing 59612
Package@@ 59607
Matcher 59593
Icon@@ 59585
ignore 59532
Def@@ 59489
contents 59458
Stmt 59425
Usage@@ 59398
Must 59389
debug@@ 59341
47 59293
Async@@ 59288
warning 59270
vm@@ 59266
abs 59251
ak@@ 59229
USA 59195
@_char_arr@@ 59130
Calendar 59122
Signature 59116
activity 59106
man 59106
i8] 59103
curr@@ 59092
aw@@ 59085
Sort@@ 59084
internal@@ 59073
characters 59062
sample@@ 59050
LOCK 59029
_112@@ 59023
Light@@ 59001
gu@@ 58954
needed 58954
tf 58949
cancel 58935
agreements 58927
Li@@ 58924
gui 58858
53 58854
Stat 58849
progress 58806
cur 58789
vs 58771
Split 58760
}NEW_LINE@@ 58760
Packet@@ 58754
Master@@ 58740
mod@@ 58723
CF@@ 58715
updated 58704
platform 58702
97 58696
_m@@ 58696
MSG_@@ 58694
Standard@@ 58682
sf 58668
gensupport 58624
lan@@ 58590
SUB@@ 58573
tokens 58571
pindex 58565
enable 58465
asList 58448
Pass 58429
extensions 58401
SO@@ 58398
bu@@ 58388
der 58379
BB 58349
IS@@ 58313
Area@@ 58300
uint64_t 58296
reset@@ 58275
ant 58259
Phase 58252
match@@ 58239
*)NEW_LINENEW_LINEdeclare 58232
Extension@@ 58194
storage@@ 58189
%bb4, 58187
Score 58178
sd 58174
Expr@@ 58164
skip@@ 58141
Valid 58057
report 58050
START 58013
Tx 57959
Apply@@ 57938
[@@ 57927
VM 57898
enable@@ 57897
%class.java_lang_String*), 57886
(%class.java_io_PrintStream*, 57869
instance@@ 57856
pixels 57851
Doc 57833
GO@@ 57792
openapi 57790
Secret 57721
fl@@ 57711
network@@ 57711
commit 57704
ity 57680
%bb@@ 57678
Actions 57643
Entries 57638
apimachinery 57635
Used 57634
urls 57623
ste@@ 57565
als 57545
et 57523
Fixed@@ 57496
04@@ 57488
Bind@@ 57485
Segment@@ 57451
Me@@ 57439
tions 57402
Warning 57385
led@@ 57384
Arguments 57380
NewErrorWithError 57378
NOT_@@ 57308
Game 57290
gt@@ 57254
Shader 57247
PyObject 57236
2f 57215
trans 57213
assertFalse 57211
70 57201
times 57201
uuid 57182
Depth 57165
ff 57136
sys 57125
screen@@ 57100
multiple 57079
ci@@ 57076
merge 57075
\x00@@ 57073
invalidParams 57010
ting 56993
mysql 56961
Validator 56951
PRO@@ 56932
Program@@ 56922
ine 56911
CD@@ 56905
%class.java_awt_Color*, 56891
Proto 56886
setup 56852
sdk 56846
101 56834
rt 56808
element@@ 56788
Clear@@ 56787
(%class.java_awt_Component*)*, 56783
passed 56762
Conf 56737
)" 56726
slice 56719
ret@@ 56718
edu 56693
sig 56683
Converter 56670
Edge@@ 56663
Src@@ 56663
float@@ 56651
7.@@ 56634
CM@@ 56607
reinterpret_cast 56574
\0@@ 56532
getText 56518
props 56508
Deployment@@ 56507
ca 56496
21@@ 56490
NEW_LINENEW_LINEbb@@ 56404
flow 56375
commands 56362
help 56349
m_i@@ 56328
Tile@@ 56321
Cloud@@ 56272
bucket 56254
Right@@ 56233
8, 56208
*)** 56205
dr@@ 56202
su@@ 56182
definition 56175
fc@@ 56162
0x18 56094
pi@@ 56085
%"op17149(gep@@ 56063
sig@@ 56063
Se@@ 56058
02 56051
ler 56049
graphics 56030
Private 56018
65 55997
Inner 55996
Reset@@ 55986
The@@ 55983
When 55951
TEXT 55947
entity@@ 55912
tile@@ 55899
Url@@ 55890
validate 55887
compute@@ 55877
strcmp 55869
dist 55866
center 55849
this@@ 55833
0x7F 55813
failure 55804
Total@@ 55802
Type_@@ 55791
signature 55767
session@@ 55751
components 55743
Term 55737
st_@@ 55694
Valid@@ 55670
getKey 55654
pl@@ 55652
proc 55652
43 55608
Program 55605
write_@@ 55601
hasNext 55582
sm@@ 55576
Pixel@@ 55553
Partition@@ 55544
Down 55537
vertex@@ 55532
Snapshot@@ 55525
ou@@ 55514
facebook 55512
images 55509
present 55509
FS@@ 55433
Decoder 55417
repository 55401
during 55377
spell_@@ 55369
Play@@ 55276
maximum 55272
pri@@ 55249
54 55129
rec@@ 55086
Save 55067
remote 55061
mark 55054
0x40 55035
CODE 55024
project@@ 55012
arg1 55009
Sequence@@ 54987
FL@@ 54978
png 54978
channel@@ 54968
Trans@@ 54960
date@@ 54946
renderer 54933
_un@@ 54932
until 54926
real 54924
return@@ 54915
Iter 54881
priority 54879
TIME 54878
MASK 54863
OR_@@ 54812
UR@@ 54802
erase 54784
Definition@@ 54775
ud@@ 54722
theme 54719
NE 54678
cell@@ 54676
arr 54664
_44_@@ 54651
les 54641
58 54619
inner 54599
define 54588
Mat 54586
selector 54564
v8 54551
effect 54547
over@@ 54543
Constructor 54501
CI@@ 54497
Q_@@ 54477
requests 54454
Word 54441
double, 54435
_46@@ 54425
context@@ 54388
ents 54361
NoError 54347
MD@@ 54345
generator 54345
BOOL 54339
MODE_@@ 54317
persistence 54316
light@@ 54299
07@@ 54259
we@@ 54201
volume@@ 54194
Drop@@ 54192
Begin 54188
Condition@@ 54137
header@@ 54121
Certificate@@ 54104
1)NEW_LINE 54099
Annotations 54058
Release 54057
DC 54048
mat 54035
Agent 54032
generate 54019
Assert@@ 54009
Attr@@ 53987
uses 53958
}NEW_LINE@_char_arr@@ 53955
FE@@ 53951
Focus@@ 53918
text_@@ 53912
out_@@ 53868
locale 53840
prop 53830
AV@@ 53808
EL@@ 53802
le_@@ 53789
0x7f0@@ 53734
ue@@ 53704
Payload 53690
Pods 53653
Screen 53634
APIVersion 53630
complete 53598
float, 53586
Login@@ 53571
v3 53562
Creates 53518
inst 53518
TL@@ 53499
allow@@ 53498
msglen 53484
apply@@ 53482
CRC 53473
trans@@ 53470
%bb5NEW_LINE 53450
dir@@ 53439
BigDecimal 53427
classes 53396
person 53390
Java 53387
pp 53387
BYTE 53376
ACTION_@@ 53372
240 53368
chunk 53368
NAME_@@ 53362
Serializable 53359
ASSERT_@@ 53349
tri@@ 53342
yet 53340
modified 53320
_t@@ 53286
iv@@ 53278
Widget@@ 53247
stderr 53234
bean 53226
Old@@ 53219
Progress@@ 53201
getProperty 53168
dp 53155
Setting 53138
tree@@ 53071
cast@@ 53053
UL@@ 53028
ac 53023
post 53019
Mod 53017
mark@@ 53015
t2 53000
weight 52995
Initialize 52982
alias 52982
Lookup@@ 52980
v1" 52954
Void 52948
Exec@@ 52934
Segment 52933
next_@@ 52923
Named@@ 52910
vertex 52892
FILE_@@ 52871
visit 52857
mm 52793
So@@ 52790
Ex 52787
real@@ 52785
docs 52776
lo 52774
initial@@ 52741
record@@ 52732
CL@@ 52731
instances 52721
loader 52721
mat@@ 52705
list_@@ 52704
sd@@ 52704
Bytes@@ 52702
1f 52688
memcpy 52685
Exit 52651
c2 52650
Scene 52609
addr@@ 52601
0x30 52599
3f 52589
Print 52554
TION 52554
other@@ 52545
Case@@ 52544
BY 52539
Random 52536
5_@@ 52534
ded 52500
Distance 52471
Func@@ 52443
custom 52443
threads 52421
svc 52413
remote@@ 52400
0x08 52382
Material 52340
Cannot 52322
ally 52315
DataType 52302
Wait 52297
%load.out@@ 52277
extra 52276
， 52266
66 52247
Async 52243
Clear 52234
Ac@@ 52196
sn@@ 52173
mutex 52146
oo@@ 52142
edit 52141
_99@@ 52130
@Polyglot_java_awt_Component_get@@ 52118
factor 52112
PRE@@ 52096
Integer@@ 52086
golang 52062
Replace 52055
Current 52054
Quest@@ 52034
"0" 52020
"* 51978
fd@@ 51976
batch 51970
0x28 51969
SAY_@@ 51965
Word@@ 51963
Active 51946
cv 51946
Release@@ 51902
il 51890
Codec 51889
Ip@@ 51885
how 51881
route 51878
Insert 51857
Library 51846
__ 51823
mesh 51817
age@@ 51808
ins 51808
0x2 51766
Reader@@ 51734
Fetch@@ 51711
Any 51702
Transform@@ 51678
Any@@ 51675
DateTime 51674
convert@@ 51661
Direct@@ 51632
MAX@@ 51630
Peer@@ 51626
88 51613
Ext@@ 51603
ass@@ 51579
MM@@ 51560
Argument 51559
ByteBuffer 51550
Unable 51501
Speed 51481
Drag@@ 51451
Constraint@@ 51429
Directory@@ 51418
SHA1 51411
category 51401
loading 51377
Over@@ 51368
their 51365
Modifier 51360
nothing 51351
61 51334
simple 51315
0x6d 51264
getLogger 51264
yaml 51238
connection@@ 51234
Stats@@ 51230
sList 51219
Should 51213
features 51211
setName 51202
Containers 51197
CONFIG_@@ 51177
Transport@@ 51175
Le@@ 51139
inputs 51113
AL_@@ 51083
environment 51059
Cmd@@ 51057
Decode@@ 51051
GI@@ 51033
ty@@ 51029
sync@@ 51027
des 51026
9, 51025
still 51002
canvas 50991
version@@ 50988
pnode 50984
segment 50981
begin@@ 50960
agent 50951
QCOMPARE 50918
32_@@ 50877
Clone 50856
lower 50840
low 50799
62 50797
%class.java_awt_Dimension*, 50779
random@@ 50746
Predicate 50735
loaded 50713
sender 50695
light 50670
%"cdv_ty.@@ 50661
10000 50642
channels 50633
HO@@ 50626
IF@@ 50619
Transport 50608
cm 50603
typ 50600
Dec@@ 50594
seq 50579
status@@ 50575
CWE@@ 50561
start_@@ 50549
Ports 50548
Methods 50541
trim 50536
.set@@ 50530
FIXME 50526
original@@ 50522
ACE_@@ 50518
Limit@@ 50510
49 50475
CPU 50460
pos@@ 50448
0x52 50447
Export@@ 50440
D3D@@ 50431
SUCCESS 50409
Watch@@ 50403
edit@@ 50396
0xE@@ 50383
Shape@@ 50354
delay 50338
setup@@ 50338
ci 50224
UP 50204
loc@@ 50188
Listener@@ 50186
ee@@ 50151
Progress 50148
currently 50145
Execute 50108
QObject 50101
che@@ 50099
SkBits2Float 50076
SPELL 50062
vars 50052
hi@@ 50046
98 50022
DAG 50022
Connect@@ 50012
@Polyglot_java_awt_Component_@@ 49981
video 49964
Grid 49959
r1 49935
SQL 49896
(%class.java_awt_Component*)* 49892
52@@ 49892
DD@@ 49888
la 49881
ant@@ 49873
TE 49863
Api 49861
Mock 49834
flush 49830
Factor 49796
Mapping@@ 49783
spellInfo 49768
Loop 49762
Exists 49761
Replicas 49758
Rec@@ 49754
ev 49752
BA@@ 49749
75 49733
0x2f 49719
closed 49712
gs@@ 49675
tp 49632
Upload@@ 49628
form@@ 49621
Namespace@@ 49598
NEW_LINE@@ 49579
getC@@ 49578
sa 49558
order@@ 49552
ize 49519
0x66 49500
thrown 49494
render 49477
ptr@@ 49474
Edit 49452
Sender 49427
ITEM_@@ 49425
red@@ 49417
Alignment 49393
surface 49393
ct 49377
8.@@ 49371
dot 49370
Weight 49363
0x32 49359
ine@@ 49348
Sc@@ 49322
ld@@ 49316
EX@@ 49315
sBy@@ 49301
protoimpl 49299
Consumer 49282
SU@@ 49271
wait@@ 49251
BI@@ 49232
BB@@ 49231
tasks 49231
Timer@@ 49205
Scheme 49178
Serializer 49168
}NEW_LINE%interface.java_util_Map 49159
2D@@ 49146
3d 49131
iz@@ 49126
lookup 49112
Panel@@ 49092
History@@ 49081
deleted 49033
Builder@@ 49027
94@@ 49010
GET_@@ 49010
Paint 48977
UP@@ 48966
local_unnamed_addrNEW_LINENEW_LINEdefine 48935
Agent@@ 48878
cases 48875
Available 48864
Main 48855
expect@@ 48849
9.@@ 48846
Delay 48837
TION_@@ 48818
Space@@ 48812
font@@ 48780
65535 48758
contact 48751
opaqueNEW_LINENEW_LINE@Polyglot_@@ 48751
OTHER 48747
never 48732
DELETE 48676
GetGUID 48661
sInput 48657
visible 48647
OutputStream 48636
un 48633
pi 48620
tw@@ 48618
ml 48600
item_@@ 48591
strlen 48587
execute@@ 48549
sz 48547
ver 48532
Global 48513
ded@@ 48492
#pragma 48487
AA@@ 48449
warn 48449
SR@@ 48440
secret 48440
Last 48437
Power@@ 48437
LE_@@ 48418
COUNT 48402
Lines 48390
shared_ptr 48374
Loop@@ 48359
Character@@ 48355
adapter 48341
Callback@@ 48301
1e@@ 48294
fill@@ 48284
off@@ 48280
track@@ 48242
Permission@@ 48230
mapper 48220
rep@@ 48214
Symbol@@ 48204
fix 48184
Reply 48178
co 48159
Dimension 48157
Chat@@ 48133
correct 48109
Admin@@ 48103
_109@@ 48079
ni@@ 48073
Encoding 48060
83 48049
Generate@@ 48016
Real 48013
Split@@ 47994
pv@@ 47974
dev@@ 47933
fi 47920
opcode 47904
sun 47881
Pane 47858
0xC@@ 47818
Ro@@ 47800
team 47796
ERR_@@ 47794
vertices 47764
Tex@@ 47760
pass@@ 47754
72 47743
menu@@ 47734
ep 47656
force@@ 47646
url@@ 47644
special 47636
range@@ 47629
LEFT 47625
Merge@@ 47624
0x31 47602
Card@@ 47593
Report 47591
exec@@ 47579
Sync 47540
FilePath 47532
paths 47526
VER@@ 47524
cn 47524
srv 47524
73@@ 47519
MenuItem 47508
%bb6, 47501
Complete 47496
GroupLayout 47481
Plan 47472
instruction 47472
proxy@@ 47468
cuda 47462
split@@ 47430
ist@@ 47429
sprintf 47427
TestCase 47399
%cdv_ty.java_lang_ArrayIndexOutOfBoundsException* 47376
%cdv_ty.java_lang_ArrayIndexOutOfBoundsException** 47376
%cdv_ty.java_lang_ArrayIndexOutOfBoundsException**NEW_LINE 47376
%class.java_lang_ArrayIndexOutOfBoundsException*NEW_LINE 47376
@Polyglot_java_lang_ArrayIndexOutOfBoundsException_cdv, 47376
So 47366
@Polyglot_java_lang_ArrayIndexOutOfBoundsException_ArrayIndexOutOfBoundsException__I(%class.java_lang_ArrayIndexOutOfBoundsException* 47355
&= 47335
pItem 47322
least 47304
ite@@ 47283
6" 47275
mt@@ 47271
Make 47259
IR@@ 47251
background 47248
indexOf 47232
dec 47208
Foo 47202
Factory@@ 47166
including 47165
at_@@ 47145
Part@@ 47133
Down@@ 47118
Trace 47110
transport 47106
ker@@ 47102
AN 47099
v1beta1 47083
c_int 47050
ResponseWriter 47038
Delegate 47016
Col 46997
Alias 46991
time_@@ 46937
units 46924
ec 46887
sService 46887
memset 46867
ence 46853
take 46850
copies 46848
holder 46843
JSONObject 46837
Capacity 46815
system@@ 46795
sign 46780
ans 46771
KEY@@ 46763
_105@@ 46758
Commit@@ 46735
FAILED 46729
Flag@@ 46727
etc 46723
2015 46722
Character 46714
Scope@@ 46704
Writer@@ 46702
NPC_@@ 46697
dim 46692
pixel 46690
ma 46667
fragment 46656
%class.java_awt_Component*, 46654
v1@@ 46644
pop 46639
FF 46588
java@@ 46585
disk 46582
sa@@ 46578
sResponse 46572
rep 46553
%call3 46551
px 46550
Origin 46534
evt 46527
ger 46500
offset@@ 46481
REG_@@ 46480
SE 46478
once 46477
Append@@ 46476
1L 46455
grid@@ 46455
Trace@@ 46429
_97@@ 46424
0xD@@ 46419
sec 46417
As 46414
containers 46410
clazz 46400
_111@@ 46398
Vec@@ 46394
func_@@ 46390
address@@ 46385
check_@@ 46379
front 46333
%bb5@@ 46305
Zone 46227
codec 46226
fr@@ 46225
cnt 46223
attribute@@ 46222
Bucket 46193
creating 46166
123 46155
rs@@ 46153
Section@@ 46151
Revision 46138
let@@ 46132
lhs 46122
fb@@ 46120
many 46063
Struct@@ 46060
Team 46041
folder 46039
0x62 45989
Could 45982
Drawable 45901
Authentication@@ 45899
trigger 45893
binding 45891
id_@@ 45865
contain 45833
derive 45828
Diff 45787
MAP 45785
board 45773
IF 45772
_110@@ 45772
96 45758
as_@@ 45751
Transfer@@ 45748
Off 45744
8_@@ 45740
Sound@@ 45734
plugins 45727
TC@@ 45723
year 45711
operations 45706
85 45703
Repository@@ 45697
ity@@ 45680
ImmutableList 45679
Identity@@ 45672
scroll@@ 45667
ary 45655
Pipeline@@ 45649
bound 45648
Mark@@ 45644
84 45639
SS 45634
stub 45624
charset 45623
getNum@@ 45601
key_@@ 45592
78 45587
CONTRACT 45580
Int64 45580
decode@@ 45574
QName 45565
00000 45555
imp@@ 45542
full@@ 45524
npc_@@ 45512
bin@@ 45493
STATUS_@@ 45487
ments 45482
Total 45481
log_@@ 45460
pow 45453
Information 45439
sent 45422
js 45420
Geometry 45416
Verify@@ 45410
Shadow@@ 45405
hex 45404
Decl@@ 45390
STATE 45382
0x76 45375
Unexpected 45374
elem 45364
@Polyglot_java_awt_Container_@@ 45352
cr 45347
pm 45344
PD@@ 45329
Animation 45327
ance@@ 45318
PP@@ 45297
cu@@ 45296
tracing 45289
abc 45288
unit@@ 45263
STR@@ 45262
Surface 45251
most 45237
Route 45225
ImGui 45200
attr@@ 45186
locationName 45179
kernel 45175
Switch@@ 45168
LOG@@ 45158
(%"class.@@ 45155
%cdv_ty.java_io_PrintStream*, 45153
Contents 45152
isNull 45147
camel 45130
FA@@ 45119
Chain@@ 45108
_1 45095
ops 45089
MetaData 45005
PA@@ 44991
Summary 44988
ay@@ 44983
m_n@@ 44970
Fi@@ 44948
Reserved 44938
_value 44903
Diff@@ 44884
skippy 44882
rule@@ 44880
Options@@ 44879
processor 44869
ser 44869
95 44868
da 44841
cerr 44837
Exp@@ 44831
phase 44828
low@@ 44818
slf4j 44810
act 44800
Boston 44783
Fprintf 44778
Please 44773
tool@@ 44747
AP_@@ 44724
rank 44721
free@@ 44717
COMP@@ 44716
entities 44716
%class.java_lang_Object*)*, 44714
input_@@ 44700
IL@@ 44699
v4 44696
Im@@ 44680
Peer 44677
0x68 44673
means 44671
Pattern@@ 44644
.. 44642
WI@@ 44634
words 44634
ons 44633
sort@@ 44627
target_@@ 44613
scan 44606
algorithm 44592
Period 44585
_32_@@ 44571
InterruptedException 44569
Trigger@@ 44553
Span 44534
(%class.javax_swing_JComponent*, 44522
swap 44518
comp 44498
LL@@ 44488
%class.jlang_runtime_Array** 44476
Encoder 44476
HTML@@ 44471
startsWith 44463
SDL_@@ 44440
im 44439
TARGET_@@ 44434
Angle 44422
XXX_unrecognized 44418
shader 44415
cloud@@ 44410
Scene@@ 44403
_101_32@@ 44391
72@@ 44371
95@@ 44349
might 44349
Sys@@ 44348
Real@@ 44323
MI 44322
Language 44307
Mesh@@ 44303
sec@@ 44292
MS 44291
END_@@ 44288
Safe@@ 44284
Topic@@ 44283
create_@@ 44268
W_@@ 44253
Pointer@@ 44225
Refresh@@ 44204
machine 44202
icon@@ 44198
m_ui@@ 44167
PC@@ 44118
initial 44070
py@@ 44069
met@@ 44068
transactions 44055
LoggerFactory 44040
INVALID_@@ 44031
Mesh 44028
az@@ 44020
texture@@ 44006
Axis 44001
OP 43991
Scan 43986
Opcode 43961
Modify@@ 43958
Descriptor@@ 43953
*) 43942
img@@ 43932
interfaces 43931
Bad@@ 43887
Normal 43875
con 43875
func@@ 43874
%class.java_util_@@ 43863
di 43855
Snapshot 43852
bp 43851
fire@@ 43820
Comparator 43816
ByName 43814
media 43810
\u 43808
u64 43762
negative 43760
inheritDoc 43720
93 43714
getDefault@@ 43714
TER@@ 43705
sin@@ 43690
Int32 43685
Email 43662
Fast@@ 43633
down@@ 43633
upper 43625
(%class.java_util_@@ 43596
Platform@@ 43577
(%class.java_awt_Window*, 43575
MarshalJSON 43541
TED 43536
Sort 43533
_104@@ 43500
Show 43486
head@@ 43476
cols 43464
Gui@@ 43427
(%class.java_lang_Object*)* 43423
inner@@ 43415
Marker 43414
TY 43406
Short@@ 43399
Skip@@ 43396
Identity 43368
ls@@ 43368
Before@@ 43363
sv@@ 43358
ED_@@ 43345
scheme 43344
maps 43329
i8 43313
AI@@ 43308
plugin@@ 43268
GR@@ 43265
Download@@ 43264
face 43260
atomic 43235
sym 43231
Units 43220
edge@@ 43207
plan@@ 43189
dom 43187
ml@@ 43178
proto3 43154
parse_@@ 43148
ACTION 43133
uint16_t 43133
cor@@ 43129
equalTo 43129
stage 43127
sum@@ 43109
isValid 43100
VE@@ 43097
%cast.new, 43078
slot@@ 43073
GetTypeId 43071
line_@@ 43051
Aura 43035
_98@@ 43035
Track 43031
0x22 43002
_get@@ 42996
long@@ 42980
number@@ 42971
ind@@ 42965
OF_@@ 42957
Argument@@ 42956
ai 42954
BOOST_CHECK 42950
Signal 42946
h_@@ 42940
PR@@ 42935
a1 42934
lat@@ 42926
stored 42914
ous 42904
Runner 42903
Pos@@ 42901
rec 42894
opt@@ 42893
car@@ 42891
FIELD 42887
quest 42882
Constraints 42876
Shard@@ 42869
sWith@@ 42860
arg0 42840
0xB@@ 42835
proc@@ 42826
buf@@ 42825
Camera@@ 42809
snapshot 42800
access@@ 42796
85@@ 42795
y1 42792
nd@@ 42779
localhost 42768
Tuple 42759
Runtime 42751
Boolean@@ 42745
02@@ 42739
Logf 42739
Password@@ 42732
did 42731
class_@@ 42723
NS 42720
fix@@ 42718
%bb8@@ 42710
sin 42708
0x5f 42704
play@@ 42701
end_@@ 42694
Aws 42653
FS 42633
place 42616
keep 42590
Criteria 42582
QWidget 42571
win@@ 42568
via 42560
wrapper 42560
word@@ 42548
are@@ 42542
Operator@@ 42539
watch 42536
%bb7@@ 42535
Put 42497
super@@ 42486
Contact@@ 42481
Camera 42465
_load_class()NEW_LINE 42446
Docker@@ 42427
Variant 42417
sys@@ 42399
Vector3 42391
entry@@ 42390
UINT 42385
USE_@@ 42357
position@@ 42354
ck@@ 42347
2014 42346
processing 42339
Ignore@@ 42336
Tracker 42330
dat@@ 42322
Mat@@ 42319
Destination 42308
checked 42305
addAll 42296
Variables 42295
started 42270
history 42254
Bucket@@ 42248
ld 42237
dv@@ 42236
aura 42211
git 42210
disclaimer 42200
Cursor@@ 42189
hello 42154
pack@@ 42136
execution 42121
_117@@ 42118
MB@@ 42109
thenReturn 42100
mar@@ 42085
LINE 42060
load_class()NEW_LINE 42049
ctxt 42039
ate_@@ 42015
member@@ 42014
standard 41995
reading 41985
Generated 41976
%bb7NEW_LINE 41968
btn@@ 41968
71 41963
89 41958
Sample 41947
step@@ 41947
Category@@ 41920
i32) 41916
minecraft 41912
bitmap 41892
queue@@ 41877
were 41877
fr 41844
Execute@@ 41843
Instances 41834
Commit 41833
delegate 41833
mer@@ 41819
site 41819
Center 41812
Initial@@ 41802
_count 41798
Lists 41797
QU@@ 41794
QVariant 41779
BOOST_FOREACH 41776
Secret@@ 41770
Threshold 41738
native@@ 41736
needs 41736
Comment@@ 41726
unique 41719
%class.java_lang_String*)*, 41715
sMap 41710
spec@@ 41710
Pending@@ 41700
73 41699
f0@@ 41692
case@@ 41677
book 41669
Encode@@ 41634
Observable 41628
Mail@@ 41603
63@@ 41601
Language@@ 41578
69 41575
numberOf@@ 41560
_2@@ 41554
Begin@@ 41551
topic 41544
crypto 41542
0x11 41516
_to_@@ 41511
high 41503
%bb4NEW_LINE 41492
06@@ 41481
VK_@@ 41479
fc 41478
Length@@ 41475
cd 41472
cap@@ 41463
Paint@@ 41461
meta@@ 41447
Machine@@ 41446
paint 41441
body@@ 41436
oprot 41427
Tool 41426
PROVIDED 41423
Health@@ 41414
ent_@@ 41387
Allow@@ 41382
Ma@@ 41374
backend 41367
Big@@ 41364
Received 41361
Decode 41354
exceptions 41349
Convert 41321
Zero 41319
reqHeaders 41295
flow@@ 41288
decl 41282
History 41276
States 41272
modules 41271
WITH 41261
Hint 41253
00" 41224
Detail@@ 41211
@__GC_malloc(i64) 41205
lar@@ 41199
sl@@ 41188
Indices 41174
fo@@ 41163
output_@@ 41145
DAMAGES 41141
Features 41139
Imp@@ 41136
alloc 41132
disabled 41130
0x06 41102
Exec 41100
3d@@ 41074
found@@ 41072
decode 41034
SHALL 41032
ft 41031
LIST 41006
_114@@ 40997
Redistributions 40978
sel@@ 40977
function@@ 40965
Append 40961
Pixel 40955
amp@@ 40954
Metrics@@ 40948
0xf@@ 40939
2d 40932
requested 40928
Draw 40925
bc 40916
Rep@@ 40893
spell@@ 40878
_101_114@@ 40865
Chan 40856
Sound 40856
LIABLE 40835
ident 40818
IllegalStateException 40795
_4@@ 40790
cat 40783
DEBUG_@@ 40773
Creature@@ 40767
EOF 40764
import@@ 40760
inv 40758
81 40754
_ptr 40750
Lo@@ 40738
opaqueNEW_LINE%interface.java_util_List 40727
again 40722
Private@@ 40718
master@@ 40712
Cancel@@ 40696
yym@@ 40684
encode@@ 40667
Addr@@ 40649
variant 40642
Endpoints 40631
Auto 40622
0xff@@ 40596
42@@ 40593
paint@@ 40585
_state 40573
%class.java_awt_Component* 40562
cre@@ 40558
LP@@ 40542
Lookup 40540
Src 40530
fieldNum 40512
Repo 40511
DAMAGE 40510
0x05 40484
login 40484
Addresses 40468
implemented 40461
\x@@ 40455
matcher 40453
m_caster 40452
Ext 40446
EXPRESS 40435
inside 40433
Ready 40423
value_@@ 40397
double@@ 40382
div 40369
part@@ 40362
92 40356
fixed 40356
Title@@ 40351
camera 40331
Metric 40323
pl 40312
location@@ 40300
crate 40298
material 40292
replace@@ 40292
graph@@ 40285
Post 40281
r0 40273
userId 40272
NE_@@ 40260
hidden 40260
below 40237
Animation@@ 40236
conn@@ 40234
ators 40233
6_@@ 40218
CB@@ 40201
containsKey 40191
ARISING 40182
i18n 40180
PS@@ 40175
U_@@ 40168
_108@@ 40157
ENT 40137
level@@ 40127
__pyx_@@ 40122
template@@ 40117
91 40111
ence@@ 40103
region@@ 40103
executor 40090
o_@@ 40090
0x79 40077
product 40073
targets 40069
Qu@@ 40064
those 40057
74 40055
Master 40053
Selected@@ 40051
PER@@ 40026
Tr@@ 40017
0x41 40005
Binding@@ 39990
del@@ 39986
Slot@@ 39978
Users 39977
visitor 39961
Cost 39956
Chunk 39955
0x33 39940
Ret 39924
Vars 39919
flag@@ 39913
Seconds 39906
Heap@@ 39903
members 39903
ADD 39890
110 39884
ARRAY 39878
WHETHER 39867
vol@@ 39867
120 39855
tableName 39855
sm 39844
rel@@ 39837
INDEX 39836
0xF@@ 39819
Off@@ 39812
scale@@ 39810
83@@ 39802
Fragment@@ 39795
Example 39788
scheduler 39780
sCount 39779
Connect 39776
Wait@@ 39774
INT@@ 39772
merge@@ 39771
Disk 39768
Team@@ 39766
Can 39751
Vk@@ 39725
Super@@ 39716
nio 39716
76 39714
prepare@@ 39711
0x07 39704
bundle 39704
est@@ 39685
Bit 39681
Functions 39648
WorldSession 39642
rest@@ 39632
panel 39612
pb@@ 39608
With 39600
clock 39599
avoid 39598
den@@ 39581
87 39576
module@@ 39576
111 39562
OTHERWISE 39551
metadata@@ 39548
Observer 39545
\' 39527
5f 39519
MAP_@@ 39499
sy@@ 39499
CE 39495
Username 39492
ax@@ 39489
suffix 39474
MODE 39470
cpu@@ 39467
states 39466
FLOAT 39454
triggered 39419
tuple 39416
Visible@@ 39415
queryParameters 39413
0xe@@ 39397
RIGHT 39390
Notification 39387
drop 39381
core@@ 39380
ze@@ 39374
cv@@ 39363
Tools 39362
resolve 39358
f32 39340
ED@@ 39337
Proto@@ 39331
LENGTH 39322
pet 39320
QList 39317
join@@ 39315
82 39314
Site@@ 39309
seq@@ 39308
Mask@@ 39300
waitFor@@ 39300
vp@@ 39293
Const@@ 39291
TORT 39281
destroy 39279
Extra@@ 39276
capacity 39210
cond 39200
Win@@ 39189
generic 39184
big 39171
Platform 39167
86 39166
encode 39146
Cast 39138
DS@@ 39113
Wallet@@ 39105
RD@@ 39095
beans 39095
loop@@ 39086
79 39081
Batch 39077
Compute@@ 39077
sess 39072
Fix@@ 39061
GU@@ 39052
partition 39041
frames 39033
nt 39029
ance 39018
Slice@@ 39015
@__getInterfaceMethod(i8* 38994
Radius 38976
StatusOK 38969
_9@@ 38953
image_@@ 38950
RGB 38935
event_@@ 38924
detail 38916
partition@@ 38908
className 38907
Par@@ 38906
Trigger 38892
ect@@ 38890
sleep 38887
dao 38878
_50@@ 38870
Attack@@ 38867
ker 38867
%cast.new 38863
CU@@ 38859
buff 38851
sending 38850
extractvalue 38848
03 38841
spi 38837
ets 38825
Ret@@ 38821
0x 38798
runtime_error 38787
pwalletMain 38786
ind 38777
Literal 38773
Oracle 38765
ec2 38764
serde 38761
parameter@@ 38759
Inputs 38758
simple@@ 38752
Requests 38732
DS 38705
Formatter 38702
retval 38697
cls 38686
Ops 38685
_class 38683
Public@@ 38678
Uint32 38664
initialized 38664
aa@@ 38659
ClassName 38654
Hit@@ 38648
records 38648
ctrl 38641
pr 38633
ok@@ 38630
NUM_@@ 38615
Head@@ 38613
filesystem 38607
watch@@ 38597
rm@@ 38595
DOM@@ 38593
Payment@@ 38579
starting 38575
setProperty 38570
gp@@ 38566
Tuple@@ 38561
Subscription@@ 38559
Visible 38545
ion@@ 38531
_102@@ 38525
daemon 38524
field_@@ 38523
getInt 38522
iter@@ 38522
Delta 38513
Theme 38511
Rights 38508
samples 38495
0.5f 38475
Proc@@ 38471
NON 38470
fin@@ 38452
every 38427
codes 38426
77 38414
Mockito 38414
%class.java_lang_Integer* 38398
src_@@ 38380
bad@@ 38379
Rectangle 38377
setVisible 38375
Running 38340
Counter@@ 38314
ue 38313
TU@@ 38302
Validation@@ 38302
EV@@ 38299
_r@@ 38297
QStringList 38282
cmp 38275
GP@@ 38271
Std@@ 38271
empty@@ 38261
ie 38261
TypeMeta 38222
marker 38217
Fill@@ 38205
nl 38205
STR 38176
PAR@@ 38170
@Polyglot_java_util_@@ 38162
ler@@ 38153
%class.java_lang_Integer*, 38147
ach@@ 38143
SIL@@ 38139
Selected 38131
'0' 38129
Family 38128
Patch@@ 38120
extract@@ 38113
Person@@ 38102
_C@@ 38089
\0' 38080
metric 38070
substr 38069
victim 38068
Axis@@ 38066
GoString 38055
INSTANCE 38049
fit 38037
Border@@ 38034
stdout 38032
LOGGER 38023
_cdv, 38021
home 38009
Bo@@ 38008
Pa@@ 37998
hostname 37997
Filters 37996
GetName 37994
edges 37994
old_@@ 37983
SYS_@@ 37975
compile 37969
Canvas 37956
deployment 37932
Skip 37926
our@@ 37924
war@@ 37924
less@@ 37906
eb@@ 37900
pixel@@ 37899
tm 37886
2000 37878
Required@@ 37871
RP@@ 37864
forward 37835
addresses 37833
128@@ 37827
min_@@ 37804
NORMAL 37803
Blob@@ 37791
Chunk@@ 37782
DTO 37781
Auth 37742
%class.java_io_PrintStream* 37734
UTF 37724
Pair@@ 37723
filters 37713
GUI@@ 37710
Force@@ 37705
43@@ 37698
ee 37686
ready 37685
string_@@ 37677
Req@@ 37669
VO@@ 37665
Rect@@ 37660
consumer 37638
0b@@ 37625
Stub 37612
Enable 37610
basic 37608
Conn@@ 37601
Handlers 37593
wtx 37593
tables 37582
110@@ 37573
cert 37571
0x50 37568
i32)* 37564
serialVersionUID 37552
ment_@@ 37549
role@@ 37546
yp@@ 37543
round 37539
ati@@ 37530
Io@@ 37511
ow@@ 37511
Alloc@@ 37499
Coord 37489
include@@ 37488
DOWN 37484
hy@@ 37480
fetch 37473
%bb6@@ 37465
mid 37459
sl 37453
Fail 37452
TypeName 37434
lex@@ 37434
MT@@ 37424
getContext 37423
js@@ 37416
ignored 37410
_in@@ 37406
NewRequest 37405
drop@@ 37399
dy@@ 37396
Driver@@ 37395
LD@@ 37384
tur@@ 37377
u16 37375
Only@@ 37371
%interface.java_util_List*, 37369
m1 37369
sq@@ 37368
notify@@ 37360
report@@ 37359
resolve@@ 37326
rr 37319
plan 37307
Prop 37301
pd@@ 37301
try@@ 37298
ut 37297
actor 37296
Classes 37295
TimeUnit 37281
df 37259
DateTime@@ 37253
Expected@@ 37242
mon@@ 37224
CONTRIBUTORS 37219
HANDLE 37218
Const 37206
Dump@@ 37206
unchecked 37196
second@@ 37194
equalsIgnoreCase 37192
period 37190
HE@@ 37174
representation 37174
header_ 37157
Person 37154
WARNING 37146
DIR 37142
0x09 37138
finished 37138
refresh@@ 37138
act@@ 37130
cost 37106
has_@@ 37106
latest 37102
ren@@ 37098
component@@ 37083
Zone@@ 37063
Nested@@ 37061
Setup 37060
Surface@@ 37060
ERR 37058
IM@@ 37052
finish 37049
cn@@ 37048
Ti@@ 37043
ISD 37040
Day 37017
strategy 37011
Tokens 37009
se_@@ 37007
jo@@ 37002
devices 36971
stat@@ 36967
checker 36955
eu 36950
safe 36943
Material@@ 36908
separator 36906
05@@ 36901
Rel@@ 36901
subscriptionId 36898
Normal@@ 36896
parseInt 36873
specify 36867
power 36846
Damage 36841
INTER@@ 36841
cy@@ 36840
size_@@ 36839
default_@@ 36837
Rate@@ 36833
runner 36830
Registry@@ 36812
ang@@ 36781
cli@@ 36779
Ver@@ 36775
Zero@@ 36772
printLine 36763
Two@@ 36760
title@@ 36757
Proc 36756
xxx_messageInfo_@@ 36739
ness 36727
gn@@ 36719
sign@@ 36714
Worker@@ 36695
final@@ 36690
dl@@ 36661
border 36656
Infos 36654
ces 36648
%exn@@ 36643
Temp 36640
Attach@@ 36627
TE_@@ 36623
10.@@ 36622
HttpServletRequest 36605
pfrom 36589
endpoints 36580
Retry@@ 36579
AST@@ 36574
Folder@@ 36569
CC 36565
Environment@@ 36553
suite 36552
buffers 36551
V2 36540
primary 36538
VT 36522
_53@@ 36521
ATE 36511
CH 36503
ix 36496
document@@ 36481
account@@ 36455
dl 36448
Sum 36438
fn@@ 36431
EXT 36425
of_@@ 36425
layout@@ 36422
indent 36421
Setting@@ 36412
m_creature 36408
registered 36386
tcp 36372
colors 36369
Inner@@ 36367
Cert@@ 36363
unused 36361
NP@@ 36332
300 36331
ir 36324
PV@@ 36323
geometry 36302
Bind 36301
LANG_@@ 36287
ln 36279
WriteString 36273
QLatin1String 36253
vp 36241
batch@@ 36224
Finished 36214
%class.sun_java2d_pipe_Region*, 36201
Ko@@ 36199
serviceName 36195
Algorithm 36192
CPU@@ 36186
Notify@@ 36182
Seq@@ 36181
DAO 36180
Particle@@ 36180
FIELD_@@ 36174
Logical@@ 36166
Commands 36165
acc@@ 36164
previous@@ 36162
Setup@@ 36147
4f 36118
regs 36118
wg 36101
cf 36095
due 36082
Pet@@ 36081
connections 36073
behavior 36070
150 36065
snap 36064
iprot 36063
ITEM 36056
load_@@ 36031
ning 36019
checks 36012
0x44 36005
painter 35996
u_@@ 35990
Library@@ 35988
node_@@ 35984
ali@@ 35982
RC@@ 35978
ber@@ 35967
Ag@@ 35965
0x54 35950
DR@@ 35950
Background@@ 35947
video@@ 35944
alloc@@ 35942
getParent 35929
UD@@ 35918
var_@@ 35909
necessary 35906
sOutput 35900
Channels 35894
HaveOccurred 35885
security@@ 35883
enc@@ 35880
Management@@ 35872
tolua_S 35871
2016 35867
lic@@ 35866
Convert@@ 35859
Graphics 35849
Cfg 35843
Prefix@@ 35837
MSG 35826
Atomic@@ 35819
Bi@@ 35813
vector@@ 35809
fetch@@ 35806
NI@@ 35799
_a 35799
Car@@ 35780
QMessageBox 35779
know 35776
hide 35770
mt 35769
ensure@@ 35767
64_@@ 35764
Sel@@ 35759
0xc@@ 35758
month 35754
__(%class.java_awt_Component*)NEW_LINENEW_LINEdeclare 35751
PI@@ 35750
Sleep 35734
currentTimeMillis 35725
mode@@ 35700
Cap@@ 35694
Html@@ 35694
Disable@@ 35689
shutdown 35688
Product 35687
savedInstanceState 35684
lookup@@ 35678
std@@ 35669
commit@@ 35667
GUI 35664
Images 35653
rect@@ 35647
0x34 35627
NEW_LINENEW_LINE 35610
Math@@ 35588
Work 35584
0xA@@ 35582
ML@@ 35580
getOperand 35567
%a0 35560
invalid@@ 35556
null@@ 35538
Floor 35536
SW@@ 35536
dummy 35534
.0@@ 35531
ti 35528
b1 35527
FC@@ 35524
\x01@@ 35523
restriction 35523
ack@@ 35521
m_h@@ 35520
own 35517
Calling 35503
512 35493
scanner 35492
rm 35487
ignore@@ 35478
Year 35472
Signature@@ 35471
forms 35464
Power 35463
v2@@ 35455
ef@@ 35452
SL@@ 35449
@@ 35436
operator@@ 35431
ash@@ 35430
VALUES 35417
dimension 35408
short@@ 35408
Console@@ 35405
env@@ 35403
BU@@ 35384
volatile 35380
Fill 35370
ATION 35359
Example@@ 35356
something 35355
Branch 35349
WithContext 35343
%bb8, 35341
best@@ 35331
geo@@ 35330
_player 35325
HTML 35324
94 35321
UnsupportedOperationException 35319
ters 35315
FO@@ 35314
ctx_ 35310
ia 35309
Schedule@@ 35305
%load.dv, 35297
Getter 35297
identity 35297
_cdv 35292
%load.dv 35265
116@@ 35265
ENT_@@ 35262
3.0 35259
Managed@@ 35255
%load.dv.method 35254
CString 35252
GA@@ 35226
CA 35216
0x29 35201
rpc 35194
Buffers 35189
Compiler 35189
%bb3@@ 35184
v0 35175
sFrom@@ 35154
tor 35151
external@@ 35143
chars 35136
transaction@@ 35136
wrap 35129
0x45 35128
vals 35124
series 35123
116 35120
Called 35115
family 35106
constraint 35102
HOLDERS 35096
ri 35067
encoded 35066
Ab@@ 35065
FB@@ 35065
PE@@ 35060
gre@@ 35050
bg 35049
Anim@@ 35047
DO 35037
0L 35023
peer@@ 35001
There 35000
TypeOf 34974
ure@@ 34963
Detail 34958
Amazon 34957
preparer 34957
Checker 34954
animation 34952
getHeight 34947
ite 34940
Self@@ 34939
want@@ 34936
Pr@@ 34934
Raw 34934
0x43 34925
03@@ 34923
Tasks 34923
Loaded 34922
Conditions 34919
sqrt 34912
0x35 34905
Term@@ 34905
CG@@ 34881
dump 34866
0x49 34860
regex 34851
m_spellInfo 34849
Stage@@ 34844
sb@@ 34841
AT 34827
DataSource 34827
Email@@ 34826
Interval@@ 34824
getWidth 34824
Scheduler 34803
analysis 34803
Since 34798
Bool@@ 34791
and_@@ 34790
regexp 34783
Capture@@ 34766
JLabel 34764
AR 34756
Operand 34755
large 34753
i64NEW_LINE 34744
cap 34735
Bottom 34734
well 34731
au@@ 34718
connect@@ 34703
Stage 34692
Items@@ 34690
r2 34688
Alpha 34684
nb@@ 34684
AF@@ 34682
corresponding 34681
Lib@@ 34678
wxString 34672
cleanup 34669
END@@ 34658
Head 34656
SV@@ 34656
STATUS 34651
Bound@@ 34644
tool 34635
Sign@@ 34633
ot@@ 34633
diag 34631
Declaration 34629
Tile 34617
MIN@@ 34603
mount 34602
fieldName 34596
Fail@@ 34588
apps 34584
Gateway@@ 34581
62@@ 34574
BigInteger 34563
ADD@@ 34559
LoadBalancer@@ 34552
i32)NEW_LINENEW_LINEdeclare 34533
den 34531
console 34506
Dest@@ 34485
dE@@ 34484
ResultSet 34477
Desc@@ 34470
INT_@@ 34470
MM 34468
threshold 34466
Destroy@@ 34457
Scanner 34446
rename 34428
PL@@ 34410
CS 34408
isIn@@ 34408
NLS 34390
0x42 34365
Defaults 34353
\a 34349
0f 34345
Lesser 34345
LinkedList 34333
Author 34331
getLast@@ 34317
chain@@ 34312
Replace@@ 34305
arr@@ 34296
CT_@@ 34286
Tri@@ 34278
Graphics@@ 34270
BL@@ 34265
buffer_@@ 34245
drawable 34244
Unique@@ 34241
mail 34236
Verify 34231
4j 34225
Times 34224
Alpha@@ 34204
GET@@ 34201
False 34194
0x1a 34186
0x53 34171
ItemStack 34170
att@@ 34165
setAttribute 34163
Damage@@ 34155
Sig@@ 34152
READ 34143
Book@@ 34140
bc@@ 34129
He@@ 34123
_103@@ 34117
pack 34116
1f@@ 34092
ell@@ 34072
0x38 34047
who 34034
sListCall 34033
Light 34031
shared@@ 34027
m_f@@ 34018
Asset@@ 34015
constants 34008
Click 34000
wxT 33999
ary@@ 33981
exit@@ 33979
Credentials 33973
%class.java_awt_Font*, 33954
s2@@ 33924
Aura@@ 33923
contains@@ 33921
NS_@@ 33916
@"Polyglot_@@ 33900
assign 33893
branch 33886
Allocator 33885
receiver 33880
local_unnamed_addrNEW_LINENEW_LINENEW_LINEdeclare 33860
exchange 33845
problem 33839
ht@@ 33829
it_@@ 33828
awsutil 33819
met 33798
no_@@ 33784
Price 33780
HRESULT 33765
y2 33756
matching 33742
ft@@ 33740
startTime 33740
Is 33737
mov@@ 33736
%class.java_lang_Object** 33734
Signal@@ 33733
VolumeSource 33726
180 33723
ew@@ 33719
Dest 33706
1b@@ 33704
allocate 33693
Binary 33684
bot 33681
cached@@ 33678
style@@ 33677
0x1f 33663
isEqualTo 33659
Generator@@ 33653
Ste@@ 33649
H_@@ 33647
release@@ 33646
desc@@ 33640
SE_@@ 33636
0x14 33631
m2 33631
Subject 33627
tid 33603
MB 33598
common@@ 33582
0x48 33579
Place 33577
opaqueNEW_LINE%class.java_io_ObjectInputStream 33575
Dev@@ 33564
Ctrl 33557
MP 33557
notification 33556
parsing 33548
any@@ 33538
PC 33535
wi@@ 33535
_119@@ 33531
"1 33526
verbose 33526
Selector@@ 33517
connected 33508
with_@@ 33480
modification 33479
DNS@@ 33474
king 33474
400 33473
CMD_@@ 33470
ban@@ 33470
unicode 33456
Com@@ 33452
cm@@ 33450
Cor@@ 33447
route@@ 33444
NS@@ 33438
%bb5, 33436
fail@@ 33436
0x15 33421
(%class.java_lang_Enum*)*, 33419
Z_@@ 33413
getUser@@ 33413
RPC@@ 33400
tor@@ 33397
%class.java_lang_String*) 33391
Flow 33377
tls 33363
Separator 33358
management 33358
FX@@ 33348
error_@@ 33348
getAll@@ 33342
Hook 33341
Sink 33336
hs 33336
calling 33332
minimum 33332
BC@@ 33329
CREATE 33323
a2 33306
shall 33306
socket@@ 33305
switch@@ 33301
Printer 33276
pipeline 33266
array_@@ 33265
notify 33246
)", 33239
monitor 33239
_111_114@@ 33226
0x00000000 33223
glm 33211
Statistics 33205
router 33202
addAction 33201
my_@@ 33201
make_@@ 33199
rotation 33192
HI@@ 33184
fx 33182
StringBuffer 33172
ab 33168
vin 33165
Inventory@@ 33163
uint@@ 33159
successful 33158
Certificate 33152
QVERIFY 33117
NULL_@@ 33116
Changes 33115
publish 33114
ActionEvent 33111
enum@@ 33104
Env@@ 33102
ae@@ 33093
mc 33093
Missing@@ 33091
Props 33090
SpellScript 33087
Cached@@ 33082
Statement@@ 33078
0x4 33054
Bin@@ 33046
requires 33043
ko@@ 33010
05 32999
pk@@ 32991
0x78 32988
StringRef 32986
Artifact@@ 32984
blob 32969
Helper@@ 32964
b2@@ 32956
nHeight 32949
BOOST_CHECK_EQUAL 32948
Throw@@ 32940
TM@@ 32935
Locator 32926
control@@ 32923
zz@@ 32923
%class.java_io_PrintStream*, 32912
Workflow@@ 32899
look 32883
getType@@ 32880
TS@@ 32870
Ap@@ 32864
ster@@ 32860
QAction 32859
rw 32858
syntax 32852
0x3 32849
orientation 32844
hdr 32823
audio 32801
dyn_cast 32801
filePath 32801
Threads 32794
enti@@ 32793
More 32792
isn 32781
jetbrains 32772
cos 32760
ForceSendFields 32753
existing@@ 32753
NullPointerException 32746
materials 32743
Prev@@ 32742
2)NEW_LINE 32741
bitcoin 32740
remaining 32725
ability 32717
DeepEqual 32713
VE 32711
INS_@@ 32704
Available@@ 32700
audio@@ 32685
caller 32677
x0 32677
com@@ 32665
ReadOnly 32654
Iterable 32649
small 32641
UPDATE 32639
UNKNOWN 32638
update_@@ 32638
versions 32618
pop@@ 32614
Width@@ 32611
0x7 32610
Authorization@@ 32606
ensure 32604
nodeName 32603
Android 32596
_105_110@@ 32586
CastSpell 32578
Monitor 32575
s3 32564
getMax@@ 32554
dump@@ 32547
%call8 32540
Bitmap@@ 32531
Actor 32523
beta 32521
112@@ 32516
Updated 32513
hit 32508
ErrorCode 32504
RED 32502
ra 32489
_48@@ 32479
0x8e 32474
abc_@@ 32471
sed 32444
constraints 32439
va 32427
ur 32424
MIN 32423
XM@@ 32421
UNIT_@@ 32406
foo@@ 32405
Hello 32403
NotFound 32403
option@@ 32397
We@@ 32391
WIDTH 32356
2013 32355
Enabled@@ 32345
WORD 32344
Qt@@ 32340
Must@@ 32339
MainWindow 32334
SH_@@ 32333
newInstance 32329
Render 32327
%call10@@ 32308
Checks 32305
windows 32304
Intn 32302
generic@@ 32301
mask@@ 32299
f1 32295
Toast 32286
name_@@ 32278
HasBeenSet 32250
len@@ 32247
gc@@ 32245
@Polyglot_java_lang_System_load_class()NEW_LINE 32207
getData@@ 32202
cancel@@ 32201
vout 32182
TLS 32180
ById 32171
xx 32171
0x13 32168
bd@@ 32165
ef 32162
0x000@@ 32148
getPath 32146
float32 32131
BIT 32115
pblock 32115
\u30@@ 32107
i2 32095
dynamic 32094
book@@ 32091
MAX_VALUE 32090
det@@ 32086
clang 32074
Backup@@ 32071
ner 32066
127 32061
SP 32057
-2 32056
Replication@@ 32051
_8@@ 32050
7" 32046
Sub 32013
0xa 32006
links 31984
MarshalTo 31982
MIN_@@ 31980
_10@@ 31977
big@@ 31977
itself 31971
heap 31966
ba 31961
Clock 31953
}NEW_LINE 31951
GetString 31950
logrus 31949
Mar@@ 31934
Geometry@@ 31930
ran@@ 31925
sis 31924
_107@@ 31917
mac@@ 31914
ion 31913
works 31909
ports 31898
Field1 31896
%icmp 31892
TYPEID_PLAYER 31880
inc@@ 31872
handlers 31868
Contact 31867
Pe@@ 31860
Receiver 31848
PS 31838
Wrap 31821
memory@@ 31819
perform 31815
JPanel 31813
coordinates 31801
_PRE@@ 31792
find_@@ 31784
summary 31777
worker 31771
%cast, 31762
Backend 31753
enter 31753
enough 31741
SET@@ 31736
unique@@ 31736
Help 31717
arg2 31711
US@@ 31706
WorldPacket 31700
WRITE 31699
Suffix 31698
Ba@@ 31683
sink 31678
Listeners 31676
Scalar@@ 31676
TER 31663
_83@@ 31663
CBlockIndex 31661
reference@@ 31657
Emit@@ 31652
V1 31650
plane 31650
Score@@ 31641
160 31634
GS@@ 31633
_index 31632
Android@@ 31624
n1 31619
VALUE_@@ 31615
", 31587
ARE 31580
Attrs 31573
jj@@ 31573
MESSAGE 31570
0xd@@ 31562
disable 31556
0.00@@ 31548
Failed@@ 31545
bg@@ 31541
refresh 31512
Other 31507
Worker 31498
TS_@@ 31486
dat 31473
Border 31468
Padding 31467
INTEGER 31460
06 31440
block_@@ 31439
ger@@ 31439
win 31439
DU@@ 31434
0x60 31432
Partition 31429
ables 31428
bitField0_ 31425
_57@@ 31424
nc 31418
after@@ 31409
_54@@ 31407
Rpc@@ 31401
TIME_@@ 31393
pan@@ 31391
d1 31383
operand 31379
sion@@ 31377
\x9@@ 31361
Side@@ 31358
@Polyglot_java_lang_System_class, 31353
Added 31349
de_@@ 31328
Prettify 31326
Same@@ 31322
fil@@ 31314
OBJECT 31308
Swap@@ 31307
UNI@@ 31298
%icmp, 31294
82@@ 31292
BEGIN 31278
Fn@@ 31278
Vm@@ 31271
decoder 31267
f64 31266
extra@@ 31264
Depth@@ 31256
FP@@ 31247
Parts 31231
errno 31229
schema@@ 31227
GC 31222
OF@@ 31218
print_@@ 31217
Card 31214
relative 31213
JsonProperty 31210
AuraEffect 31209
under@@ 31204
ath@@ 31202
ative 31199
numbers 31197
Started 31190
io_@@ 31189
eng@@ 31178
receive 31178
ies 31177
0x36 31172
addWidget 31168
known 31164
%fbinop@@ 31159
objectMap 31155
Video 31153
docker@@ 31151
openshift 31150
Util@@ 31148
0x2c 31147
Distance@@ 31141
Restore@@ 31141
RC 31139
SQ@@ 31139
*@@ 31137
media@@ 31137
z_@@ 31137
Opt 31136
ating@@ 31131
Met@@ 31127
ort@@ 31123
libc 31119
CT 31118
0x77 31102
Linear@@ 31092
Help@@ 31090
LIST_@@ 31090
made 31085
fails 31084
fldPath 31084
literal 31083
Prepare 31080
GT@@ 31066
Shutdown 31060
pg@@ 31060
contributors 31058
04 31057
Resolve@@ 31056
providers 31052
ENABLED 31047
Prop@@ 31046
TCP 31041
directly 31038
derived 31037
Components 31036
%class.sun_awt_AppContext*, 31032
rel 31011
Ratio 31010
0x21 31001
Failure@@ 30994
rb 30990
gr 30985
OC@@ 30974
disable@@ 30974
chan@@ 30967
Live@@ 30954
ro 30954
}*) 30942
actually 30939
El@@ 30934
EN_@@ 30932
%class.java_lang_String*)** 30927
%interface.java_util_List* 30921
Jo@@ 30921
Sum@@ 30918
Vi@@ 30910
UTC 30909
team@@ 30902
rit@@ 30896
coin 30881
mb 30877
make_pair 30876
DC@@ 30864
Dot@@ 30861
best 30861
d2 30855
Should@@ 30854
\x03@@ 30848
START_@@ 30846
0x0000@@ 30829
Touch@@ 30817
charAt 30817
sid 30817
é@@ 30815
WAR@@ 30802
\x8@@ 30798
rand@@ 30791
0x24 30788
ic_@@ 30781
complex 30776
ROM_LOAD 30767
Ev@@ 30763
Face 30763
Cancel 30749
disp@@ 30740
Maps 30734
Mark 30733
arch@@ 30729
This@@ 30726
uni@@ 30718
prop@@ 30717
103 30713
Fe@@ 30697
RPC 30695
high@@ 30689
SIG@@ 30688
dt@@ 30684
west 30683
dist@@ 30671
SIZE_@@ 30670
txt@@ 30669
operation@@ 30661
COM@@ 30659
waiting 30658
Timeout@@ 30651
105 30642
NotFoundException 30636
Bu@@ 30626
enter@@ 30626
base_@@ 30614
updates 30612
AWS 30606
Clause 30605
son@@ 30604
feature@@ 30592
mk@@ 30591
0)NEW_LINE 30589
bl@@ 30583
ili@@ 30583
%cast.obj@@ 30548
dynamic_cast 30534
Exit@@ 30528
int_@@ 30524
site@@ 30524
Db 30523
Nonnull 30522
ned@@ 30503
psi 30502
ry@@ 30502
WE@@ 30498
Extended@@ 30496
0x55 30490
tes 30484
CLASS 30472
deprecated 30470
Records 30469
FileSystem 30468
ron@@ 30468
rot@@ 30468
local_@@ 30465
UM@@ 30462
do_@@ 30455
cat@@ 30445
1d@@ 30441
Other@@ 30440
kubelet 30422
Flush 30421
AT_@@ 30406
getBytes 30398
gui@@ 30391
Hostname 30390
93@@ 30389
ta 30388
fg@@ 30383
0x16 30378
defaultValue 30377
price 30377
landingpad 30376
acc 30374
Notify 30373
ix@@ 30368
Compare@@ 30364
use_@@ 30362
TP@@ 30361
sound 30353
ClassLoader 30350
archive 30349
Iterator@@ 30341
Description@@ 30334
need@@ 30325
DE 30304
transform@@ 30303
2012 30301
Alert@@ 30301
diff@@ 30279
0x3a 30272
0x0b 30269
Autowired 30266
distribute 30265
Kind@@ 30264
ous@@ 30245
08 30239
compare@@ 30239
Hex 30237
Tables 30237
PI 30234
cur_@@ 30233
Colors 30222
FOR@@ 30211
b2 30210
Nil 30202
Creator 30200
logs 30196
Monitor@@ 30179
rx 30179
Soft@@ 30178
Microsoft 30174
calculate 30174
room 30159
PATH 30149
0x37 30143
Standard 30128
ES@@ 30125
precision 30099
High@@ 30093
trigger@@ 30086
Optional@@ 30084
async 30070
getAttribute 30063
Unknown@@ 30057
orig@@ 30051
mean 30046
0x39 30045
%class.java_io_PrintStream** 30044
TY_@@ 30038
и@@ 30037
fun@@ 30031
proto@@ 30011
%cdv_ty.java_io_PrintStream* 30001
%cdv_ty.java_io_PrintStream** 30001
cal 29999
Sprite 29997
gra@@ 29997
cer@@ 29993
CH_@@ 29990
kv 29989
SSL@@ 29988
overflow 29988
Equal@@ 29986
ie@@ 29986
glGet@@ 29985
Span@@ 29974
Under@@ 29972
world@@ 29971
sr 29970
LayoutParams 29967
Day@@ 29964
Side 29960
config_@@ 29960
AuraScript 29948
ea@@ 29942
health 29941
rd 29940
Dto 29928
%cdv_ty.java_io_PrintStream, 29927
\x02@@ 29927
Without@@ 29922
card 29918
rpc@@ 29904
packet@@ 29898
onCreate 29893
tl@@ 29893
mx@@ 29889
tion_@@ 29889
que@@ 29886
NonNull 29884
gov 29880
_47@@ 29872
Owner@@ 29870
_mm_@@ 29868
Rank 29867
ERS 29864
Ne@@ 29859
0x2a 29848
na 29843
Minute 29838
Ob@@ 29835
em@@ 29828
Calc@@ 29827
kl 29827
signed 29824
star@@ 29814
Note@@ 29807
invoke@@ 29804
issue 29802
Callable 29800
Phase@@ 29797
clientset 29795
BG_@@ 29791
EXPECT_@@ 29791
static@@ 29786
GetPlayer 29765
TreeNode 29765
sequence@@ 29761
logic 29758
Matches 29747
Customer@@ 29746
300@@ 29743
mockito 29741
_97_114@@ 29739
USER 29737
ack 29731
AU@@ 29714
Exchange 29709
object_@@ 29704
authentication 29702
Home 29701
Bound 29698
padding 29691
II@@ 29677
omp 29677
DB_@@ 29676
wso2 29667
FORMAT 29664
%class.java_io_PrintStream, 29663
Uri@@ 29661
500@@ 29660
answer 29655
Composite@@ 29652
Inject 29651
op_@@ 29644
enc 29639
ImageView 29638
trait 29634
0x23 29631
Structure 29627
entrySet 29622
Permissions 29617
tick 29615
Multiple@@ 29610
velocity 29609
qDebug 29606
STR_@@ 29605
Discovery@@ 29600
TableName 29595
pet@@ 29590
clients 29564
Quantity 29541
92@@ 29534
pathParameters 29534
AM_@@ 29527
ObjC@@ 29522
charge 29516
READ_@@ 29505
wchar_t 29501
Destination@@ 29497
Operations 29495
bus 29488
Si@@ 29487
Stderr 29482
dx@@ 29482
US 29476
Height@@ 29474
Buf@@ 29472
Sensor@@ 29471
Tmp@@ 29466
UL 29458
_re@@ 29457
Events@@ 29453
Repo@@ 29452
"*)*, 29451
nd 29450
ignite 29448
Man@@ 29447
Extract@@ 29444
w3 29436
Members 29435
EQ 29428
_list 29422
selection@@ 29418
pf@@ 29417
PLAYER_@@ 29400
Scalar 29393
dict 29391
getS@@ 29383
int16 29383
tf@@ 29383
ne 29381
Fee 29376
Compare 29370
fac@@ 29356
GROUP 29352
Processor@@ 29352
Cnt 29348
curr 29348
Bundle@@ 29336
day@@ 29336
Extensions 29335
calculate@@ 29332
init_@@ 29322
py 29321
Extra 29307
compareTo 29305
<boost/@@ 29303
lower@@ 29296
Gen 29290
RGB@@ 29290
GameObject 29279
declaration 29276
rp@@ 29274
steps 29267
Collector 29261
ATTR_@@ 29260
Conversion@@ 29259
sel 29249
Curve 29245
fHelp 29245
Targets 29244
SP_@@ 29237
Te@@ 29235
GLenum 29231
Align@@ 29226
els 29225
opaqueNEW_LINE%class.java_io_ObjectOutputStream 29201
BG@@ 29188
ht 29186
some@@ 29178
ere@@ 29175
ParseException 29169
%cast 29166
Poly@@ 29155
allocator 29154
OB@@ 29141
ING@@ 29138
REG@@ 29118
Special@@ 29112
%bb9@@ 29111
2000@@ 29099
Adapter@@ 29087
dm@@ 29080
Pack@@ 29077
StartTime 29053
alert 29051
lab@@ 29033
xy 29030
disk@@ 29025
MediaType 29018
predicate 29011
m_d@@ 29003
streams 28996
PRI@@ 28995
zip 28987
USER_@@ 28980
getP@@ 28979
ATION_@@ 28974
TR 28970
yyj@@ 28965
nt@@ 28962
%cdv_ty.java_util_@@ 28961
jackson 28958
msg_@@ 28944
Watch 28930
named 28924
Ch 28922
board@@ 28916
mux 28913
program@@ 28906
Got 28903
pv 28895
signal@@ 28894
1:@@ 28890
115 28884
credentials 28878
affiliates 28863
amazon 28863
throw@@ 28858
Preconditions 28845
Identifier@@ 28842
Calendar@@ 28841
spells 28840
son 28839
1,@@ 28836
du@@ 28834
#@@ 28826
CB 28826
ay 28799
trace@@ 28793
%cast.new)NEW_LINE 28791
Pri@@ 28791
9" 28789
Streams 28788
OBJECT_@@ 28785
Try 28781
margin 28781
Files@@ 28780
ends 28769
exception@@ 28762
art 28757
adding 28751
0x17 28749
ListView 28749
0x83 28748
AG@@ 28734
DATE 28731
single@@ 28728
pCreature 28723
widgets 28706
ImGui@@ 28704
Import 28703
coord 28699
U32 28698
_55@@ 28695
BR@@ 28693
keySet 28690
Don 28686
ASSERT_EQ 28679
0x7f 28668
.0, 28662
varint 28659
dlg 28643
atoi 28642
Capabilities 28638
FD 28630
QT_TRANSLATE_NOOP 28619
all_@@ 28611
NodeName 28599
mv 28593
Month 28581
tc@@ 28580
Deployment 28575
length@@ 28564
gmail 28563
LONG 28560
resolver 28555
HEADER 28553
toInt 28546
getData 28545
Accept 28538
checking 28531
load_class() 28517
assertNull 28511
ONLY 28509
Backend@@ 28505
Ho@@ 28505
Variant@@ 28505
Based@@ 28496
108 28489
Connections 28489
Immutable@@ 28482
ATE_@@ 28473
Validation 28470
DF@@ 28465
о@@ 28463
HttpServletResponse 28462
definitions 28459
aa 28457
WIN@@ 28455
Su@@ 28453
BufferedReader 28451
formats 28447
boot 28441
serialize 28440
Calls 28432
0x0c 28431
pPlayer 28420
Clip@@ 28417
LEN 28417
newValue 28417
parsed 28409
sq 28406
Switch 28402
lb@@ 28401
ValueOf 28395
baz 28393
ProtoMessage 28386
prior 28385
0.1 28374
getValue@@ 28364
Raster@@ 28345
<iostream> 28339
Shift 28335
Branch@@ 28334
LOAD_@@ 28333
_32_ 28332
LINE_@@ 28330
bl 28321
limit@@ 28320
Chars 28317
application@@ 28315
0x6b 28307
Versions 28307
Health 28300
players 28300
Ranges 28294
Low@@ 28291
numeric 28286
pThis 28258
"2" 28255
%interface.java_util_Set*, 28244
Complete@@ 28244
Arch@@ 28242
Frames 28229
Loc@@ 28228
UT@@ 28210
represents 28207
REF 28200
eval 28193
Loading 28188
Modified 28181
Connector 28171
%bb9NEW_LINE 28166
5.0 28154
Fifth 28147
bn@@ 28129
Cli@@ 28124
export@@ 28124
0x4c 28123
SC_@@ 28123
ha@@ 28122
prime 28122
width@@ 28122
inst@@ 28121
VO 28119
Configs 28116
clip@@ 28116
na@@ 28115
Heap 28114
Vertices 28109
Feed@@ 28108
0x8 28106
yyb@@ 28104
dr 28100
CHAR_@@ 28089
addComponent 28082
spellId 28082
PU@@ 28080
EA@@ 28079
anim@@ 28072
handled 28072
Audio 28069
2d@@ 28056
When@@ 28053
MENT 28050
Franklin 28045
LookupEntry 28043
ck 28043
0x88 28039
Indexes 28038
translate 28030
clean@@ 28023
SDValue 28021
SHA@@ 28015
rgb 28014
stri@@ 28012
_PO@@ 28005
round@@ 27994
114 27983
1.1 27981
0x19 27978
00000000@@ 27976
pending 27973
Pages 27970
Lua@@ 27969
@Polyglot_java_lang_System_out, 27964
5NEW_LINE 27963
iv 27958
Star@@ 27950
mer 27950
Sig 27947
applied 27944
Apply 27938
dn@@ 27937
restore 27933
tp@@ 27925
allocated 27919
retain 27914
112 27897
attach@@ 27888
sur@@ 27881
Net 27880
attempt 27865
ug@@ 27864
prevent 27861
Uuid 27858
ql 27857
bound@@ 27855
); 27854
direct 27854
Types@@ 27828
0x3f 27805
102 27802
digest 27800
ative@@ 27794
Seq 27788
Center@@ 27783
ech@@ 27783
DATA@@ 27779
IsValid 27772
quad@@ 27770
__Pyx_@@ 27763
f2 27749
Weapon@@ 27743
unlock 27726
е@@ 27726
Install@@ 27712
_56@@ 27710
EventHandler 27701
132@@ 27699
AE@@ 27690
Arn 27690
250 27689
02110-1301 27688
getProperty@@ 27685
Dummy@@ 27670
syn@@ 27657
Serial 27636
positive 27614
med@@ 27612
buttons 27600
GN@@ 27593
before@@ 27593
EE@@ 27586
COMMAND_@@ 27584
7NEW_LINE 27568
accompanying 27565
ble@@ 27561
sAnd@@ 27556
NodeId 27555
ze 27547
%a0)NEW_LINE 27542
izer 27534
malloc 27524
processed 27521
VERSION_@@ 27519
click 27511
ranges 27508
Logging@@ 27503
Concurrent@@ 27498
0x46 27483
coordinate 27483
chunk@@ 27481
0x3d 27478
permitted 27478
available@@ 27474
Wrapper@@ 27470
assign@@ 27466
%cast.erasure@@ 27464
Allowed 27461
tick@@ 27457
RUN 27449
instructions 27443
dynamic@@ 27439
@_char_arr_@@ 27434
ios 27427
her@@ 27419
000000 27414
Exp 27414
unable 27412
patch 27399
npc 27394
Mon@@ 27388
2017 27385
Accessor 27378
Mutable@@ 27370
ade 27369
alignment 27356
AsString 27354
Topic 27344
TEXT_@@ 27342
Impl@@ 27330
LEVEL 27329
MU@@ 27325
NOTE 27324
color_@@ 27324
Admin 27321
Completion@@ 27318
related 27312
%bb6NEW_LINE 27308
MVT 27300
package@@ 27300
DEVICE_@@ 27291
Visual@@ 27287
reserve 27284
Alias@@ 27278
S3@@ 27273
del 27271
opaqueNEW_LINE%class.java_util_@@ 27269
pd 27258
lists 27255
ari@@ 27244
_get_@@ 27231
%gep10@@ 27228
endpoint@@ 27224
\x04@@ 27218
ding 27206
Ge@@ 27205
с@@ 27203
0x20@@ 27201
references 27201
Cross@@ 27196
getX 27196
V2@@ 27180
wa@@ 27179
FLAG 27178
Patch 27174
Builder_ 27169
Relative@@ 27166
%bb3, 27163
Unix 27161
0x7c 27155
%bb10@@ 27150
outputs 27138
07 27132
Ca@@ 27121
Complex@@ 27120
Orientation 27116
mouse 27114
NUMBER 27110
0x1b 27107
first_@@ 27103
an_@@ 27102
registers 27098
q_@@ 27097
@Polyglot_java_awt_@@ 27093
provide 27090
indexes 27083
mes 27082
%call4 27081
Duration@@ 27081
play 27076
dispatch@@ 27069
Volumes 27067
Inline@@ 27065
jj_@@ 27063
toArray 27059
NT 27052
Priority@@ 27043
0x26 27042
RS@@ 27035
Benchmark@@ 27029
om 27029
happen 27027
ry 27024
Serial@@ 26999
Lower@@ 26988
0x4f 26984
manifest 26982
а@@ 26957
attack@@ 26956
Fault 26949
Cpu@@ 26946
Atom 26933
]@@ 26933
0x4e 26922
arg_@@ 26918
AND_@@ 26913
deal 26910
CharacterDatabase 26905
KeyEvent 26904
Millis 26904
YY@@ 26904
setColor 26896
Primitive@@ 26891
Mount@@ 26886
hit@@ 26876
domain@@ 26865
Place@@ 26864
around 26860
Dlg 26858
inject 26857
Cols 26854
COLUMN_@@ 26851
ang 26851
delta@@ 26849
stringLen 26848
AW@@ 26841
BLOCK 26839
Ms 26837
1c@@ 26836
_b@@ 26836
Templates 26831
updated@@ 26825
Dist 26819
FORMAT_@@ 26802
GetCurrent@@ 26801
/= 26796
Pet 26796
WaitFor@@ 26796
Disabled 26786
WAY 26777
Eval@@ 26776
sion 26775
Cookie 26769
"0@@ 26766
_84@@ 26765
zip@@ 26765
ARB 26764
prevout 26758
Login 26757
lp 26753
volumes 26749
power@@ 26747
Polygon 26745
isSet@@ 26743
patch@@ 26738
GE_@@ 26725
section@@ 26706
cached 26703
ical@@ 26703
0xfe 26702
_2 26694
Implementation 26689
Chan@@ 26684
Linked@@ 26684
Dataset 26676
UPDATE_@@ 26675
Loader@@ 26673
Dictionary 26671
Pipeline 26644
0x90 26639
sw 26639
gg@@ 26636
tra@@ 26634
bug 26625
handling 26625
m_current@@ 26621
ALL_@@ 26618
sList@@ 26618
zero@@ 26617
Values@@ 26612
not_@@ 26606
Kernel@@ 26605
Inst@@ 26601
Native 26600
setId 26591
TRACE 26587
Vehicle 26566
WS@@ 26558
6NEW_LINE 26555
pe 26553
e2 26547
GE 26546
policy@@ 26545
reg_@@ 26545
ostream 26542
Descriptors 26537
segment@@ 26530
Millisecond 26529
Include@@ 26528
COLOR 26526
granted 26525
reverse 26520
TED_@@ 26519
w_@@ 26506
lex 26504
getting 26503
newBuilder 26502
men@@ 26498
0x0f 26495
0x71 26495
%bb2NEW_LINE 26494
IsEmpty 26494
RM@@ 26493
note@@ 26493
_2, 26481
Structure@@ 26479
Visibility 26479
determine 26479
ats 26476
SPECIAL 26472
ical 26467
16_@@ 26463
Hour 26462
ics 26458
.0f 26457
General@@ 26452
owner@@ 26443
kube@@ 26442
arm@@ 26435
yyv@@ 26423
BLOCK_@@ 26415
mob 26415
chance 26413
Connector@@ 26412
pw@@ 26405
ByteString 26389
1.0@@ 26381
CE_@@ 26378
nextToken 26377
que 26365
%bb7, 26364
125 26362
dataset 26362
Router 26360
gets 26341
"1.@@ 26337
est 26331
STRICT 26330
inv@@ 26328
Balance 26324
CHECK@@ 26324
ven@@ 26320
Tok 26318
DIRECT 26316
Home@@ 26313
CV@@ 26312
Ip 26308
AN_@@ 26307
0x82 26301
Merge 26292
Align 26290
AP 26288
Skill@@ 26287
getY 26281
wh@@ 26264
@Polyglot_javax_swing_JComponent_@@ 26263
jar 26263
LL 26259
Comm@@ 26257
hbase 26252
0x2d 26248
Deprecated 26248
» 26243
pos_@@ 26236
segments 26229
WITH_@@ 26228
workspace 26228
0x47 26224
adjust@@ 26224
Artifact 26221
sources 26220
Consumer@@ 26209
fast@@ 26208
Console 26202
ViewGroup 26198
ap_@@ 26191
opt_ 26185
AR_@@ 26183
n2 26183
Opt@@ 26180
foreach 26180
ratio 26174
1-@@ 26169
ones 26169
i8*] 26168
STRING_@@ 26167
FUNCTION 26164
va@@ 26162
ave 26155
Google@@ 26148
BOOST_@@ 26146
INFO_@@ 26134
Sprite@@ 26132
_121@@ 26128
table_@@ 26126
Preferences 26124
EventType 26116
Sec@@ 26114
retry 26108
completed 26105
getColumn@@ 26105
Git@@ 26102
\x0@@ 26098
Custom 26087
_p0 26082
s* 26081
Azure@@ 26068
includes 26067
OPEN@@ 26062
views 26058
SpellInfo 26043
cert@@ 26041
oc 26033
5000 26030
。 26024
@Polyglot_java_lang_@@ 26022
0x27 26017
Present 26015
shadow@@ 26012
Security 26010
used@@ 26002
Stub@@ 25984
%bb8NEW_LINE 25980
%class.java_util_Vector*, 25975
stride 25974
intStringLen 25968
spawn@@ 25965
METHOD 25963
0x1c 25961
ME 25948
FLAGS 25947
_97_116@@ 25946
1a@@ 25943
ged 25941
Assignment@@ 25940
Audit@@ 25938
0x4b 25925
Once 25924
dot@@ 25923
echo 25920
uk 25919
virtual@@ 25914
MQ@@ 25905
Encryption@@ 25904
rb@@ 25900
lable@@ 25897
servers 25891
Codec@@ 25887
kapi 25884
inventory 25882
KE@@ 25874
greater 25872
V1@@ 25871
ADD_@@ 25863
Key_@@ 25861
bytes@@ 25857
todo 25853
ble 25848
0x1e 25838
Support@@ 25837
0xc0 25835
Inventory 25826
51@@ 25823
01@@ 25819
Tmp 25819
в@@ 25818
EP@@ 25808
sha@@ 25805
Specific@@ 25802
wd 25799
contained 25798
2.0f 25794
0x81 25771
Ignore 25770
IMAGE_@@ 25765
Effects 25761
ChangeListener 25754
Blob 25748
And 25740
_load_class() 25738
mul 25734
intValue 25721
Colour 25715
i64)*, 25708
GetSession 25707
lang@@ 25706
Xml 25705
thread_@@ 25705
metric@@ 25696
Currency@@ 25694
ard@@ 25685
const@@ 25683
´ 25683
bucket@@ 25681
Allowed@@ 25678
Physical@@ 25677
%bb10, 25674
drag@@ 25673
NumberOf@@ 25671
HEIGHT 25668
getLocal@@ 25660
pages 25658
blue 25654
tim@@ 25649
ServerResponse 25648
ListMeta 25642
Snap@@ 25639
char_@@ 25639
FR@@ 25638
OFFSET 25638
tex 25637
MD 25632
bean@@ 25632
c2@@ 25631
_111_110@@ 25630
DN@@ 25626
COLOR_@@ 25623
INSERT 25618
cookie 25601
JSONRPCError 25594
GetUInt32 25583
Finder 25582
Spring@@ 25580
Devices 25569
JS_@@ 25567
Focus 25562
Have@@ 25558
Cloud 25557
install@@ 25550
%cdv_ty.java_awt_@@ 25546
0x4d 25544
lr 25542
Timestamp@@ 25536
Red 25535
Executor@@ 25532
Missing 25530
pad@@ 25529
PROC 25521
for_@@ 25520
CONNECTION 25518
Dataset@@ 25512
int8 25498
X86 25497
Alloc 25492
Conf@@ 25491
Spawn@@ 25488
0x56 25487
Manifest 25479
RETURN 25479
109 25478
_h@@ 25476
listeners 25473
Contract 25462
NotTo 25462
LS@@ 25461
Utilities 25459
QModelIndex 25452
ssl 25449
EX_@@ 25448
COR@@ 25447
Utility 25440
comments 25433
GEN 25428
Sign 25425
BASE_@@ 25424
hex@@ 25410
criteria 25401
schedule@@ 25398
0x58 25387
OS_@@ 25385
Ui@@ 25377
dns 25373
pending@@ 25367
vt@@ 25364
%cdv_ty.java_io_@@ 25362
getFile@@ 25361
anything 25358
occurred 25356
pindex@@ 25356
0x86 25339
Small@@ 25335
Codes 25333
127@@ 25332
window_@@ 25331
Issue@@ 25329
creation 25307
vt 25306
Tick@@ 25301
NEXT 25300
_95@@ 25295
_61_ 25292
offsets 25292
SK@@ 25291
l2 25287
Basic 25286
Primary@@ 25285
Percent 25284
Jar@@ 25266
TAG_@@ 25253
0xa@@ 25241
121 25237
positions 25232
ru 25226
primary@@ 25225
assigned 25219
0x25 25218
Links 25212
certificate 25209
Coin@@ 25207
hu@@ 25201
Try@@ 25199
safe@@ 25199
sv 25199
allows 25197
ong@@ 25188
getNode 25186
isa 25178
These 25174
%cast.erasure 25170
Updates 25166
Spells 25162
queries 25160
Wrap@@ 25152
QgsPoint 25147
DL@@ 25134
Fr@@ 25129
PH@@ 25122
_1_@@ 25114
Clicked 25110
_114_101@@ 25110
typ@@ 25093
Static 25092
VE_@@ 25085
2001 25084
Delta@@ 25084
Dat@@ 25074
MESSAGE_@@ 25068
Two 25064
NewReader 25062
Sw@@ 25062
EXPECT_TRUE 25059
Matchers 25058
2011 25053
TABLE_@@ 25046
118 25044
NPC 25034
DataSource@@ 25031
ado 25029
pad 25028
ore 25027
defaults 25023
ComboBox 25022
%bb4NEW_LINENEW_LINEbb@@ 25015
Dom@@ 25014
Site 25008
Dependency@@ 25007
PORT_DIPSETTING 24993
SF 24989
CRE@@ 24986
cas 24984
WM_@@ 24982
ort 24980
layers 24977
BS@@ 24973
INVALID 24973
0x7d 24972
pn@@ 24964
Battle@@ 24957
Fetch 24954
_info 24953
authors 24952
sed@@ 24948
JButton 24947
soap_@@ 24946
ual@@ 24937
ARM 24933
IDC_@@ 24928
mail@@ 24927
RT_@@ 24924
CTransaction 24905
NA@@ 24901
database@@ 24899
configure 24891
green 24890
Known@@ 24888
TEST@@ 24879
CK@@ 24877
variable@@ 24871
saved 24867
upperType 24865
expr@@ 24854
frame_@@ 24854
ities 24852
NullFields 24849
asm 24846
getSub@@ 24846
ust@@ 24846
result_@@ 24845
ABLE 24844
configs 24841
AD 24838
getTime 24836
Lat@@ 24834
fast 24834
nr 24834
dim@@ 24832
inputStream 24830
comment@@ 24815
tar@@ 24813
ka@@ 24811
according 24808
busybox 24787
GO_@@ 24783
PsiElement 24778
agent@@ 24778
s.@@ 24776
mn@@ 24769
fname 24762
brief 24757
boo@@ 24753
border@@ 24752
Rotation 24750
fasterxml 24748
got@@ 24739
%class.java_io_@@ 24735
setVisibility 24723
Machine 24722
sWorld 24714
ru@@ 24711
ValueType 24700
Field2 24692
Attributes@@ 24690
m_s@@ 24689
Dependencies 24688
rp 24688
msgs 24683
Org@@ 24680
send_@@ 24677
AURA 24671
pay@@ 24666
sorted 24664
Origin@@ 24655
ZERO 24649
Coords 24647
Servlet@@ 24645
___@@ 24643
lab 24639
tmp_@@ 24638
REG 24637
cla@@ 24637
code_@@ 24637
index_@@ 24637
InputStream@@ 24636
Viewer 24631
0x57 24630
private@@ 24624
%a2, 24621
QCP@@ 24621
DeepCopyInto 24620
_116_32@@ 24620
evaluate 24613
PG@@ 24593
Collision@@ 24586
Destroy 24580
ES_@@ 24577
pairs 24577
Sources 24574
0x3b 24564
Mac@@ 24560
restart 24559
0x59 24558
%call17 24555
TION@@ 24553
face@@ 24551
s/@@ 24548
Resp 24543
etype 24540
cursor@@ 24536
OU@@ 24522
Visit@@ 24510
Digest 24501
unique_ptr 24495
occurs 24493
%class.java_lang_StringBuilder* 24492
zone@@ 24488
Sim@@ 24487
coords 24486
CODE_@@ 24479
0x2b 24475
Pay@@ 24468
Instruction@@ 24467
Click@@ 24463
icons 24461
restore@@ 24459
pkg@@ 24454
ero@@ 24453
tb 24448
2(@@ 24441
choose 24438
Lister 24425
p_1@@ 24420
txn 24415
Replica@@ 24414
2f@@ 24407
Original@@ 24405
east 24401
GetHash 24400
Summary@@ 24397
DX@@ 24393
Jump@@ 24390
sObjectMgr 24388
Locked 24385
Pin@@ 24384
09 24383
Otherwise 24381
getSize 24379
appropriate 24378
fe 24378
SB@@ 24377
Navigation@@ 24376
Quick@@ 24376
jobs 24372
locked 24372
DER 24367
Break@@ 24364
GroupName 24361
Used@@ 24361
0x7b 24360
\xc@@ 24351
TY@@ 24346
flush@@ 24345
GLint 24344
etcd 24342
method_@@ 24342
klog 24335
2010@@ 24333
ud 24331
MOD 24326
atom@@ 24326
getNext@@ 24318
automatically 24316
ElementType 24312
Back 24309
schedule 24308
must@@ 24305
Series 24304
ActionListener 24303
Mag@@ 24302
driver@@ 24301
400@@ 24291
CHAR 24290
thing 24290
CallOption 24287
DE_@@ 24286
Cost@@ 24271
npos 24270
\x06@@ 24268
Zip@@ 24267
Numeric@@ 24265
CV_@@ 24264
Keyboard@@ 24264
place@@ 24262
coll@@ 24247
0x1d 24240
V8@@ 24239
T2 24234
PORT_BIT 24226
cobra 24226
tv 24226
MOV@@ 24224
0x6a 24211
cmp@@ 24205
ssl@@ 24183
BufferSize 24167
dummy@@ 24160
pts 24154
0x3c 24152
LLVM@@ 24152
Pull@@ 24133
Preference@@ 24119
air@@ 24117
very 24115
initialize@@ 24114
Execution 24113
Curve@@ 24112
ard 24104
_97_108@@ 24100
INDEX_@@ 24096
LS 24094
side@@ 24092
Eq 24091
Archive@@ 24089
getKey@@ 24089
Uni@@ 24077
METHOD_@@ 24070
lv@@ 24068
2008 24065
LU@@ 24058
AUTHORS 24056
lar 24055
ame@@ 24054
recv 24051
against 24050
MustExec 24049
Partial@@ 24047
0xe0 24041
unversioned 24037
download 24030
i1)*, 24029
Mem 24024
Forward@@ 24023
NEW_LINE}NEW_LINENEW_LINEdeclare 24019
\xb@@ 24019
getStatus 24016
ALI@@ 24015
opaqueNEW_LINE%class.java_io_PrintStream 24015
ced@@ 24011
_65@@ 24007
ka 24005
org@@ 24005
xml_@@ 24001
ted_@@ 24000
%a@@ 23994
assignment 23991
finish@@ 23989
ath 23988
snap@@ 23985
Flush@@ 23982
Expand 23980
6f 23974
LOAD 23970
ContentType 23960
param_@@ 23959
HAVE_@@ 23957
_69@@ 23957
public@@ 23957
visible@@ 23955
retrieve 23944
Hex@@ 23941
SMSG_@@ 23938
inc 23931
mut@@ 23922
VR@@ 23921
ting@@ 23913
Renderer@@ 23903
nsw 23900
shard 23898
Gateway 23897
ToPlayer 23897
limits 23891
NOUN 23890
0x51 23889
quest@@ 23886
Dst@@ 23884
viewport 23883
pool@@ 23880
Fun@@ 23877
3f@@ 23873
FT@@ 23872
clicked 23866
ore@@ 23866
GROUP_@@ 23857
Marker@@ 23853
Uniform@@ 23849
action_@@ 23847
home@@ 23838
DIS@@ 23836
Debugf 23833
Ed@@ 23828
going 23827
ChatHandler 23814
ol 23811
(%class.java_awt_Container*)*, 23804
toLowerCase 23795
CSS@@ 23788
Enter 23769
Quota@@ 23767
BP@@ 23766
Cpp@@ 23762
Stdout 23762
Sec 23760
comm@@ 23757
anchor 23746
bi 23742
vch@@ 23741
Face@@ 23740
%call4@@ 23738
ata 23738
trunc 23729
Samples 23724
2014@@ 23723
GetId 23721
ListOptions 23721
Spacing 23719
product@@ 23716
WA@@ 23714
0xf0 23713
Typed@@ 23701
export 23700
sext 23698
stor@@ 23693
poly@@ 23685
330 23683
mc@@ 23677
ram@@ 23675
ping 23661
apiVersion 23654
keep@@ 23650
\xf@@ 23642
ally@@ 23639
QByteArray 23636
ori@@ 23619
л@@ 23616
PodSpec 23609
Old 23606
getSelected@@ 23603
upload@@ 23602
Catalog@@ 23600
javafx 23576
Browser@@ 23572
login@@ 23555
MR@@ 23526
live 23525
192 23508
API_@@ 23504
Accept@@ 23500
Closed 23491
bon@@ 23483
More@@ 23475
Removed 23475
Producer 23473
share 23457
0xb0 23447
really 23447
vc 23442
Push 23430
Payload@@ 23423
0x5d 23413
BACK@@ 23411
e+01 23404
T1 23401
np@@ 23386
VAL 23385
dto 23385
Sql 23382
Google 23380
flink 23376
0x84 23375
scalar 23373
ObjectType 23367
Quest 23367
expand@@ 23363
parallel 23360
ResourceList 23355
shape@@ 23350
SO_@@ 23346
Demo@@ 23345
Archive 23339
cont@@ 23333
Wallet 23331
0x5a 23328
Pixels 23324
Ph@@ 23313
ire@@ 23308
Sy@@ 23307
resolution 23305
_118@@ 23303
Cr@@ 23299
recorder 23299
middle 23295
fp@@ 23293
nested 23293
lua_@@ 23287
sizes 23287
art@@ 23285
Lifecycle@@ 23282
Cont@@ 23273
%class.java_awt_@@ 23269
products 23268
Enter@@ 23267
mgr 23261
ordered 23260
ImmutableMap 23251
0.9@@ 23250
%bb9, 23249
ov@@ 23235
microsoft 23233
Music@@ 23230
Buttons 23228
ListResult 23216
abs@@ 23208
cam@@ 23205
height@@ 23205
Seed 23203
Vehicle@@ 23203
depth@@ 23200
Prev 23199
Pressed 23197
space@@ 23190
doRequest 23189
pipe 23187
Analysis@@ 23183
TRI@@ 23180
Errno 23177
Sorted@@ 23176
CLog 23170
Success@@ 23169
PublicKey 23167
CharSequence 23162
Definitions 23161
call_@@ 23161
addItem 23158
Supported 23154
skill 23153
RS 23152
_g@@ 23149
URI@@ 23146
GetEntry 23143
true, 23142
WRITE_@@ 23140
Roles 23138
Locale@@ 23132
self@@ 23132
mit 23130
particular 23128
UTF8 23124
Dimension@@ 23121
War@@ 23121
Cre@@ 23119
presto 23116
Air@@ 23115
lb 23114
Bottom@@ 23111
OO@@ 23094
Running@@ 23089
gtk_@@ 23081
timer@@ 23075
serv@@ 23070
Vertical@@ 23067
three 23065
chat@@ 23058
Responder 23057
Details@@ 23041
0x4a 23038
__Ljava_awt_@@ 23037
Logger@@ 23031
ErrIntOverflow@@ 23025
ResourceName 23025
Literal@@ 23023
med 23018
sound@@ 23010
_c 23009
0x8b 23003
NEW 23001
Best@@ 22996
0x87 22995
Plugins 22993
focus 22993
ActionBar 22991
g_p@@ 22991
Compute 22988
· 22988
CheckBox 22987
\xd@@ 22982
Mi@@ 22979
unitTarget 22977
progress@@ 22974
ub 22964
revision 22963
span@@ 22962
117 22961
0x3e 22956
256@@ 22954
faces 22953
clean 22949
pin@@ 22948
Simple 22947
k1 22945
Ident 22943
TypeInfo 22937
l1 22934
\xa@@ 22929
%cast)NEW_LINE 22928
122 22923
2010 22920
Counts 22918
Delay@@ 22912
ling@@ 22911
Sent 22902
nor 22901
104 22898
0x5c 22894
MENT_@@ 22891
@throwUnwindException(i8*) 22890
2c@@ 22889
CX@@ 22884
%call15 22881
getNode@@ 22881
@Polyglot_java_awt_Window_@@ 22879
digits 22879
130 22876
Positions 22875
palette 22874
MouseEvent 22873
0x92 22870
extensionRegistry 22870
ling 22853
mix@@ 22852
ql@@ 22843
Supplier 22839
vol 22837
html@@ 22828
s, 22826
validator 22820
httptest 22818
__pyx_v_@@ 22812
conf@@ 22809
scroll 22807
Transition@@ 22806
view_@@ 22806
allocation 22803
Black@@ 22796
Full 22795
TCP@@ 22795
encoder 22789
@Polyglot_java_lang_String_@@ 22788
fu@@ 22784
-0@@ 22778
ord@@ 22776
Pipe 22775
starts 22774
Prepare@@ 22773
Informer 22767
regions 22765
71@@ 22761
EQUAL 22760
ln@@ 22756
NODE_@@ 22753
Compat 22747
shell 22746
Deleted 22738
Receive@@ 22738
Lib 22734
Series@@ 22732
FAIL 22730
testutil 22729
capture 22727
ized 22719
_x 22715
Board 22713
GD@@ 22713
HasPrefix 22703
т@@ 22703
successfully 22698
bottom@@ 22693
interface@@ 22685
0xf7 22682
prometheus 22678
buck 22672
vec3 22669
Photo@@ 22668
Ser@@ 22665
0xbf 22656
University 22656
0x7a 22655
decimal 22645
Emitter 22639
%class.Production@@ 22636
Persistent@@ 22635
0x98 22634
TextField 22618
\2@@ 22615
__I@@ 22614
land 22613
0x85 22609
Room@@ 22607
center@@ 22607
Indicator 22604
Schedule 22602
setOn@@ 22596
Sky@@ 22559
duplicate 22547
Updated@@ 22545
SC 22544
fabs 22542
THREAD_@@ 22539
pw 22539
Behavior 22531
WS_@@ 22528
Broker@@ 22527
SVG@@ 22526
Scheduler@@ 22525
NV@@ 22524
oracle 22523
Hook@@ 22517
card@@ 22517
Authentication 22513
googleads 22510
UNIT 22505
RegisterType 22504
multi 22503
sock 22500
Nav@@ 22498
EventListener 22492
Ta@@ 22490
Velocity 22485
download@@ 22484
Quad@@ 22479
800 22476
Fit@@ 22475
shard@@ 22471
EMPTY 22464
copied 22461
S_OK 22455
vehicle 22453
Slider 22449
bs@@ 22449
sprite 22448
Limits 22447
SUCH 22444
RU@@ 22442
StringValue 22439
swap@@ 22434
prototype 22430
BY_@@ 22428
AddArg 22426
INCIDENTAL 22425
TLS@@ 22425
IsIn@@ 22424
longer 22424
AM 22414
Information@@ 22413
TARGET 22409
getActivity 22408
INDIRECT 22406
PreparedStatement 22405
0xda 22402
ErrIntOverflowGenerated 22391
SN@@ 22387
Bot@@ 22383
k2 22383
PK@@ 22379
condition@@ 22379
_is@@ 22374
bindings 22370
Cy@@ 22366
Ignite@@ 22366
serial 22361
FEATURE_@@ 22352
3)NEW_LINE 22348
Margin 22348
hook 22347
balance 22345
Course@@ 22343
Framework 22342
unknownFields 22337
EVEN 22332
Hint@@ 22332
0x89 22331
catalog 22330
seen 22329
OnClickListener 22324
AS_@@ 22315
debug_@@ 22314
hosts 22309
total_@@ 22309
SK_@@ 22304
Kernel 22301
Recorder 22299
fx@@ 22297
0x8a 22292
i32NEW_LINE 22292
fit@@ 22290
lucene 22288
np 22287
Attachment 22286
LOSS 22285
SO 22279
boss_@@ 22272
swift 22261
Construct 22260
str_@@ 22252
GLuint 22251
repo@@ 22249
{} 22248
dom@@ 22245
0xa0 22242
Manifest@@ 22242
alpha@@ 22242
yy_@@ 22238
ice 22234
cy 22233
helpers 22231
Compile@@ 22229
pressed 22222
Speed@@ 22213
roles 22209
%cdv_ty.java_lang_@@ 22208
_set@@ 22205
%"op@@ 22204
ame 22199
shift@@ 22193
calc@@ 22185
Pref@@ 22182
Pop@@ 22176
inf 22176
ga@@ 22175
desired 22169
together 22168
_p 22160
Dist@@ 22159
0x94 22154
WIN32 22154
OFF 22153
FileSystem@@ 22152
TypeId 22151
%load.out, 22137
stable 22137
ScheduleEvent 22135
Dr@@ 22128
0F 22127
perform@@ 22126
DM@@ 22122
Reply@@ 22119
turn 22107
strcpy 22104
0xc5 22100
testCase 22099
i8*NEW_LINE 22097
Projects@@ 22093
Encoding@@ 22089
ade@@ 22089
ORDER 22081
BasePath 22077
0xc3 22076
TEX@@ 22073
reproduce 22072
fla@@ 22069
Assignment 22067
Forward 22067
pitch 22064
Redistribution 22061
CURRENT_@@ 22058
MPI_@@ 22057
mount@@ 22056
struct@@ 22050
0x5b 22048
Preferred@@ 22047
ning@@ 22044
GetSpellInfo 22038
Transition 22033
IR 22030
Hy@@ 22028
Players 22027
Publish@@ 22027
dp@@ 22023
seg@@ 22019
floor 22014
el_@@ 22011
spaces 22007
Calculate@@ 22006
0x7e 22001
FileInfo 22000
o1 21996
0xaa 21979
DV@@ 21978
general 21977
pin 21976
outside 21961
\xe@@ 21956
prepare 21956
%bb3 21955
SERVICES 21947
Sur@@ 21946
opaqueNEW_LINE%class.java_awt_@@ 21944
0xbb 21941
ize@@ 21940
fully 21935
%bb11NEW_LINE 21932
setMax@@ 21931
origin@@ 21923
extract 21917
fre@@ 21917
ick@@ 21914
bli@@ 21911
\x05@@ 21910
_97_110@@ 21893
authorization 21891
Edges 21887
Popup@@ 21879
MenuItem@@ 21878
guard 21877
0x96 21870
10" 21866
0x99 21855
templates 21855
Smart@@ 21839
QUEST_@@ 21836
Modifier@@ 21834
%class.java_awt_Container*, 21830
II 21828
ARG 21825
union 21818
nTime 21814
wrap@@ 21812
inbounds 21807
Bank@@ 21806
listen 21805
kit 21804
BSD 21799
Writable 21797
ki@@ 21796
0x9f 21794
aur@@ 21792
ek@@ 21791
configured 21787
0x93 21784
0xdb 21781
hold 21778
Parameters@@ 21777
publish@@ 21776
Movement@@ 21775
5)NEW_LINE 21773
(%class.java_awt_Container*)* 21768
%load.length 21764
ServiceResponse 21762
READ@@ 21757
resp@@ 21755
NF@@ 21754
getState 21753
slots 21753
Connected 21752
scripts 21749
dimensions 21746
Scheduled@@ 21738
disconnect 21737
examples 21737
119 21723
Mut@@ 21723
tal@@ 21721
д@@ 21718
area@@ 21717
Dict 21716
medi@@ 21716
Watcher 21715
0xfc 21713
matched 21712
geom 21706
sk 21704
Views 21703
pub@@ 21702
0xe2 21694
ENTRY 21694
ron 21693
@createUnwindException(i8*) 21689
locations 21688
Canvas@@ 21681
QColor 21675
mag@@ 21675
mx 21673
Creation@@ 21671
ga 21669
%call11@@ 21666
@Polyglot_java_awt_Component_is@@ 21666
_48_@@ 21662
scriptPubKey 21657
converter 21656
cs_@@ 21656
Cause 21652
buf_@@ 21643
Cleanup 21640
Choice 21638
DP@@ 21637
blob@@ 21632
sell 21632
Preview@@ 21630
Registration@@ 21619
EncSendContainerState 21617
Accessible@@ 21615
DOUBLE 21614
Overflow 21612
callback@@ 21612
correctly 21608
CLI@@ 21606
idx@@ 21604
Subscription 21601
0xFFFF 21599
_map 21599
mo 21597
elem@@ 21595
kv@@ 21594
tar 21588
portal 21587
Launch@@ 21586
Claim@@ 21585
tv@@ 21583
projects 21581
xfer 21571
temp_@@ 21570
_PAR@@ 21559
%call13@@ 21557
install 21548
0xfd 21545
DoCast 21541
\param 21534
Pan@@ 21528
setType 21526
Generate 21525
required@@ 21523
44NEW_LINE 21522
HEAD 21516
2009 21515
CONSEQUENTIAL 21514
endsWith 21514
cast_@@ 21511
1/@@ 21509
contentType 21507
Future@@ 21502
REQUIRE 21497
Ty@@ 21497
profile@@ 21492
DEFINE_@@ 21490
GT_@@ 21486
transfer 21483
ending 21474
Share@@ 21472
norm 21471
admin@@ 21459
Refresh 21458
increment 21449
counts 21444
fo 21443
const_@@ 21442
mid@@ 21441
sal@@ 21435
0xcd 21427
Controls 21419
@Polyglot_java_awt_Container_get@@ 21418
Attachment@@ 21417
HAS_@@ 21416
opaqueNEW_LINE%class.java_util_Locale 21406
browser 21399
lit 21388
%indvars.iv@@ 21382
FOR_@@ 21382
milliseconds 21382
Corporation 21377
Foo@@ 21376
TRI_@@ 21375
clip 21374
setChecked 21374
xs 21362
Symbols 21361
ib@@ 21361
temporary 21354
м@@ 21354
word_@@ 21347
0xa8 21345
Weather@@ 21343
structs 21342
Answer 21341
Kube@@ 21341
onClick 21334
0xfb 21332
CLIENT_@@ 21330
ram 21327
1\@@ 21322
Exchange@@ 21302
ce_@@ 21293
representing 21291
0xde 21286
1D@@ 21285
launch@@ 21284
APP@@ 21276
checkpoint 21275
Remote 21271
Cv@@ 21269
Media 21268
result1 21264
nn@@ 21262
ws@@ 21262
normal@@ 21261
RESULT 21259
Preference 21258
plus 21249
roll 21249
won 21248
ISO@@ 21246
candidate 21241
ch_@@ 21238
7f 21232
ViewHolder 21229
google_protobuf 21229
stuff 21225
0xcc 21223
implement 21223
qt 21222
0xcf 21220
CREATE_@@ 21218
ter_@@ 21215
wr@@ 21214
\00@@ 21213
basic@@ 21208
%call, 21205
SERVICE 21204
Vol@@ 21200
Uint64 21199
MASK_@@ 21192
Changed@@ 21190
remo@@ 21182
mContext 21177
RUnlock 21175
Children@@ 21174
expand 21170
Need@@ 21169
was@@ 21169
permit 21164
LIMIT 21161
CN@@ 21160
TIVE 21160
en_@@ 21157
0x91 21156
Globals 21156
take@@ 21151
MEN@@ 21148
Protos 21147
XY 21144
0xef 21143
POSSIBILITY 21143
sError 21143
0x95 21142
Extent 21142
fm 21140
FUNC 21139
Av@@ 21137
_78@@ 21134
ADVISED 21132
_58_32_ 21126
bp@@ 21116
converted 21115
Dim@@ 21110
constexpr 21110
loaded@@ 21107
IO_@@ 21106
Js@@ 21103
underlying 21103
%class.javax_accessibility_AccessibleContext*, 21099
Round@@ 21098
sf@@ 21096
PROFITS 21095
gfx 21094
Sym 21090
explicit 21090
addTo@@ 21089
AWS@@ 21073
button_@@ 21064
getF@@ 21064
Specification 21063
GOODS 21062
better 21062
subscriptions 21062
Micro@@ 21059
refs 21059
getResources 21057
_PER@@ 21054
Refs 21050
opensource 21047
Hit 21044
ual 21044
Cert 21043
Upgrade@@ 21041
0xd3 21030
%class.javax_swing_J@@ 21026
bag 21026
RT 21025
spawn 21023
Servers 21021
created@@ 21020
0xbd 21017
0x0d 21014
ATTRIBUTE_@@ 21009
gest@@ 21003
Dirty 21002
_n@@ 20999
Nodes@@ 20995
AND@@ 20994
days 20985
lua 20985
gateway 20984
netty 20982
SWT 20981
solution 20975
const_cast 20973
BUSINESS 20972
Assign@@ 20971
userAgent 20962
_51_@@ 20961
NODE 20960
6e@@ 20957
0xba 20954
collection@@ 20952
statistics 20952
setUp 20950
stages 20949
Unsigned@@ 20947
namespaces 20947
bf@@ 20946
persons 20946
PartialEq 20940
Saved@@ 20927
Pic@@ 20926
Final@@ 20915
TIC@@ 20908
bonus 20906
iti@@ 20904
Crypto@@ 20903
ByteArrayOutputStream 20901
imp 20898
nuw 20895
0.f 20894
0xad 20887
)"NEW_LINE 20884
[3 20884
o2 20883
break@@ 20879
EMPTY_@@ 20877
_77@@ 20870
Cal@@ 20869
Elem@@ 20869
keyword 20865
the_@@ 20864
rg@@ 20862
DecSendContainerState 20858
symbol@@ 20858
Force 20851
Len@@ 20848
0,@@ 20843
Primitive 20843
parsed@@ 20843
cuda4.1 20841
LED 20838
dm 20835
PORT 20834
claim 20830
Exist@@ 20829
TER_@@ 20829
ned 20826
Ê@@ 20825
THEORY 20824
BUTTON_@@ 20823
HOWEVER 20818
Signed@@ 20817
sch@@ 20817
redis 20812
Ass@@ 20810
0x97 20806
NEGLIGENCE 20806
FieldName 20805
Fil@@ 20804
GPL 20804
Charset 20800
ture 20792
rune 20791
0x8c 20790
%a1)NEW_LINE 20781
2015@@ 20774
CNode 20773
Event_@@ 20770
ect 20769
realm 20769
Streaming@@ 20768
106 20764
qui@@ 20762
CAUSED 20760
cer 20756
HA@@ 20748
p0 20746
percent 20744
gwt 20734
0xdf 20731
OM@@ 20731
mr 20729
micro@@ 20727
DISCLAIMED 20726
NV 20725
Go 20723
XXX 20721
m_str@@ 20720
Windows@@ 20711
shader@@ 20710
discovery 20708
0xd0 20706
tran@@ 20705
weights 20703
Auras 20690
Listener__Ljava_awt_event_@@ 20690
SUBSTITUTE 20689
unix 20689
Keyword 20683
_101_110@@ 20680
whose 20679
129 20675
Arr 20675
Fac@@ 20675
Plane 20672
illegal 20669
major 20667
MOVE_@@ 20666
QIcon 20662
Skill 20660
value1 20658
Act@@ 20651
rng 20648
aff@@ 20647
140 20646
Money 20646
bot@@ 20646
wor@@ 20640
INTERRUPTION 20635
Marshal@@ 20633
FieldType 20631
Compound@@ 20630
contact@@ 20626
transition 20626
Theme@@ 20624
bla@@ 20624
limitation 20623
0x9a 20622
BUFFER 20616
Review@@ 20616
getN@@ 20615
Invocation@@ 20613
b3@@ 20611
の@@ 20609
outer 20607
INTO 20602
ory@@ 20602
ong 20600
stage@@ 20599
OPT_@@ 20598
touch@@ 20596
ty_@@ 20590
%class.java_util_Locale*, 20583
Ssl@@ 20583
a0@@ 20582
Undo@@ 20580
count_@@ 20577
64" 20574
Vo@@ 20574
TX@@ 20572
Px@@ 20570
PROCUREMENT 20569
EXEMPLARY 20564
Using 20564
levels 20561
AX@@ 20560
WS 20555
OAuth@@ 20545
0xfa 20536
Hive@@ 20533
Topology@@ 20532
_58@@ 20532
ring@@ 20532
TYPE@@ 20530
hand 20524
Tra@@ 20521
__LINE__ 20521
INPUT_@@ 20518
DNS 20517
%class.java_lang_Long*, 20516
marks 20513
WX@@ 20510
Initializer 20508
CONFIG 20507
Sym@@ 20504
uri@@ 20502
0xb1 20501
_101_100@@ 20501
Synchron@@ 20500
SCRIPT_@@ 20499
0xb8 20490
RLock 20489
utf8 20489
Operand@@ 20488
Zoom@@ 20488
menu_@@ 20485
leaf 20481
serialization 20478
ONE 20477
bukkit 20476
collections 20464
hereby 20463
Pending 20461
leave 20460
ENABLE 20457
aws@@ 20456
keysFor@@ 20451
ber 20450
strprintf 20450
box_@@ 20449
ginkgo 20446
TIONS 20444
rea@@ 20438
handler@@ 20437
Fo@@ 20436
DESC 20433
ick 20433
destination@@ 20431
Walk@@ 20427
immediately 20424
jp 20422
topic@@ 20421
0xb6 20418
Second@@ 20416
512@@ 20414
tracker 20408
NaN 20407
Hierarchy@@ 20401
Whether 20401
anim 20400
ENABLE_@@ 20399
0xc7 20390
234@@ 20390
2e@@ 20385
rev 20381
_52@@ 20380
FLAGS_@@ 20379
%bb10NEW_LINE 20378
NUM 20378
Bus@@ 20370
phone 20365
Docs 20361
Am@@ 20359
0xc8 20357
148 20356
SQL_@@ 20355
oid 20354
ADDR 20344
SED 20344
0xf8 20343
mit@@ 20338
_120@@ 20332
configure@@ 20332
MULTI@@ 20331
cep@@ 20329
0xd8 20325
MCFG_@@ 20312
lot 20312
0x8f 20308
Expect@@ 20308
obtaining 20302
raft 20301
Rec 20299
php 20297
Implicit@@ 20296
CL 20293
Finish@@ 20293
Iter@@ 20288
CScript 20285
GH@@ 20274
Float64 20271
%call14@@ 20267
portions 20267
bra@@ 20264
11NEW_LINE 20259
Processing@@ 20259
Javadoc 20258
chat 20258
v4@@ 20251
ray 20248
submit@@ 20245
escape 20244
Cl@@ 20242
isChecked 20240
0xae 20236
124 20236
32" 20232
0x9e 20231
Ok@@ 20220
4.0 20217
ErrInvalidLengthGenerated 20215
0xe7 20212
Overlay@@ 20205
Kill@@ 20200
TrimSpace 20194
%call5 20192
af 20192
executed 20192
0x5e 20189
lat 20187
setTitle 20187
boundary 20186
serial@@ 20186
unless 20185
preparing 20184
FileInputStream 20180
SG@@ 20177
effIndex 20176
FAC@@ 20167
0xed 20165
0xb@@ 20164
MAN@@ 20162
0xa2 20158
Legacy@@ 20154
BUFFER_@@ 20149
EXCEPTION 20147
lua_State 20147
4)NEW_LINE 20146
ng 20142
bson 20140
_101_115@@ 20134
provides 20132
Layers 20126
sheet 20124
ide 20118
0xc4 20117
COMMAND 20112
\1\@@ 20112
Maximum 20111
GetValue 20109
Solution@@ 20108
DEF_STR 20105
Stmt@@ 20105
bcx 20104
Shift@@ 20097
::@@ 20096
incorrect 20096
snapshot@@ 20090
initialization 20087
Daemon@@ 20086
state_@@ 20086
DONE 20083
san@@ 20083
setCurrent@@ 20078
\brief 20077
PARSER 20076
interceptor 20074
149@@ 20072
0xee 20066
9: 20066
hint 20066
Outer@@ 20061
Dispatcher 20060
BASE 20058
generation 20058
Tip 20057
click@@ 20056
_67@@ 20052
e2@@ 20052
Frequency 20048
NET_@@ 20048
character@@ 20045
arrays 20044
effects 20043
takes 20043
white 20038
0xca 20034
a0 20030
parseFrom 20030
tive@@ 20027
mem_@@ 20023
activity@@ 20015
annotation@@ 20015
person@@ 20014
Blend@@ 20013
Generic 20011
coins 20011
arm 20009
__(%class.@@ 20004
whom 20003
ErrInvalidLength@@ 20001
0xc6 19997
clause 19997
score@@ 19993
handles 19987
expressions 19986
0xc2 19985
vel 19983
AUTO@@ 19974
Room 19973
mis@@ 19972
RunWith 19971
0xa9 19970
DeepCopy 19967
tl 19966
subscriptionID 19964
Keys@@ 19959
return_@@ 19957
BOX 19955
Dst 19955
SecurityGroup@@ 19955
ino@@ 19947
sensor 19938
CALL 19936
Measure@@ 19926
Abs@@ 19925
Unary@@ 19917
prefix@@ 19912
0xe4 19910
Outputs 19910
Gl@@ 19909
eff@@ 19906
0xe3 19903
\x0f@@ 19903
rust 19902
FILE@@ 19901
relation 19900
getParent@@ 19898
ph 19898
Chart@@ 19894
Hot@@ 19894
0xb5 19888
deserialize 19887
Ready@@ 19877
Allocation@@ 19873
Pin 19872
asset 19872
Fire@@ 19870
Resources@@ 19867
126 19866
ity_@@ 19864
background@@ 19859
ull@@ 19858
Representation 19857
%bb12, 19851
true@@ 19850
describe@@ 19848
ARM@@ 19831
Serialize 19831
IT@@ 19829
TIME@@ 19829
LOCAL 19825
readnone 19820
JS 19819
0xd1 19814
retVal 19814
sky@@ 19814
ErrorMessage 19813
Etcd@@ 19811
assume 19811
Itoa 19810
Offsets 19810
Summon@@ 19810
fixed@@ 19809
0xab 19807
113 19800
whole 19800
Vector2 19799
sun@@ 19799
repeated 19796
sis@@ 19794
emp@@ 19793
Indent 19791
Principal 19790
Bad 19789
locator 19780
0x9c 19779
Each 19778
ARN 19774
cells 19772
ster 19772
REST 19760
1e-@@ 19758
execution@@ 19755
clo@@ 19753
graphic@@ 19748
sManager 19745
Sizes 19744
v20@@ 19743
0xa4 19735
%bb5NEW_LINENEW_LINEbb5: 19734
IP_@@ 19730
fv 19730
CENTER 19727
Low 19724
Sparse@@ 19722
ObjectGuid 19719
c0@@ 19713
give 19711
1234 19710
Typ@@ 19707
ves 19707
half 19703
didn 19701
SimpleDateFormat 19700
Using@@ 19695
11" 19694
Resize@@ 19694
amp 19688
Gu@@ 19681
ring 19679
Daemon 19677
TIMEOUT 19672
eval@@ 19669
0xd5 19665
0xce 19664
absolute 19664
receive@@ 19661
beam 19650
%call12@@ 19647
0.5@@ 19646
ErrorList 19646
lambda 19645
reduce 19644
ved 19644
counter@@ 19641
abort 19638
White@@ 19637
VP@@ 19635
Gener@@ 19634
Completed 19627
camera@@ 19623
0xbe 19621
COL@@ 19621
0xf9 19618
CreatureScript 19616
_51@@ 19616
setDefault@@ 19613
Loot@@ 19611
binary@@ 19603
lin 19602
0xdc 19599
SHIFT 19597
0xdd 19595
Decimal 19595
nextInt 19595
(%class.java_awt_@@ 19593
XmlElement 19592
gp 19592
Diagnostic@@ 19591
NodeList 19591
calendar 19589
outError 19588
warnings 19587
201 19584
Tick 19583
ationException 19582
please 19581
EB@@ 19579
0xa7 19574
devtools 19574
%bb12@@ 19566
getLocation 19566
0xc1 19565
ACK 19563
DisplayName 19562
Minimum 19562
scene@@ 19562
Deserializer 19559
seek 19559
0xa1 19557
CAP@@ 19557
history@@ 19557
accept@@ 19554
checkNotNull 19553
dst_@@ 19548
i8@@ 19545
0xa3 19542
ship@@ 19537
sts 19537
Uid 19534
push_@@ 19531
0xb4 19529
Revision@@ 19528
STA@@ 19528
sor@@ 19527
translation 19527
Secure@@ 19526
"** 19524
hour 19523
Actual@@ 19520
%class.java_util_Date*, 19517
0x0e 19512
0xf3 19512
%cast.erasure)NEW_LINE 19508
_PREFIX 19507
IsNull 19503
linear 19502
struct_@@ 19502
0xb2 19501
ng@@ 19498
secret@@ 19498
CLAIM 19496
git@@ 19495
supplied 19495
attach 19490
0x5 19488
keyspace 19487
Recur@@ 19486
collect@@ 19486
Angle@@ 19485
Loading@@ 19483
Rank@@ 19476
0xa6 19473
St 19471
nn 19471
located 19468
traits 19467
Analyzer 19465
expression@@ 19464
Plot@@ 19463
urand 19460
me_@@ 19459
%bb5 19458
Routing@@ 19457
ory 19457
ations@@ 19454
setString 19452
Plus 19446
much 19446
jboss 19442
0xf5 19440
0xf6 19436
Stride 19435
iface 19435
Disp@@ 19434
Constructor@@ 19433
pow@@ 19428
Allow 19420
0xaf 19419
modifier 19417
formatter 19412
por@@ 19403
_path 19402
Exceptions 19397
erName 19396
UT_@@ 19395
scaled 19395
@@ 19395
Street 19394
CL_@@ 19389
0xac 19384
JSONArray 19384
[2 19383
GT 19382
0xb9 19380
%bb11@@ 19377
Assertions 19377
0xb3 19376
dead 19376
0xa5 19375
Mac 19372
locks 19368
115@@ 19362
accessor 19362
nbsp 19362
tcp@@ 19361
qName 19360
Tester 19358
0xd7 19356
Oper@@ 19354
meter 19353
vtx 19353
%call10 19352
0xc9 19343
additional@@ 19341
lay@@ 19340
gi 19338
desired@@ 19335
0xb7 19333
0x9d 19327
vari@@ 19327
Words 19326
EFFECT_@@ 19321
LC@@ 19320
deployment@@ 19320
ah@@ 19317
0xe8 19313
OutputStream@@ 19309
vk@@ 19308
apiserver 19306
Conversion 19305
sto@@ 19305
getTest@@ 19300
replicas 19298
0xFF@@ 19296
AD_@@ 19289
Slots 19289
((@@ 19287
txid 19286
setIcon 19282
0xea 19278
fee 19275
TC_LOG_ERROR 19273
0x7f0200@@ 19266
%indvars.ivNEW_LINE 19265
0xec 19262
IsEnabled 19262
0xf1 19260
RHS 19260
Datum 19257
kill 19256
HandlerFunc 19255
TRACE_@@ 19255
GetData 19251
mismatch 19249
0xd4 19243
getResource@@ 19243
Horizontal@@ 19238
ify 19238
VER 19237
Unmarshal@@ 19235
outer@@ 19235
primitive 19235
132 19231
bridge 19227
getAbsolutePath 19224
upload 19224
Chat 19223
0x6 19218
_68@@ 19218
ert 19217
0xf4 19216
aux 19214
responding 19207
OL@@ 19204
Base64 19202
XML_@@ 19202
\x80@@ 19201
cross@@ 19200
backup 19199
saved@@ 19198
%bb2NEW_LINENEW_LINEbb@@ 19196
ail@@ 19195
db_@@ 19195
Found@@ 19191
floating 19191
left_@@ 19191
pause 19188
VAR@@ 19185
currency 19183
he 19179
fire 19175
URLParams 19170
difference 19168
GetField@@ 19166
corev1 19166
#undef 19161
hamcrest 19157
OUT@@ 19150
isDebugEnabled 19150
hazelcast 19147
TimeZone 19141
0x8d 19138
Comments 19133
Single 19131
fl 19119
%gep8@@ 19118
accounts 19115
dependencies 19109
nb 19107
VIEW_@@ 19105
Workspace@@ 19103
_v@@ 19103
Entities 19102
References 19102
sGetCall 19094
Inf@@ 19091
Setter 19091
retry@@ 19089
qual@@ 19086
Preparer 19083
LayoutInflater 19082
Blocks@@ 19081
dex@@ 19079
global_@@ 19076
	@@ 19074
OGR@@ 19072
Linux 19071
incoming 19069
_116_104@@ 19068
Authorization 19067
getLength 19064
getDescription 19058
%class.java_security_AccessControlContext*, 19052
minutes 19051
%bb5NEW_LINENEW_LINEbb4: 19047
ints 19047
issues 19039
copy_@@ 19036
ial@@ 19035
seek@@ 19035
XY@@ 19031
107 19030
Ver 19027
Relation@@ 19022
0xd2 19019
Updater 19016
getObject@@ 19016
144 19015
supports 19015
colour 19011
Er@@ 19009
BasicBlock 19005
Bounds@@ 18995
Pt 18994
resolved 18994
SI 18992
construct 18990
Sensor 18988
0xcb 18987
0xeb 18985
Reporter 18985
sol@@ 18983
pow2 18982
Queries 18981
0xbc 18980
0xe6 18980
0x9b 18978
STE@@ 18978
nu@@ 18975
Vec3 18967
Guard 18965
compile@@ 18964
vert@@ 18964
TestUtils 18963
ImVec2 18961
%bb11, 18960
indicates 18954
CHAR@@ 18953
VirtualFile 18947
(%class.java_lang_Enum*, 18943
Mappings 18942
quote 18942
Cleanup@@ 18937
Azure 18935
NewDecoder 18934
mesh@@ 18934
Campaign@@ 18931
Capability 18929
>@@ 18928
choice 18925
serializer 18925
Callbacks 18923
term@@ 18921
Popup 18920
0xf2 18915
tree_@@ 18915
iteration 18914
\x00\x00@@ 18912
sp_@@ 18912
Checked 18908
Imm@@ 18903
sim 18893
ssi@@ 18893
Rt@@ 18886
TC 18882
Logs 18881
publisher 18872
Period@@ 18868
Respond 18867
fa 18867
Question@@ 18863
TryDecodeAsNil 18862
Download 18859
Mount 18859
Created@@ 18858
Indexed@@ 18858
speed@@ 18854
0xd9 18853
#elif 18851
Test_@@ 18851
panel@@ 18848
status_@@ 18848
cobj 18845
COPYING 18843
Previous@@ 18843
trying 18840
0xe9 18838
SM@@ 18838
not, 18835
es_@@ 18833
curve 18828
cassandra 18825
Choice@@ 18823
Strategy@@ 18822
Increment 18820
PF@@ 18816
NONINFRINGEMENT 18812
Upper@@ 18810
getElement@@ 18809
pointers 18807
MON@@ 18802
now@@ 18799
upper@@ 18799
FS_@@ 18795
RecyclerView 18789
supported@@ 18789
alt@@ 18788
python 18787
gid 18784
destroy@@ 18783
util@@ 18779
GroupVersion 18777
Red@@ 18768
Fix 18765
Organization@@ 18765
Robot@@ 18763
Alert 18758
pix@@ 18755
sorted@@ 18754
psi@@ 18753
sublicense 18752
ide@@ 18743
ATOR 18735
Transformer 18735
mission 18735
attack 18734
city 18733
parent_@@ 18732
par 18727
translate@@ 18726
Done@@ 18724
Export 18724
mov 18721
chart 18714
DAY 18707
zext 18705
Trans 18703
DEALINGS 18702
value2 18701
EditText 18698
Dead@@ 18697
Coord@@ 18694
delay@@ 18686
Asset 18682
Price@@ 18681
i8NEW_LINE@@ 18677
arch 18673
furnished 18673
substantial 18672
pData 18671
distance@@ 18667
ave@@ 18666
_101_ 18664
Tcp@@ 18663
1.5 18653
ial 18650
Workspace 18647
IP_ACTIVE_LOW 18644
tele@@ 18644
produc@@ 18642
Levels 18641
sOn@@ 18638
Trade@@ 18637
ding@@ 18637
ha 18635
user_@@ 18635
_error 18633
ell 18633
NoMethod 18628
OutOf@@ 18628
Eigen 18627
IF_@@ 18627
FX_@@ 18626
cin 18626
FILTER 18624
_b 18623
getParameter 18621
m_c@@ 18621
\x1d@@ 18611
readInt 18609
gb@@ 18604
ss_@@ 18603
message_@@ 18602
yes 18602
comm 18600
asio 18593
h1 18593
2012@@ 18592
Fa@@ 18584
Leaf@@ 18583
stopped 18583
KV@@ 18582
Results@@ 18579
Interfaces 18578
0-@@ 18577
cg 18575
kb@@ 18574
Detector 18569
Decoder@@ 18568
Delivery@@ 18568
t0 18566
Detach@@ 18565
LES 18565
css 18565
getBoolean 18563
Aggregate@@ 18562
0xe5 18561
Expand@@ 18560
typeName 18559
lable 18557
delete_@@ 18554
0xd6 18552
StringUtil 18551
i1)* 18550
Bulk@@ 18549
peers 18546
SSL 18544
^= 18543
Arc 18533
Management 18533
PUT 18533
TEST_F 18533
quad 18527
Fixture 18525
Adds 18523
Generated@@ 18523
MetaData@@ 18523
density 18522
checksum 18521
testGet@@ 18518
;@@ 18515
lc 18513
Gossip@@ 18512
LT 18512
_80@@ 18510
dispose 18510
bur@@ 18509
6)NEW_LINE 18504
pkt 18504
effect@@ 18501
InputService@@ 18500
Mapper@@ 18498
190 18495
Cond 18495
Idx@@ 18495
Ingress@@ 18495
LEVEL_@@ 18491
Hor@@ 18486
rectangle 18486
black 18485
Coordinate@@ 18483
\3@@ 18482
getFirst@@ 18480
Kubelet@@ 18479
Weight@@ 18473
getConfig 18467
scratch 18467
6f@@ 18466
Poll@@ 18465
Union 18464
prev_@@ 18457
gson 18455
UserId 18454
frequency 18453
ner@@ 18453
Binder 18452
_40@@ 18449
popr 18447
TOP 18446
INIT 18445
LED_@@ 18443
mission@@ 18443
errorMessage 18442
mCurrent@@ 18441
der_@@ 18439
Mozilla 18434
DEF 18429
rd@@ 18429
main_@@ 18427
Additional@@ 18426
ord 18424
Man 18422
_Fields 18422
Contains@@ 18421
sg 18420
Analysis 18418
exact 18417
MAC@@ 18416
REMOVE 18415
Redis@@ 18415
userName 18414
controls 18409
propertyName 18409
Translator 18407
snprintf 18405
SS_@@ 18402
Aggregation@@ 18401
Dimensions 18401
controller@@ 18399
191 18396
building 18393
Wnd 18387
h2 18385
Book 18383
CS_@@ 18383
TB@@ 18382
ged@@ 18382
Swap 18379
(%class.javax_swing_J@@ 18378
pipeline@@ 18378
sing 18376
prefs 18375
Seg@@ 18373
parser@@ 18372
Encoded@@ 18371
PSendSysMessage 18370
Field3 18369
3: 18364
Lazy@@ 18364
category@@ 18361
zoom 18360
0xe1 18358
getStart@@ 18358
spellProto 18356
fb 18353
Override@@ 18352
txin 18352
feed 18350
00000@@ 18348
QPointF 18347
Throw 18347
0x10@@ 18331
race 18330
Pick@@ 18327
right_@@ 18327
symbols 18326
\x1f@@ 18323
VISIBLE 18322
locales 18321
voidNEW_LINE}NEW_LINENEW_LINENEW_LINENEW_LINEdeclare 18316
Algorithm@@ 18314
RusotoError 18313
MEMBER 18312
fold 18307
Shadow 18304
command_@@ 18298
reporter 18297
digit 18296
Cookie@@ 18294
OrBuilder 18293
DECLARE_@@ 18291
Drop 18290
%class.java_lang_Class*NEW_LINE@@ 18289
Pi@@ 18287
Where 18286
Lang@@ 18284
bank 18283
opt_@@ 18282
%class.jlang_runtime_Array 18278
Bindings 18277
Builtin@@ 18277
Midi@@ 18276
LINE@@ 18275
MBB 18274
weight@@ 18273
Subject@@ 18272
groupId 18262
ffi 18257
ool 18257
Dispatch@@ 18256
named@@ 18256
one_@@ 18253
oa@@ 18252
Transactions 18249
promote 18246
backup@@ 18240
Assign 18237
hide@@ 18237
invocation 18237
Services@@ 18235
RGBA 18231
addChild 18229
influxql 18225
Cam@@ 18224
SY@@ 18222
Possible@@ 18220
Animator 18219
SERVICE_@@ 18219
handle_@@ 18219
await 18217
ofs 18209
4f@@ 18207
у@@ 18205
probably 18201
FIN@@ 18200
BIT@@ 18198
Fixed 18195
DRA@@ 18194
han@@ 18194
marked 18191
InetAddress 18184
)) 18183
Bg@@ 18181
Tele@@ 18180
Compiler@@ 18177
preIndex 18177
¸ 18172
getTarget@@ 18171
subscription 18166
Bag 18165
Dependency 18165
lbl@@ 18165
RequestMapping 18157
ool@@ 18157
tg 18157
%call3, 18154
static_@@ 18145
CGUI@@ 18140
mk_@@ 18140
ot 18137
ImmutableSet 18135
Redirect@@ 18135
OFF@@ 18131
Tur@@ 18131
ao@@ 18127
3b@@ 18122
Syn@@ 18121
\xf0@@ 18119
Talk 18118
pa 18118
concat 18115
VIEW 18114
xyz 18111
2013@@ 18110
Jobs 18110
deterministic 18105
white@@ 18103
Credential@@ 18101
s3@@ 18101
ACTIVE 18099
vn@@ 18098
£ 18095
sing@@ 18094
ties 18093
× 18093
cel@@ 18091
ia@@ 18091
linux 18090
Ð@@ 18090
Anchor 18087
NT@@ 18086
ScriptedAI 18086
getR@@ 18084
lua@@ 18084
__Ljava_lang_String_2@@ 18083
poll 18082
%call2@@ 18077
lv 18077
Int32@@ 18075
mon 18074
phase@@ 18074
dn 18071
166 18070
SLOT_@@ 18068
MustParse 18067
getSimpleName 18065
170 18064
requirements 18064
Enumeration 18062
cont 18062
isValid@@ 18058
mac 18058
Polygon@@ 18057
ConfigFile 18055
ax 18055
@Polyglot_javax_swing_J@@ 18050
Scroll 18043
Currency 18042
VAR 18040
Dev 18035
za 18032
rf 18031
Week@@ 18030
ently 18029
%exn)NEW_LINE 18028
everything 18026
139 18022
mapped 18020
ByteArray@@ 18018
unit_@@ 18018
Invoke 18017
ki 18012
rotate 18012
Predicate@@ 18011
_str 18011
m_data 18010
_Get@@ 18008
Wire@@ 18007
Browser 18005
actionPerformed 18004
Locations 18003
etcd@@ 18001
qgs@@ 17999
Rx@@ 17996
PORT_@@ 17995
sup@@ 17991
MOD_@@ 17989
i1)NEW_LINENEW_LINEdeclare 17989
xy@@ 17989
п@@ 17988
Reason@@ 17986
interrupt 17983
_class_@@ 17979
Hyper@@ 17974
m_pDS 17973
JsonObject 17971
204 17970
submit 17962
minimum@@ 17958
raw_@@ 17950
Direction@@ 17947
_id@@ 17944
PChar 17943
Resolution 17943
addActionListener 17942
integration 17942
ADDRESS 17935
hd@@ 17934
ping@@ 17922
FileOutputStream 17918
JOIN 17914
Examples 17909
RANGE 17908
theta 17906
(%class.java_io_PrintStream* 17903
164 17903
CI 17902
closure 17902
%class.java_io_OutputStream*, 17899
ServletException 17894
SPACE 17890
FIRST 17886
NEW_@@ 17885
ja@@ 17884
%class.java_lang_Object**NEW_LINE 17883
assert_@@ 17880
ely 17879
0xf 17878
cl_@@ 17878
BeforeEach 17877
Wrong 17876
operands 17874
2006 17873
131 17872
help@@ 17870
shadow 17869
sx 17867
jsonValue 17865
Wave@@ 17863
coun@@ 17863
Projection 17862
OUTPUT 17859
dk@@ 17858
Collectors 17849
Br@@ 17848
Mime@@ 17847
_108_101@@ 17843
ny 17842
Initialized 17840
dead@@ 17838
sep 17838
224 17837
runtime@@ 17837
vd@@ 17833
ase 17831
3000 17827
LinkedList@@ 17824
mv@@ 17823
ight@@ 17821
Models 17818
stringstream 17818
codec@@ 17817
BACK 17815
Viewport 17815
sic@@ 17814
%class.java_lang_RuntimeException*, 17813
BitSet 17808
CWalletTx 17807
Tw@@ 17807
damageInfo 17807
emplace_back 17806
pic@@ 17803
har@@ 17801
CAN@@ 17798
roll@@ 17797
NED 17795
ight 17793
± 17793
hand@@ 17792
\x92@@ 17791
ReadFile 17789
ReadAll 17788
ten@@ 17784
ary_@@ 17783
Look@@ 17782
focus@@ 17779
IGF 17776
May 17768
Pairs 17766
Cycle@@ 17765
MUL@@ 17762
%class.java_io_File@@ 17757
Fields@@ 17757
_to@@ 17749
FromString 17748
ree@@ 17748
attached 17747
fragment@@ 17747
OK@@ 17746
Fee@@ 17743
cle@@ 17739
Dirs 17738
RES 17730
Shutdown@@ 17730
fer@@ 17730
Steps 17729
_2(@@ 17724
performance 17723
REAL 17719
normalize 17713
info_@@ 17712
advance 17707
Ping@@ 17704
defines 17694
CES 17690
bf 17688
flo@@ 17687
v7 17686
buff@@ 17684
STATIC_@@ 17683
c0 17677
had 17675
Recovery@@ 17670
seg 17670
600 17669
completion 17667
async@@ 17662
logical@@ 17662
globals 17658
V3@@ 17654
zy@@ 17654
0. 17653
__FUNCTION__ 17652
Lin@@ 17650
WINDOW_@@ 17643
Recv 17640
clu@@ 17640
Imm 17638
FD@@ 17637
repr 17636
mocks 17632
Args@@ 17630
if_@@ 17629
Diag 17626
Highlight@@ 17624
UB@@ 17624
vo 17620
square 17618
Abs 17613
_52_@@ 17612
3e@@ 17611
Dump 17611
newRequest 17608
PROPERTY_@@ 17607
ref_@@ 17600
getString@@ 17599
quit 17599
properly 17597
Margin@@ 17596
cycle 17592
Subnet@@ 17591
2,@@ 17590
Wi@@ 17589
counters 17587
Adjust@@ 17582
chr 17581
800@@ 17579
Oc@@ 17576
Combo 17574
compatible 17574
Lexer 17572
-2015 17571
SPELL_EFFECT_@@ 17571
Anti@@ 17570
encodeVarint@@ 17570
klass 17569
spin@@ 17569
bytes_@@ 17568
setLayout 17568
Clip 17567
wrapped 17566
projection 17565
Hide@@ 17561
Age 17560
Rotation@@ 17555
Shard 17551
%bb13NEW_LINE 17550
spi@@ 17548
LogPrintf 17546
instr 17546
blk 17545
did@@ 17545
vid@@ 17543
LIN@@ 17541
dataType 17536
time_t 17535
\x0e@@ 17529
enumeration 17528
HttpClient 17527
OVER@@ 17522
accountId 17522
setData 17520
car 17515
Coordinates 17514
%cdv_ty.javax_swing_J@@ 17507
120@@ 17506
cfg@@ 17503
lon 17503
IT 17501
skill_@@ 17501
Comp 17500
%call15@@ 17499
Motion@@ 17493
Hi@@ 17491
Mu@@ 17485
CompactTextString 17484
GetTime 17481
Groups@@ 17481
\x8b@@ 17481
Recent@@ 17480
cleanup@@ 17478
Temple 17475
Uint 17475
exactly 17475
runs 17475
Creating 17471
slave 17471
ens 17470
mapArgs 17469
NET 17468
2b@@ 17465
Direct 17465
linked 17464
_vm 17461
¼@@ 17460
callbacks 17457
language@@ 17456
16" 17448
connector 17448
utility 17447
Pane@@ 17444
undo 17442
getBase@@ 17441
NotNil 17440
OW@@ 17440
001 17439
NOT_FOUND 17437
outString 17437
ther@@ 17437
ActionPerformed 17436
CXX@@ 17435
mr@@ 17435
Invoke@@ 17433
row_@@ 17433
\xf7@@ 17432
op1 17430
AttributeSet 17428
SPELL_AURA_MOD_@@ 17427
statements 17424
HU@@ 17423
mass 17422
und@@ 17418
Follow@@ 17417
SKILL_@@ 17416
Parsed@@ 17412
tive 17409
%gep1, 17408
_82_@@ 17407
onChanged 17399
dialog@@ 17398
DL 17395
Instr@@ 17393
getPosition 17392
g2 17391
success@@ 17390
path_@@ 17389
country 17386
Existing@@ 17375
Family@@ 17374
JC@@ 17374
Retry 17374
\x89@@ 17372
notes 17372
namespace@@ 17370
%bb8NEW_LINENEW_LINEbb@@ 17365
CACHE_@@ 17365
205 17361
Translate@@ 17360
Clo@@ 17357
stats@@ 17357
children@@ 17356
Combat@@ 17350
Interpreter 17350
look@@ 17349
BF@@ 17348
31@@ 17347
getClass@@ 17347
%class.java_lang_@@ 17341
Relation 17340
chrono 17335
_79@@ 17334
TRA@@ 17328
bufio 17328
Exception* 17327
Checksum 17322
Describe 17321
pk 17320
errnoErr 17319
sen@@ 17319
Large@@ 17315
Calculate 17314
gam@@ 17312
producer 17312
dirs 17306
QLabel 17305
_S@@ 17301
working 17301
feed@@ 17296
element_@@ 17294
%class.java_beans_PropertyChangeSupport*, 17293
Ban@@ 17292
Reserved@@ 17292
Amount@@ 17289
GroupId 17288
NAMESPACE 17285
VirtualMachine@@ 17285
KeyValue 17284
BITS 17276
FROM_@@ 17273
STREAM_@@ 17273
full_@@ 17273
ClientConfig 17272
SECONDS 17272
TTL 17269
v1alpha1 17267
Parallel@@ 17265
defaulting 17265
Seek@@ 17264
Testing 17261
Issue 17258
rig@@ 17258
SharedPreferences 17257
_time 17255
m_is@@ 17250
ash 17249
Anim 17246
opaqueNEW_LINE%class.java_io_OutputStream 17244
134 17243
MAP@@ 17237
2007 17235
ization 17231
nValue 17230
wr 17228
5f@@ 17224
misc 17224
eli@@ 17219
detected 17217
##@@ 17214
reached 17209
_PATH 17207
testkit 17206
SER@@ 17205
2008@@ 17204
Fin@@ 17204
systems 17200
kubectl 17199
_105_116@@ 17193
ency@@ 17193
plot 17193
things 17192
artifact 17187
EF@@ 17186
pres@@ 17186
setFont 17179
ND@@ 17178
Board@@ 17177
dirty 17177
broker 17176
poll@@ 17174
GetItem@@ 17173
Association@@ 17169
GG@@ 17168
preferred 17161
Os@@ 17160
trac@@ 17159
Toolbar 17157
Uint@@ 17155
NoSuch@@ 17153
\xf4@@ 17153
不@@ 17153
000000@@ 17147
Restart@@ 17147
FUN@@ 17144
0001 17143
\xe8@@ 17143
pop_back 17140
outErrorDb 17138
Reverse@@ 17136
glo@@ 17135
popup 17134
query_@@ 17134
conv 17132
8f 17130
Reward@@ 17130
a8@@ 17127
direct@@ 17126
Chro@@ 17125
Month@@ 17125
cop@@ 17125
%ibinop 17123
%class.null7, 17116
WN@@ 17111
5e@@ 17110
153 17109
FT_@@ 17109
try_@@ 17104
Runner@@ 17100
RESOURCE_@@ 17098
е 17095
AA 17093
Logging 17093
Getenv 17091
chunks 17090
j_@@ 17088
p3 17086
Days 17079
d4@@ 17079
away 17076
xx@@ 17075
ServiceName 17074
\x1b@@ 17070
Del@@ 17069
appendChild 17068
HTTP_@@ 17067
nam@@ 17067
tk@@ 17067
%gep5@@ 17066
\xe9@@ 17064
preferences 17061
Composite 17060
%class.null7 17054
%class6 17054
%class6, 17054
matrix@@ 17054
getField@@ 17052
SYSTEM_@@ 17050
far 17050
sg@@ 17049
к@@ 17049
%bb7 17048
umb@@ 17048
6d@@ 17046
_0 17046
PREFERRED_SIZE 17042
rev@@ 17040
visibility 17040
responses 17034
Plot 17033
Syntax@@ 17030
cuda@@ 17028
8: 17027
Html 17027
REST@@ 17026
specifies 17026
RB@@ 17025
Clean@@ 17024
spell_id 17021
GetInstance 17020
\x1e@@ 17016
ness@@ 17011
Explicit@@ 17008
ert@@ 17008
ASSERT_EQUALS 17005
Finish 17005
taken 17005
ae_@@ 17002
Vals 17001
NER 17000
202 16998
Warnings 16998
Dim 16994
RETURN_@@ 16993
SWI@@ 16993
}NEW_LINE@Polyglot_java_lang_String_cdv 16991
appear 16989
\xfd@@ 16988
pred 16986
Void@@ 16985
IG@@ 16983
0), 16980
0.8@@ 16980
allowed@@ 16979
"3" 16978
third 16977
f8@@ 16976
Rand@@ 16975
QgsWkbTypes 16974
TIMESTAMP 16972
singleton 16971
Shell@@ 16969
mal@@ 16968
opaqueNEW_LINE%interface.java_util_Set 16968
Extractor 16964
Transfer 16964
partial 16963
getBlock@@ 16962
Params@@ 16961
ian 16960
save_@@ 16960
Break 16955
ma_@@ 16953
methodName 16952
tile_@@ 16947
Allocate 16946
coin@@ 16945
LV@@ 16944
double* 16942
FunctionType 16941
í@@ 16937
11.@@ 16936
col_@@ 16930
http2@@ 16928
Gre@@ 16927
Round 16926
pla@@ 16925
136 16921
POINT 16914
High 16912
ten 16912
macro 16911
ObjectAccessor 16910
built 16909
Ingress 16908
tos 16907
UserName 16903
\x9f@@ 16902
ARRAY_@@ 16900
Clients 16899
ationType 16899
Keyboard 16898
Writer*, 16898
RAM 16897
iso@@ 16897
mempool 16897
Distribution@@ 16892
sent@@ 16891
pageSize 16887
engine@@ 16883
sock@@ 16883
getText@@ 16879
Vector3f 16877
rid 16874
Matching@@ 16873
Supported@@ 16873
GTK_@@ 16870
SD 16867
SPELL@@ 16867
That 16864
urn 16864
Funcs 16862
LD 16860
%call7 16859
activate 16859
tiles 16857
%bb12NEW_LINE 16855
Stored@@ 16854
%interface.java_util_Set* 16851
Toggle@@ 16848
Wh@@ 16848
ros 16847
Atom@@ 16844
operators 16841
%class.java_awt_Cursor*, 16839
Ax@@ 16839
STAT_@@ 16838
localVar@@ 16837
%interface.java_awt_event_FocusListener*, 16836
Gradient@@ 16835
Coin 16833
BufferedImage 16831
%interface.java_awt_event_MouseListener*, 16830
creature@@ 16825
Warning@@ 16824
ini 16822
%interface.java_awt_event_ComponentListener*, 16821
getItem@@ 16819
bt 16817
get_str 16816
Positive@@ 16815
bio@@ 16813
ik@@ 16813
Exist 16812
Interceptor 16810
Coins 16809
kernel@@ 16809
sym@@ 16809
MENU_@@ 16808
vr@@ 16808
DIR_@@ 16807
Fs@@ 16807
y0 16807
Completion 16806
%call6 16805
ges 16802
ign@@ 16801
%interface.java_awt_event_KeyListener*, 16795
0-9 16795
%interface.java_awt_peer_ComponentPeer*, 16791
ging 16790
ree 16790
rx@@ 16789
µ@@ 16789
tester 16788
v1_@@ 16788
%class.java_awt_GraphicsConfiguration*, 16785
BD@@ 16784
STOP 16783
Writer* 16782
%interface.java_awt_event_MouseMotionListener*, 16781
WithBaseURL 16781
displayName 16781
ele@@ 16776
%class.java_awt_dnd_DropTarget*, 16775
%class.java_awt_ComponentOrientation*, 16773
Ui 16768
%interface.java_awt_event_MouseWheelListener*, 16767
%class.java_awt_image_BufferStrategy*, 16766
Regex 16766
android_@@ 16766
%interface.java_awt_event_HierarchyBoundsListener*, 16763
%interface.java_awt_event_HierarchyListener*, 16763
%interface.java_awt_event_InputMethodListener*, 16763
\xf6@@ 16761
612@@ 16760
clone@@ 16760
stream_@@ 16759
POINT_@@ 16757
IPv4 16749
replacement 16746
Continue 16741
ator_@@ 16741
managed 16737
hive 16735
qreal 16734
Ni@@ 16733
EXP@@ 16729
133 16728
9b@@ 16725
FP 16725
220 16723
i8], 16723
sprite@@ 16723
%call3@@ 16722
\xc0@@ 16718
2.1 16717
Half@@ 16716
datastore 16716
ential 16714
getRoot@@ 16714
MAT@@ 16710
column_@@ 16707
Triple 16703
GetMax@@ 16702
Resolver@@ 16696
_d@@ 16695
135 16692
Guild@@ 16692
\xf8@@ 16691
%indvars.iv 16690
hw@@ 16688
Deploy@@ 16687
plain 16684
statusCode 16681
\xeb@@ 16680
¡ 16677
axis@@ 16674
hwnd 16671
EM@@ 16670
\xf5@@ 16666
izer@@ 16665
Flat@@ 16664
attachment 16664
nodeId 16664
1000@@ 16661
Hdr 16661
Secondary@@ 16660
Already@@ 16659
\xef@@ 16659
air 16659
Img@@ 16658
walk@@ 16658
Perf@@ 16656
ero 16656
findBy@@ 16656
hot@@ 16653
depend@@ 16652
mini@@ 16648
sli@@ 16646
Flags@@ 16637
ROOT 16637
CBlock 16635
ess@@ 16631
%class.java_util_Formatter*, 16629
\x1@@ 16626
weapon 16626
opaqueNEW_LINE%interface.java_lang_CharSequence 16625
shed 16620
Scheme@@ 16618
Solution 16617
stand@@ 16617
vc@@ 16616
getAs@@ 16612
Broadcast@@ 16607
alert@@ 16606
AuxInt 16604
Complex 16602
analy@@ 16600
PrintWriter 16598
Ke@@ 16597
__(%class.java_awt_Container*)NEW_LINENEW_LINEdeclare 16597
Modified@@ 16596
AK@@ 16595
codec1978 16594
\xf9@@ 16592
edit_@@ 16589
maximum@@ 16589
writes 16587
sy 16586
¿ 16586
02111-1307 16583
protocol@@ 16577
SmallVector 16576
ender@@ 16576
orig 16575
Checked@@ 16573
Gui 16573
ket@@ 16573
Initialize@@ 16572
BY@@ 16571
ExecutionException 16571
Leaf 16569
special@@ 16568
black@@ 16567
vertical@@ 16564
.not, 16561
wo@@ 16558
c8@@ 16557
root_@@ 16557
getMin@@ 16554
getE@@ 16552
draw_@@ 16549
ET@@ 16547
\xf3@@ 16547
Handles 16546
Operands 16536
Persistence@@ 16536
getResource 16532
QPoint 16531
folder@@ 16531
Minimum@@ 16530
Disable 16526
JOptionPane 16522
RC_@@ 16519
ag 16519
though 16517
145 16516
Me 16515
Producer@@ 16510
\xfc@@ 16510
ToLower 16509
CAL@@ 16508
pair@@ 16507
impl_@@ 16505
repeat 16503
RemoveAll 16502
replaced 16502
ULONG 16501
XMLSchema 16500
lon@@ 16498
extent 16487
7e@@ 16485
OUT_@@ 16485
ALTER 16483
Glyph@@ 16483
dep 16483
cut@@ 16482
-10@@ 16480
EncodeString 16479
Segments 16479
endif 16473
lexer 16471
observer 16468
quota 16464
Country 16463
.not 16462
STATUS_NEVER 16462
FT 16461
\xfb@@ 16461
\x85@@ 16460
Intent@@ 16458
cid 16457
\x84@@ 16453
half@@ 16451
printer 16451
Qualifier 16450
rl 16448
Temporary@@ 16447
Kit 16442
dictionary 16441
4e@@ 16440
pick@@ 16439
independent 16436
vi 16435
%gep4@@ 16434
AddTo@@ 16434
Caps 16434
make_shared 16433
cmd_@@ 16432
ages 16431
Spin@@ 16430
Ur@@ 16429
_82@@ 16428
v6 16428
priv 16427
tm@@ 16427
hibernate 16422
PFNGL@@ 16421
LABEL 16417
coord@@ 16417
returning 16417
Itr 16414
DT@@ 16413
Keep@@ 16412
lip@@ 16412
extend 16410
Na@@ 16408
%call11 16407
"1@@ 16406
X509@@ 16405
exist@@ 16401
CUR@@ 16397
\x90@@ 16397
Attempt 16396
ExpectNoError 16396
\x83@@ 16395
et_@@ 16395
ASE 16394
gri@@ 16393
Bridge@@ 16392
Principal@@ 16392
noMethod 16392
Actor@@ 16389
Negative@@ 16389
168 16388
USE@@ 16388
hp 16387
sections 16386
Rendering@@ 16385
2005 16384
FA_@@ 16381
MessageBox 16381
ResponseBody 16381
Shared 16372
%bb2NEW_LINENEW_LINEbb2: 16370
2016@@ 16370
tabs 16370
EFFECT 16369
Sent@@ 16366
pVictim 16365
Scoped@@ 16364
Written 16364
doing 16363
ability@@ 16360
+@@ 16356
GetSpell@@ 16356
Or 16350
fig@@ 16350
fy 16350
inf@@ 16350
stdin 16348
mods 16344
GameObject@@ 16339
sSpellMgr 16337
pat 16335
RESULT_@@ 16334
GS 16331
Lower 16330
Gra@@ 16329
DH@@ 16326
Mix@@ 16323
Idle@@ 16322
sType 16313
WithErrorUnlessStatusCode 16312
\xa4@@ 16308
\xe3@@ 16307
GridBagConstraints 16306
nonce 16305
sovGenerated 16302
IC 16299
provider@@ 16299
184 16294
Info_@@ 16293
complete@@ 16293
makes 16293
176 16291
patterns 16291
ach 16290
\xb0@@ 16287
\xbf@@ 16285
creates 16285
quality 16284
Dictionary@@ 16283
upgrade 16283
wd@@ 16283
_w@@ 16282
eof 16281
ner_@@ 16281
angle@@ 16278
ized@@ 16278
SecurityContext 16276
armZZ@@ 16275
%class.javax_swing_@@ 16274
customer 16274
tech@@ 16271
->@@ 16267
undefined 16267
%gep9@@ 16266
ded_@@ 16259
health@@ 16253
Verbose 16252
combo@@ 16252
Submit@@ 16248
Modules 16247
_-61_-@@ 16246
UInt 16245
bd 16244
ants 16243
UniValue 16242
Pub@@ 16241
GetOptions 16240
UnixNano 16239
BYTES 16238
Green 16238
ArgsForCall 16237
\xe7@@ 16233
EncBinary 16232
infos 16232
capture@@ 16231
Ms@@ 16229
class, 16229
TF@@ 16226
nr@@ 16226
int16_t 16225
(%class.java_awt_Window*)*, 16224
entry_@@ 16224
cos@@ 16223
Generation 16221
Trim 16221
\xe4@@ 16219
podName 16219
TL 16218
GetMap 16217
STRUCT 16215
Registration 16214
routing 16212
\xf2@@ 16207
rendering 16204
opaqueNEW_LINE%class.java_io_BufferedWriter 16203
WARN 16202
__L@@ 16202
qt@@ 16200
jobject 16199
server_@@ 16198
MF 16194
setState 16194
\x87@@ 16192
%call9 16190
hSocket 16190
font_@@ 16189
AddSC_@@ 16186
readLine 16185
zoom@@ 16184
： 16184
fclose 16183
utf 16180
Feedback@@ 16178
TH 16175
sub_@@ 16175
SetValue 16173
QueryResult 16172
individual 16172
Data_@@ 16170
\xb7@@ 16170
MOVE 16169
Also 16168
Defined@@ 16165
Final 16161
quanti@@ 16161
strong 16159
BorderLayout 16158
i32*NEW_LINE 16154
\xe5@@ 16148
\xb3@@ 16141
\x93@@ 16140
\xf1@@ 16139
U2@@ 16138
FileNotFoundException 16136
UInt32 16133
SELECT_@@ 16132
Capture 16130
PrivateKey 16130
%"op18321(load.le)@@ 16122
CAST 16119
\x86@@ 16119
errorCode 16119
ASSERT_TRUE 16116
VD@@ 16116
\xaa@@ 16116
register_@@ 16116
%call18 16114
anti@@ 16114
Fact@@ 16113
expected_@@ 16113
sendMessage 16111
visited 16110
UI_@@ 16109
tries 16107
strAccount 16105
WriteHeader 16104
cocos2d 16101
sgt 16101
wc 16101
ssion 16096
ene@@ 16090
routes 16090
Coordinate 16089
WAL@@ 16089
C1 16088
á@@ 16087
fact 16083
ACE 16080
detect 16078
6c@@ 16077
ched@@ 16076
ObjectReference 16075
InputStreamReader 16074
GB 16070
GLfloat 16070
Just@@ 16069
usage@@ 16069
BUIL@@ 16068
ray@@ 16068
bool@@ 16063
Then 16061
@create1DArray(i8* 16060
iss@@ 16059
INPUT 16056
mip@@ 16056
tan@@ 16055
SION 16053
getM@@ 16052
Spatial@@ 16051
Python@@ 16049
\x94@@ 16049
pattern@@ 16049
LHS 16048
ONE@@ 16047
Txn@@ 16047
Hidden 16046
sphere 16043
ja 16039
8e@@ 16037
Include 16036
Clean 16035
considered 16035
phone@@ 16034
listener@@ 16033
Pitch 16031
remove_@@ 16031
hl@@ 16030
WorldObject 16028
YY_@@ 16027
Regs 16026
moved 16026
nLast@@ 16025
_101_116@@ 16019
477@@ 16017
sResult 16017
Requested 16014
compressed 16012
Caret@@ 16010
BC 16008
\xea@@ 16006
probe 16005
touch 16004
Converter@@ 16003
equivalent 16000
failed@@ 16000
logical 15995
CWallet 15994
Evaluation@@ 15993
Same 15992
BaseURI 15989
LB@@ 15989
atable 15989
log4j 15989
Diag@@ 15987
VT@@ 15986
land@@ 15986
%gep3, 15985
Sheet@@ 15985
care 15985
layer_@@ 15985
getInt@@ 15984
ByteArray 15983
InstanceId 15982
las 15981
Are@@ 15980
easy 15978
Hashtable 15976
Distribution 15969
act_@@ 15968
packageName 15967
CPL@@ 15966
SERVER_@@ 15965
math@@ 15964
spring 15964
TreeNode@@ 15959
SF@@ 15955
LinkedHashMap 15953
143 15951
newTest@@ 15951
\xe1@@ 15949
summon 15946
_115_116@@ 15945
\xc1@@ 15941
dependent 15940
\x1a@@ 15938
opened 15937
share@@ 15933
isEnabled 15932
toolbar 15930
\x82@@ 15929
diagnostic 15929
jLabel@@ 15928
11: 15926
FAILURE 15922
\x97@@ 15922
Sen@@ 15921
7f@@ 15920
getParameter@@ 15920
pVM 15912
UV@@ 15909
%bb14, 15907
configuration@@ 15905
invoked 15904
LOCAL_@@ 15902
c3 15899
further 15899
only@@ 15899
Couldn 15898
a4@@ 15898
141 15897
dan@@ 15894
GRE@@ 15888
137 15887
1. 15886
\x96@@ 15886
polygon 15883
resourceName 15878
\xb6@@ 15875
Caller 15873
CALL_@@ 15871
Leader@@ 15870
come 15870
DEF@@ 15868
solver 15868
rad@@ 15867
Ljava_awt_@@ 15858
Ring 15857
\x08@@ 15857
_105_115@@ 15856
\xbd@@ 15855
Slave@@ 15853
PB@@ 15852
minor 15852
\xe6@@ 15846
walk 15845
6: 15844
_115_32@@ 15842
vb@@ 15841
\xb9@@ 15840
%call17@@ 15839
\x9b@@ 15839
secs 15835
SpellScriptLoader 15834
__pyx_t_@@ 15834
JNIEnv 15833
NET@@ 15830
\xa3@@ 15830
\x91@@ 15823
ig 15823
oss 15822
Unicode 15821
ARE@@ 15819
predic@@ 15818
ae 15816
Appro@@ 15815
deps 15812
timeout@@ 15812
\xee@@ 15811
average 15808
12.@@ 15807
163 15807
machine@@ 15807
н@@ 15807
getSource 15806
control_@@ 15804
Catalog 15803
HD@@ 15803
Visibility@@ 15800
ont@@ 15800
Ensure@@ 15799
Gravity 15791
way@@ 15791
Weak@@ 15790
CreatePreparer 15789
ull 15789
%class.java_io_BufferedWriter*, 15788
aligned 15786
local_unnamed_addrNEW_LINENEW_LINENEW_LINENEW_LINEdeclare 15786
ä@@ 15786
ana 15784
why 15784
Palette 15782
2011@@ 15781
Decimal@@ 15777
RES@@ 15777
SPELL_AURA_@@ 15777
gain 15777
Gesture@@ 15776
_-48_-@@ 15775
decor@@ 15775
\xa7@@ 15773
Asm@@ 15772
ServiceException 15769
_105_99@@ 15769
ReadOnly@@ 15766
viewer 15765
dependency 15763
cpp@@ 15762
ure 15761
Precision 15760
ase@@ 15758
rh@@ 15757
Inc@@ 15754
kubecontainer 15754
listed 15753
Modes 15752
_class@@ 15748
%bb13, 15746
%bb4 15745
dns@@ 15745
tag_@@ 15744
Cat@@ 15743
jun@@ 15743
dest_@@ 15737
m_type 15736
measure@@ 15736
Ring@@ 15735
LINK 15730
put_@@ 15729
beginning 15728
Candidate@@ 15725
reads 15725
Into@@ 15724
_y 15724
%class.java_awt_Point* 15721
Invocation 15716
alo@@ 15716
alive 15714
_-27_-@@ 15713
Overflow@@ 15712
options@@ 15712
SendPacket 15710
CY@@ 15707
\x9d@@ 15707
SLO@@ 15705
Data* 15703
Sch@@ 15702
increment@@ 15701
0x7f0b00@@ 15698
\x95@@ 15697
PM 15696
151 15694
hdfs 15694
questions 15690
GetType 15689
\x8d@@ 15687
deep@@ 15687
Bridge 15686
zk@@ 15685
\xb5@@ 15684
endorse 15684
transformation 15683
Bus 15680
Deleted@@ 15680
recv@@ 15679
upon 15679
freq 15676
%or.cond@@ 15672
0x9 15672
%class.javax_swing_InputMap*, 15671
Traffic@@ 15670
ces@@ 15670
BUTTON 15669
setOnClickListener 15668
GL_TEXTURE_@@ 15667
kill@@ 15667
(%class.java_awt_Window*)* 15666
AddSC_boss_@@ 15665
Shell 15665
Repeat 15664
gro@@ 15663
pen@@ 15663
filtered 15661
CLO@@ 15659
Hits 15657
CR 15653
\x8f@@ 15652
ill@@ 15651
ina 15650
able_@@ 15649
ARY 15648
scope@@ 15647
La@@ 15645
core_@@ 15645
152 15644
cross 15644
stores 15644
Starting 15642
Dynamic 15641
\x1c@@ 15641
\xa2@@ 15641
\xe2@@ 15639
addAttribute 15639
VA@@ 15638
plo@@ 15636
ME_@@ 15634
schemas 15632
Manage@@ 15630
TLRPC 15630
Overlay 15628
%gep1 15627
datum 15627
robot 15626
po 15624
00:@@ 15619
Rc 15619
i16* 15619
NEW@@ 15618
inflate 15617
Band 15616
shouldn 15615
"200@@ 15611
9NEW_LINE 15609
Hand@@ 15609
orders 15609
Parallel 15608
opaqueNEW_LINE%class.java_util_Formatter 15606
replaceAll 15606
Statistics@@ 15603
jdbc 15603
vertical 15602
nullNEW_LINE@@ 15600
ostringstream 15596
142 15594
tbl 15594
Hosts 15591
setPosition 15591
Cells 15590
TestSuite 15590
165 15586
TableModel 15584
ni 15582
CC_@@ 15581
ace 15581
modifiers 15581
DT 15580
CHANGED 15579
csv 15579
146 15576
SSH@@ 15574
LoadBalancer 15571
Realm@@ 15571
ResourceVersion 15569
sit@@ 15567
convert_@@ 15565
STREAM 15564
demo 15564
erId 15564
Py_@@ 15563
eri@@ 15563
rbac 15563
999 15561
CD 15560
TrackColours 15559
fg 15559
ings@@ 15559
bx 15555
CLOSE 15550
wallet@@ 15546
search_@@ 15542
getH@@ 15539
packages 15539
@@@ 15534
ELEMENT_@@ 15531
\x98@@ 15531
\xa5@@ 15530
\xc9@@ 15530
build_@@ 15530
\U0001f@@ 15529
%bb1 15526
Stand@@ 15526
\xb1@@ 15525
Mer@@ 15524
Restore 15523
Needed 15520
Slider@@ 15520
Mouse 15516
\x99@@ 15515
Lex@@ 15514
Tablet@@ 15512
Messages@@ 15510
_97_115@@ 15510
Kafka@@ 15508
%gep3 15507
extended 15506
� 15505
memory_@@ 15504
GetGUIDLow 15503
sn 15503
%class.java_io_OutputStreamWriter*, 15501
Fake 15501
ByClosing 15499
Sn@@ 15499
ar_@@ 15499
accountName 15498
254 15496
cg@@ 15493
broadcast 15488
Framework@@ 15487
138 15486
rad 15485
spo@@ 15484
reload 15483
Conditional@@ 15482
ful 15481
Users@@ 15480
\xb2@@ 15480
RG@@ 15478
Ticket@@ 15478
6b@@ 15477
SOURCE_@@ 15477
pC@@ 15473
147 15472
EXTRA_@@ 15472
\xae@@ 15472
nav@@ 15471
Cmp@@ 15464
Picture 15464
161 15463
61@@ 15463
ROM_REGION 15459
carbon 15458
}*, 15458
ved@@ 15456
vectors 15455
\xd9@@ 15454
为@@ 15454
sleep@@ 15453
%class.java_lang_Class**, 15452
HEADER_@@ 15450
Brush 15446
CAST_@@ 15442
Jit@@ 15442
tooltip 15441
2a@@ 15436
codecSelferC_UTF81234 15436
preview 15436
armWWbar 15433
leader 15433
aurApp 15430
Rotate@@ 15428
ccx 15428
Unsupported@@ 15425
gd@@ 15425
\x8e@@ 15424
\xb8@@ 15423
subscribe 15419
Img 15418
LIGHT_@@ 15418
ending@@ 15417
Ordering 15416
\x88@@ 15411
replication 15411
pTarget 15408
Validator@@ 15405
ector 15401
\x9e@@ 15399
dims 15399
NEW_LINENEW_LINEdeclare 15398
packets 15394
Requirement 15391
align@@ 15389
Amazon@@ 15388
Play 15387
Evaluator 15382
%gep7@@ 15381
false@@ 15381
Rename@@ 15380
pc_@@ 15380
Subscriber 15379
\xb4@@ 15377
171 15371
emptyList 15370
svc@@ 15370
Fore@@ 15369
QUERY_@@ 15363
EN 15362
SubscriptionID 15360
accompanied 15360
IGM 15359
181 15350
TRAC@@ 15349
entire 15349
p2@@ 15349
Foreign@@ 15347
Intro@@ 15342
HWND 15340
ifNoneMatch_ 15340
Clock@@ 15339
regular 15339
Hard@@ 15338
0.4@@ 15336
Plain@@ 15336
Ctrl@@ 15334
QApplication 15334
_PA@@ 15333
Protection@@ 15332
widget@@ 15332
ada 15331
RW@@ 15328
disc@@ 15328
seed@@ 15327
Candidate 15319
TL_@@ 15316
unsupported 15316
Nothing 15314
XmlType 15312
\xd8@@ 15311
rate@@ 15306
÷ 15306
jump 15304
2084 15303
Sel 15303
ational 15303
Instances@@ 15301
kie 15296
Mongo@@ 15295
closing 15294
\xd6@@ 15290
wstring 15290
RED_@@ 15289
instr@@ 15289
ule 15289
serialize@@ 15288
MS_@@ 15287
Singleton 15287
Ó@@ 15287
\xa9@@ 15286
move_@@ 15283
210 15282
oop 15277
MustQuery 15274
ino 15274
\xc7@@ 15273
false, 15272
peek 15272
Listener*)*, 15269
energy 15269
detail@@ 15264
Bluetooth@@ 15263
Styled@@ 15257
\xd2@@ 15257
\xe0@@ 15256
Hardware@@ 15253
URLs 15250
same@@ 15250
verts 15250
TITLE 15249
HttpResponse 15246
company 15245
sim@@ 15244
REQUEST 15243
kes 15241
Combo@@ 15235
api_@@ 15233
lets 15228
WithQueryParameters 15227
atch@@ 15226
13: 15225
itor 15225
nVersion 15225
ny@@ 15225
iN@@ 15224
MethodName 15218
developers 15217
TAL@@ 15216
_PRI@@ 15216
\x8a@@ 15215
unlikely 15212
Ogre 15210
TCHAR 15210
cx@@ 15207
Dummy 15206
193 15205
typed@@ 15205
}NEW_LINE%class.java_io_FilterOutputStream 15201
\xba@@ 15199
lf 15199
JSONException 15198
needs@@ 15197
Aliases 15196
INIT_@@ 15196
ule@@ 15196
8)NEW_LINE 15195
Histogram 15195
\xa8@@ 15195
ech 15191
\xc3@@ 15190
Mb@@ 15187
specification 15187
ssh 15187
%class.java_awt_Container* 15186
d0@@ 15186
JSON_@@ 15185
follow@@ 15182
7d@@ 15181
dv 15181
Alarm@@ 15180
119@@ 15178
qt_@@ 15172
ListResultPage 15167
Threshold@@ 15166
slice@@ 15163
MEMORY 15160
MF@@ 15160
_105_100@@ 15160
LINK_@@ 15158
MotionEvent 15157
blk@@ 15155
Writable@@ 15148
encoded@@ 15148
Facade 15147
9e@@ 15146
1D 15144
\x9a@@ 15144
108@@ 15143
\xd7@@ 15143
GetObject@@ 15140
QT_@@ 15138
neg@@ 15138
quantity 15138
argument@@ 15137
Spot@@ 15136
LIB@@ 15135
True@@ 15135
ender 15134
getSource@@ 15132
critical 15131
endTime 15131
}NEW_LINENEW_LINEdeclare 15129
\xdb@@ 15127
Recv@@ 15126
recursive 15123
Keyword@@ 15121
ful@@ 15121
\32@@ 15118
175 15117
\xcf@@ 15117
199 15116
s_t 15115
gl_@@ 15110
description@@ 15108
L2@@ 15106
extension@@ 15105
recover 15103
LOCATION 15099
%class.java_awt_Event*, 15098
magic 15098
getTotal@@ 15096
BOOLEAN 15092
lost 15091
opaqueNEW_LINE%class.java_io_OutputStreamWriter 15091
conver@@ 15087
per_@@ 15086
TOKEN_@@ 15084
%bb9 15081
fic@@ 15081
\xbc@@ 15080
tech 15080
xt 15077
HASH 15076
Student@@ 15074
0xc 15071
CIDR 15071
178 15070
eq@@ 15070
pm@@ 15069
BT@@ 15065
reply@@ 15065
fore@@ 15064
tls@@ 15063
Status_@@ 15062
Type* 15062
\x81@@ 15060
elapsed 15060
gener@@ 15060
\xa0@@ 15057
common_@@ 15057
daemon@@ 15057
Neither 15056
jPanel@@ 15055
\xdf@@ 15053
130@@ 15051
Probe 15049
>>= 15048
ship 15048
PLAYER 15046
ips 15046
\xd5@@ 15044
Tim@@ 15041
Utf8 15041
email@@ 15040
appro@@ 15036
RemoteException 15035
invalidate 15035
projectId 15034
¶ 15033
duration@@ 15032
Author@@ 15029
Event*)*, 15029
Viewport@@ 15028
getItem 15028
ice@@ 15025
modes 15025
explicitly 15023
certain 15022
Fs 15021
base64 15020
match_@@ 15020
alias@@ 15017
dep@@ 15017
SEGMENT_@@ 15016
Att@@ 15010
pwallet 15009
glyph 15008
Ter@@ 15007
Kubernetes@@ 15006
small@@ 15006
aver@@ 15003
flu@@ 14996
tell 14994
\x07@@ 14990
Terms 14988
Dot 14987
Utils@@ 14985
REQUEST_@@ 14983
Safe 14979
_101_100_32@@ 14975
principal 14974
172 14965
asset@@ 14963
collector 14963
\xa6@@ 14960
mitk 14959
SetName 14958
2: 14957
ences 14957
Enc@@ 14955
LLVM 14953
getIn@@ 14953
pull 14952
GB@@ 14951
Testing@@ 14951
train@@ 14949
TATION 14946
FIX@@ 14942
dri@@ 14939
tail@@ 14938
hor@@ 14933
igh@@ 14933
Visit 14932
ENO@@ 14927
yyhl@@ 14927
KeyValue@@ 14926
DataSet 14922
177 14920
Purpose 14920
ingress 14919
117@@ 14918
err_@@ 14916
Constructs 14915
bus@@ 14915
3c@@ 14912
Formats 14910
237 14907
ItemId 14905
declared 14905
__pyx_t_1 14904
Water@@ 14902
chro@@ 14902
kit@@ 14899
\xcd@@ 14898
cent@@ 14897
Coun@@ 14892
Availability@@ 14890
\xc6@@ 14888
comparator 14888
Hub@@ 14887
RIGHT_@@ 14887
auras 14887
jar@@ 14886
NextToken 14884
Arrow@@ 14883
au 14882
uti@@ 14882
Sink@@ 14881
qs 14881
ー@@ 14881
Helpers 14880
-2016 14879
LogLevel 14879
tty 14879
0x10000 14878
Waiting 14877
\x8c@@ 14877
others 14875
Inte@@ 14873
Encoder@@ 14866
WORLD 14866
%bb7NEW_LINENEW_LINEbb7: 14865
oper@@ 14864
result2 14863
Fla@@ 14862
\xc2@@ 14861
compression 14857
fall 14857
ingMode 14857
\xd3@@ 14856
a9@@ 14856
CP 14855
Numbers 14855
Added@@ 14854
assertion 14854
startup 14853
TRACK_@@ 14852
transp@@ 14851
%call16@@ 14850
Desired@@ 14849
195 14848
ult 14846
Kill 14845
\xdd@@ 14844
CONTEXT_@@ 14842
resize@@ 14838
GL_TEXTURE_2D 14836
Stock@@ 14834
mp_@@ 14826
CTION 14823
getCount 14823
ename 14820
%call12 14818
debugger 14818
lot@@ 14818
Percentage 14817
104@@ 14816
Policies 14815
Upper 14814
iterations 14814
Lease@@ 14812
Shards 14812
arraycopy 14811
InputMethod@@ 14809
HIGH@@ 14805
defs 14804
two@@ 14803
_46_ 14801
Chance 14800
ced 14798
deploy@@ 14797
pose 14797
og@@ 14796
local_unnamed_addrNEW_LINENEW_LINENEW_LINEdefine 14794
(%class.java_io_@@ 14793
Dial@@ 14791
\xd0@@ 14791
settings@@ 14791
TH_@@ 14789
faction 14779
notification@@ 14777
QRect 14776
\xc8@@ 14776
computed 14776
getObject 14776
mf 14776
worker@@ 14775
nTime@@ 14772
159 14770
AtomicInteger 14770
Mapped@@ 14770
NodeID 14770
IX@@ 14769
%class.java_util_Date* 14768
i32)** 14767
drools 14765
0.2 14764
Party@@ 14763
404 14759
testCases 14759
RGBA@@ 14755
License@@ 14749
5c@@ 14748
alize 14745
bm 14744
Jdbc@@ 14743
Here 14742
S3 14742
Presenter 14741
addGroup 14741
Upload 14740
\x9c@@ 14740
@Polyglot_java_awt_Window_get@@ 14738
gce 14738
%cdv_ty.java_io_File@@ 14736
Original 14734
uid@@ 14733
Pen 14732
pointer@@ 14732
%interface.java_util_Map* 14731
ttl 14730
StringVar 14729
Union@@ 14729
duc@@ 14724
ifi@@ 14720
m_state 14720
149 14717
Regions 14716
OUTPUT_@@ 14714
enums 14714
View_@@ 14713
}NEW_LINENEW_LINE@Polyglot_@@ 14713
203 14710
fopen 14709
ak 14708
indicate 14708
prog 14708
IPs 14706
model_@@ 14706
Credit@@ 14705
Stroke 14704
\xd1@@ 14703
az 14702
Blue 14701
SAM@@ 14698
cri@@ 14697
Resize 14695
ListBy@@ 14691
Spinner 14686
evalu@@ 14685
Ask@@ 14683
Defs 14683
identity@@ 14683
IPv6 14681
MSE@@ 14680
fqdn 14679
215@@ 14678
ML 14675
password@@ 14675
12" 14674
gpu 14673
swt 14672
WithPathParameters 14668
deleting 14667
curr_@@ 14665
Attach 14664
aps 14662
jint 14662
\xc5@@ 14661
LPVOID 14657
XP 14657
expr_@@ 14656
Mini@@ 14655
Vendor@@ 14655
room@@ 14655
196 14652
validation@@ 14651
206 14649
nm 14649
%call13 14647
dispatcher 14646
Registered@@ 14643
kube 14642
Tracking@@ 14638
child_@@ 14636
para 14635
getter 14631
adjust 14630
nBlock@@ 14630
terminal 14630
decomp@@ 14629
を@@ 14629
opaqueNEW_LINE%class.java_io_PrintWriter 14628
"NEW_LINE 14625
hardware 14624
Shar@@ 14623
-3 14619
@Polyglot_javax_swing_JComponent_get@@ 14619
running@@ 14619
Vis@@ 14617
%interface.javax_swing_@@ 14616
xi@@ 14614
Searcher 14612
162 14609
External 14609
½@@ 14607
08x 14603
ders 14603
lock_@@ 14603
Unicode@@ 14602
ies@@ 14602
setUInt32 14598
CheckResponse 14592
Vec2 14592
264@@ 14586
10: 14585
Lifecycle 14585
Embedded@@ 14582
Received@@ 14581
FRAME_@@ 14580
16: 14579
QDir 14578
s0 14577
FLAG@@ 14574
dockerCmd 14574
\xd4@@ 14573
aut@@ 14572
testng 14568
bo 14566
1234@@ 14565
Men@@ 14565
encodeVarintGenerated 14565
joint 14564
GetMotionMaster 14562
have@@ 14561
ListItem 14560
ctx@@ 14557
je@@ 14557
_121_@@ 14556
maybe@@ 14556
Rot@@ 14552
Receive 14550
VM_@@ 14549
armttbar 14548
ssa 14547
margin@@ 14543
Ö@@ 14543
JO@@ 14541
Into 14536
mapBlockIndex 14536
purpose 14534
Ticks 14529
Scaling@@ 14528
lement@@ 14528
setProperty@@ 14528
Logic 14526
Clone@@ 14524
die 14524
dock@@ 14521
contract 14519
0xffff 14518
Auction@@ 14518
_32_99@@ 14517
go_@@ 14516
ReplicationController 14514
SourceLocation 14513
miss@@ 14512
json_@@ 14509
JTextField 14508
_97_100@@ 14508
hyper@@ 14508
pf 14507
103@@ 14506
179 14500
Pct 14499
Interrupt@@ 14497
Checkpoint 14496
\x74@@ 14494
dispatch 14494
%gep2@@ 14492
s.h> 14492
extr@@ 14491
ving 14487
toggle@@ 14486
LOCK_@@ 14483
convertTo@@ 14483
open_@@ 14482
Some@@ 14480
capabilities 14480
textures 14479
Regex@@ 14478
TempDir 14477
getChildren 14477
SA_@@ 14472
Duplicate@@ 14471
mas 14471
169 14470
Lang 14466
live@@ 14466
type_ 14466
Colour@@ 14464
%bb13@@ 14463
sov@@ 14463
artist 14462
\xcb@@ 14461
verb 14461
Circle@@ 14459
Names@@ 14459
\xa1@@ 14459
ticks 14458
.5 14457
2/@@ 14457
Derived@@ 14456
Market@@ 14455
ValueRef 14455
À@@ 14455
MV@@ 14454
activ@@ 14454
persistent 14454
185 14453
LAST 14451
angles 14450
source_@@ 14449
Cycle 14443
ACL 14442
CService 14442
Ltd 14442
directories 14442
encrypted 14442
State_@@ 14441
ResultSet@@ 14440
orm 14440
PREFIX 14439
filled 14438
sites 14435
360 14434
%indvars.iv, 14431
cut 14430
group_@@ 14430
nat@@ 14429
7: 14428
Fu@@ 14428
wiki 14425
Problem 14424
Fl@@ 14422
trim@@ 14419
txdb 14419
READY 14415
%gep15@@ 14414
music@@ 14414
Contain@@ 14413
Queued@@ 14413
nums 14411
Convert_v1_@@ 14410
OVERRIDE 14409
skipped 14409
ctr 14408
tax@@ 14408
uchar 14407
sourceforge 14404
Requirement@@ 14402
Cut@@ 14401
Frag@@ 14401
testdata 14401
FLERR 14400
elemField 14400
forEach 14400
TOKEN 14399
clusters 14399
Router@@ 14398
SERVER 14398
Tokenizer 14396
getUn@@ 14396
\xda@@ 14394
getRequest@@ 14394
208 14393
DoScriptText 14393
debugging 14393
Convert_@@ 14389
Macro@@ 14389
Rel 14388
Idle 14387
Measure 14386
GetTarget 14385
Infer@@ 14384
3,@@ 14383
However 14382
system_@@ 14382
Criteria@@ 14377
SHA 14377
SSE@@ 14376
DT_@@ 14374
Was@@ 14373
ton 14367
rot 14366
Capacity@@ 14364
currentThread 14364
167 14363
replica@@ 14363
tb@@ 14363
HttpRequest 14361
sil@@ 14359
branch@@ 14357
candidates 14357
getColor 14354
158 14353
ao 14353
getConfiguration 14353
fid 14352
207 14347
QDomElement 14347
CommandLine 14346
pen 14346
X86@@ 14343
° 14343
moves 14342
CHANGE 14341
2-@@ 14340
@_string_lit_32@@ 14340
BaseClient 14340
client_@@ 14340
Tor@@ 14334
blank 14330
222 14329
link_@@ 14329
getID 14328
represented 14328
TX 14327
Frontend@@ 14324
rsp 14324
GPU 14323
Integration@@ 14323
265@@ 14322
ABLE_@@ 14320
m_last@@ 14320
za@@ 14318
LinearLayout 14315
Solver 14315
diagram 14314
DoS 14313
lc@@ 14313
items@@ 14312
%call24 14310
accepted 14305
155 14303
Maven@@ 14303
multiply 14303
cover@@ 14300
NG@@ 14298
hc 14298
10000@@ 14295
GetCount 14295
fine 14292
overflow@@ 14291
Scopes 14289
void@@ 14289
Transp@@ 14286
Pad@@ 14282
ever 14281
224@@ 14278
It@@ 14277
MT 14276
rw@@ 14274
Suppress@@ 14272
ill 14271
ByteArrayInputStream 14270
late@@ 14270
Guest@@ 14268
NewErrParamRequired 14262
OpenGL 14261
WORD_@@ 14261
%bb8 14260
sessions 14260
\xdc@@ 14259
VC@@ 14258
Drawer@@ 14257
NA 14254
ward@@ 14253
adap@@ 14252
GeneratedMessageV3 14248
fraction 14248
ConfigMap 14246
OWNER 14246
%bb15NEW_LINE 14245
Quota 14244
D_P@@ 14239
-01 14238
CONTROL_@@ 14234
require@@ 14233
5b@@ 14230
mg@@ 14229
getActive@@ 14225
FileUtils 14221
party 14220
tagName 14217
1E@@ 14212
NodeInfo 14212
ata@@ 14212
valu@@ 14212
183 14209
filter_@@ 14209
triangle 14209
raft@@ 14207
"12@@ 14205
minim@@ 14202
kafka 14201
pindexNew 14198
GC_@@ 14196
Unmarshaller 14194
Business@@ 14191
XPath@@ 14190
pfn@@ 14189
.1 14188
213@@ 14187
\x61@@ 14187
Weapon 14181
categories 14179
154 14176
comma 14176
0000000@@ 14175
%interface.javax_@@ 14174
D3D11_@@ 14172
vl 14172
%bb14NEW_LINE 14171
9999@@ 14171
1_ 14170
Sheet 14168
cond@@ 14165
LL_@@ 14164
vec2 14164
PATH_@@ 14163
Inf 14159
QAbstract@@ 14157
context_@@ 14157
ects 14156
Circle 14154
limited 14154
Object_@@ 14147
%bb14@@ 14143
%interface.java_awt_LayoutManager*, 14139
Nat@@ 14138
118@@ 14137
Movie@@ 14137
millis 14136
proto_msgTypes 14135
2009@@ 14130
acl 14126
operator() 14123
%interface.java_awt_event_ContainerListener*, 14120
Attack 14120
Roo@@ 14119
Persistence 14117
%class.java_awt_FocusTraversalPolicy*, 14115
Cond@@ 14115
Allocate@@ 14112
%class.java_awt_LightweightDispatcher*, 14110
&@@ 14110
squ@@ 14109
CreatureAI 14108
\xcc@@ 14106
jo 14106
Percent@@ 14104
HEL@@ 14103
setting@@ 14103
consume 14101
%gep6@@ 14100
Int64@@ 14100
vert 14100
Startup@@ 14099
ctor 14099
eps 14098
example@@ 14098
higher 14097
GetID 14094
Trust@@ 14094
offset_@@ 14093
cra@@ 14090
equal@@ 14090
rather 14090
Layout_@@ 14089
grad@@ 14089
Message_@@ 14086
addrs 14086
Gri@@ 14083
Config_@@ 14082
TargetValue 14081
>>> 14075
Dependent@@ 14075
Rating 14075
Front 14073
WORK@@ 14070
TASK_@@ 14067
Insets 14066
zap 14064
USB@@ 14061
Poll 14059
tracks 14056
%class.java_io_InputStream@@ 14055
Http 14053
mIs@@ 14050
Checkpoint@@ 14047
Redirect 14046
nx 14045
PPC 14044
forward@@ 14043
Compact@@ 14042
by_@@ 14042
Debugger@@ 14040
hard@@ 14037
DockerSuite 14036
ReturnValue 14036
preference 14034
norm@@ 14033
Zoom 14029
j1 14029
NER_@@ 14028
orts 14028
platform@@ 14028
getName@@ 14026
\0" 14025
Look 14023
minute 14022
space_@@ 14022
fun 14021
\u5@@ 14018
Plane@@ 14017
roachpb 14017
aura@@ 14015
Ï@@ 14014
Icons 14013
STO@@ 14013
mapStringFor@@ 14008
Closed@@ 14007
getVersion 14006
lies 14005
174 14004
controllers 14004
wards 14004
likely 14002
12: 14000
VARCHAR 14000
personality 13998
188 13997
Organization 13997
getConnection 13996
CommandLine@@ 13995
actor@@ 13994
TokenType 13992
NEW_LINENEW_LINEbb5: 13991
QFile 13991
aurEff 13991
projec@@ 13990
larger 13989
GetLength 13987
question 13987
connect_@@ 13984
cInfo 13983
invalidate@@ 13980
COMPLE@@ 13979
SOURCE 13979
clusterName 13979
loot 13977
Intrinsic 13976
separate 13976
Regular@@ 13975
host_@@ 13972
8000 13969
PID 13969
Translation@@ 13969
compress 13967
182 13964
Anchor@@ 13964
Mirror@@ 13963
transient 13963
MenuBar 13960
BOO@@ 13958
skip_serializing_if 13957
\x6f@@ 13956
sched 13956
%bb7NEW_LINENEW_LINEbb6: 13953
leaf@@ 13950
uiDiff 13950
GM@@ 13948
Textures 13948
Unique 13948
wParam 13948
light_@@ 13945
pentaho 13941
-2013 13940
Band@@ 13940
resulting 13939
hs@@ 13938
TRY_@@ 13937
constraint@@ 13937
overwrite 13935
where@@ 13935
ux@@ 13934
Alignment@@ 13933
android@@ 13932
Opcodes 13931
mutex@@ 13931
interval@@ 13929
vs@@ 13927
xp 13922
horizontal 13920
ox 13920
Tail 13919
ASCII 13914
NFTA_@@ 13914
requireNonNull 13913
dk 13912
LabelSelector 13911
reach@@ 13909
game_@@ 13908
Probe@@ 13907
Walk 13907
COL_@@ 13904
Leader 13902
x3 13898
Quality 13892
updating 13892
Declaration@@ 13891
567@@ 13889
NULL@@ 13888
Win 13888
btn 13888
Readable@@ 13885
getIndex 13884
setSize 13884
Q_UNUSED 13880
1.2 13879
editor@@ 13879
Stopped 13875
Atoi 13874
executable 13873
中@@ 13871
_class_id 13870
Need 13869
CHAN@@ 13868
lan 13861
ACCESS_@@ 13860
GetBoolArg 13857
reports 13856
GetPositionY 13855
ji@@ 13855
Always 13854
Providers 13853
Initi@@ 13850
X11 13850
anonymous 13848
STAR@@ 13847
ify@@ 13846
putExtra 13846
REP 13845
32)NEW_LINE 13843
important 13842
Vari@@ 13841
Modification@@ 13839
Unsafe 13839
cmds 13838
173 13836
refer@@ 13834
thumb@@ 13832
ton@@ 13831
Info* 13830
chained 13829
\xc4@@ 13828
body_@@ 13828
adds 13823
tip 13823
GRA@@ 13822
UINT32 13819
2004 13817
mappings 13817
Dock@@ 13815
gamma 13815
LEFT_@@ 13812
CODE@@ 13811
Ljava_lang_String_2@@ 13810
comparison 13810
156 13809
Pred 13809
ink 13808
DialogInterface 13807
ken@@ 13806
getLevel 13805
mergeFrom 13805
40)NEW_LINE 13803
active_@@ 13803
MP_@@ 13799
_84_@@ 13797
interpreter 13797
Reduce@@ 13795
tun@@ 13794
GetPositionX 13792
value_type 13791
Cap 13788
exception_@@ 13788
frontend 13787
random_@@ 13786
referenced 13785
ist 13783
newArrayList 13781
expecting 13780
Train@@ 13778
Elastic@@ 13777
cing 13775
elf 13774
Triangle@@ 13772
com_@@ 13772
Closure 13770
230 13769
Named 13769
186 13768
Convey 13768
Statistic@@ 13767
LY 13766
_source@@ 13765
prot@@ 13764
ken 13763
Fraction 13761
Pu@@ 13761
Buffered@@ 13759
Structured@@ 13759
Syscall 13759
startIndex 13757
specs 13754
song 13753
NewPopulated@@ 13751
@Polyglot_java_awt_Component_set@@ 13749
emitter 13749
Ali@@ 13746
qint64 13746
THROW 13745
TestHelper 13743
Migration@@ 13740
Connected@@ 13739
stone 13738
net_@@ 13737
PHASE_@@ 13735
CK_@@ 13734
Cube@@ 13734
phy@@ 13734
good@@ 13733
epsilon 13732
IMAGE 13731
pu 13731
opaqueNEW_LINENEW_LINE@@ 13729
Compilation@@ 13728
codecSelfer_containerArrayElem1234 13725
Coder 13724
Well@@ 13724
newVal 13724
Flex@@ 13722
device_@@ 13721
surf 13721
Disconnect 13720
eco@@ 13713
routine 13713
Stdin 13711
having 13710
Too@@ 13707
particle 13707
ARG_@@ 13706
btSoft@@ 13705
css@@ 13700
Hello@@ 13699
Terminal@@ 13699
should_@@ 13699
Ô@@ 13699
MessageType 13698
king@@ 13698
stro@@ 13696
IE@@ 13693
transfer@@ 13693
vector_@@ 13693
yy 13693
maven 13691
198 13690
Deserialize 13690
Instant 13685
HTTPMethod 13683
Nullable@@ 13683
material@@ 13682
Reflection@@ 13680
vr 13680
terminated 13678
LER 13677
PROP_@@ 13677
relative@@ 13676
policies 13675
-2014 13672
TOR@@ 13672
TException 13671
topology 13671
Servlet 13668
<string> 13665
String_@@ 13663
VD 13663
getG@@ 13663
Chart 13662
TEXTURE_@@ 13662
Dbg@@ 13660
Namespaces 13658
Btn 13654
fro@@ 13653
ile 13653
Knowledge@@ 13652
ResourceType 13652
\NEW_LINE	@@ 13650
Preview 13646
uniform 13645
Given 13644
%bb6 13642
%call16 13642
Sho@@ 13641
Always@@ 13640
Decision@@ 13639
Based 13637
claim@@ 13637
WHITE 13633
10, 13631
OBJEC@@ 13631
Blocking@@ 13630
Cipher 13630
foobar 13629
Pixmap 13626
7b@@ 13625
filtered@@ 13625
%load.arr.elem 13623
payment@@ 13623
druid 13621
ticket 13620
Holder@@ 13618
Instrument@@ 13618
caps 13618
repository@@ 13617
ARG@@ 13616
rowCount 13610
34, 13607
ApplicationContext 13606
Performance@@ 13606
elt 13606
123@@ 13605
DD 13605
Contract@@ 13599
FILTER_@@ 13597
Problem@@ 13595
ComboBox@@ 13593
Element_@@ 13593
horizontal@@ 13591
bufferSize 13589
redirect 13587
Projection@@ 13586
Verifier 13584
_111_117@@ 13584
Patterns 13581
HX_@@ 13578
InProgress 13574
Small 13574
returnValue 13574
ERR@@ 13573
sOf@@ 13571
buckets 13570
USER@@ 13567
OPEN 13566
i1* 13565
P2@@ 13564
%class.java_awt_Dimension* 13563
getTime@@ 13562
pped@@ 13562
3a@@ 13560
gar@@ 13558
Compressed@@ 13555
cloudfoundry 13554
Tenant@@ 13553
e+00 13552
insert_@@ 13546
NED_@@ 13543
ISO 13542
Buckets 13541
star 13539
simply 13537
17: 13536
Adap@@ 13536
ExecutorService 13534
Front@@ 13534
8b@@ 13532
processors 13530
Processing 13526
VISI@@ 13526
CombineFields 13521
Completed@@ 13521
inserted 13521
typed 13521
AlertDialog 13520
inflater 13520
Realm 13517
unpack@@ 13517
7)NEW_LINE 13516
ssh@@ 13515
CASE 13510
MEM_@@ 13510
SECTION 13509
Ve@@ 13505
SHORT 13504
getMessage@@ 13500
github_com_gogo_protobuf_proto 13498
popup@@ 13497
Rep 13496
pprev 13494
ASTNode 13493
StringTo@@ 13490
Relationship@@ 13489
val_@@ 13488
Land@@ 13487
BAD_@@ 13486
most@@ 13486
109@@ 13485
0e@@ 13483
rom 13481
Cla@@ 13475
VOID 13475
7_@@ 13473
failure@@ 13470
ress@@ 13470
197 13466
Marshaller 13466
soft 13466
PARAM_@@ 13465
5d@@ 13464
Authors 13464
missing@@ 13464
__Ljava_lang_@@ 13462
buildapi 13461
ecko 13461
Bur@@ 13460
Alt@@ 13459
jump@@ 13458
lParam 13458
Scripts 13456
Slo@@ 13456
Act 13455
timestamp@@ 13454
Sm@@ 13453
values@@ 13452
listen@@ 13449
%call18@@ 13447
Fmt 13447
Phone@@ 13447
px@@ 13446
SM 13444
tm_@@ 13444
UDP 13443
hh 13443
TreeMap 13442
toList 13440
Uses 13437
Wrapped@@ 13437
%bb4NEW_LINENEW_LINEbb4: 13433
track_@@ 13432
CAR@@ 13430
Relay@@ 13429
Serialized@@ 13429
.finally.res@@ 13428
deleg@@ 13427
Request_@@ 13426
x509 13426
Benchmark 13425
Rules@@ 13424
storm 13423
yarn 13423
用@@ 13423
conv@@ 13422
BUTTON@@ 13419
Ep@@ 13419
ServiceAccount@@ 13418
leg@@ 13418
Artist 13417
album 13417
terminate 13416
600@@ 13415
TYPES 13415
opaqueNEW_LINE%class.java_util_Date 13413
a7@@ 13411
xmlns 13411
measure 13410
AB 13409
NO_ERROR 13408
189 13407
fw 13407
Filesystem 13406
Misc@@ 13406
tok@@ 13406
ClassNotFoundException 13404
FromFile 13402
ization@@ 13402
Persist@@ 13400
Pen@@ 13399
guild 13397
a3 13396
и 13394
_0000 13393
_101_99@@ 13393
getContent@@ 13393
pg 13392
ACL@@ 13391
Primary 13391
executeQuery 13391
gy@@ 13390
157 13389
scaling 13389
itu@@ 13388
t3 13387
DateFormat 13384
Value_@@ 13384
HOST 13382
\x72@@ 13376
%call5@@ 13374
}NEW_LINE%class.java_util_@@ 13374
DED 13373
gradient 13372
-2017 13368
Major 13367
To_@@ 13367
Extract 13366
_116_105@@ 13366
SEPARATOR 13360
Scanner@@ 13359
allocate@@ 13357
RENDER@@ 13354
SPP 13354
Translation 13353
this_@@ 13353
bootstrap 13352
@_string_lit_ 13350
aliases 13350
tro@@ 13348
125@@ 13347
Repeat@@ 13347
Radio@@ 13346
Thumb@@ 13346
indicating 13345
SCREEN_@@ 13342
SPEED 13342
sName 13341
differ@@ 13340
nIndex 13338
4d@@ 13337
Yes 13334
Routes 13332
Spaces 13332
registration 13332
GetCreature 13331
instance_@@ 13329
vec4 13329
Pid 13327
_101_114_32@@ 13324
%class.java_awt_event_@@ 13321
Envelope 13320
StartSpan 13320
lo_@@ 13318
4b@@ 13317
LF@@ 13317
___ 13315
ConfigurationException 13314
Pack 13314
GF@@ 13313
lifetime 13313
releases 13313
Buff 13312
ZZ@@ 13312
keyboard 13309
%bb16, 13307
MustCompile 13307
nlocal 13307
_mode 13306
toByteArray 13306
Sil@@ 13304
pag@@ 13304
AH@@ 13303
Vpc@@ 13302
Ç@@ 13302
MEM 13299
_49_49@@ 13298
Picture@@ 13297
previously 13297
³@@ 13297
V3 13295
City 13291
TC_@@ 13291
Unsupported 13291
applications 13290
od@@ 13289
Escape 13287
Warn 13286
_49_50@@ 13286
DO_@@ 13285
JComponent 13281
eck@@ 13281
rating 13281
hits 13280
workflow 13279
calculated 13278
ResolveRelative 13275
238 13274
Boo@@ 13273
Points@@ 13273
GOSSIP_@@ 13272
partial@@ 13271
Buy@@ 13270
Sys 13269
ress 13269
holds 13267
roo@@ 13267
JU@@ 13265
getOutput@@ 13265
Rand 13264
bias 13264
Mail 13263
Txn 13263
ValidationError 13261
header_@@ 13261
ErrInvalidParams 13260
RR@@ 13260
MeasureSpec 13258
Specifies 13258
free_@@ 13257
Mnemonic 13256
rap@@ 13255
pho@@ 13253
dar@@ 13251
requested@@ 13251
CloseBody 13250
initi@@ 13249
Digest@@ 13248
Mul@@ 13245
QChar 13245
ServiceClient 13241
quot 13240
Sq@@ 13239
vv 13238
CPU_@@ 13236
ONE_@@ 13236
ado@@ 13236
Comput@@ 13235
IPAddress 13235
Ast@@ 13234
opaqueNEW_LINE%"class.@@ 13233
Provision@@ 13232
WK@@ 13231
resourceGroups 13231
b0 13230
op2 13229
getResult 13221
registry@@ 13218
Acc@@ 13217
Gran@@ 13217
Serialization@@ 13216
maxResults 13216
File_@@ 13215
HashMap@@ 13215
difficulty 13211
appended 13210
getClient@@ 13210
Tail@@ 13208
bundle@@ 13208
construct@@ 13207
stic@@ 13205
ARGS 13204
%cdv_ty.java_lang_StringNEW_LINE@_string_lit_@@ 13203
partitions 13203
194 13201
Aff@@ 13201
mul@@ 13201
Credential 13199
Absolute@@ 13197
passphrase 13192
blocking 13191
gh@@ 13187
107@@ 13184
ToolBar 13183
function_@@ 13183
v3@@ 13183
bbox 13182
Opaque@@ 13181
Specs 13180
Listen 13179
svg 13176
CheckBreak 13174
arg3 13173
proper 13171
s*, 13171
CSI@@ 13170
nullNEW_LINE@Polyglot_@@ 13169
GetAI 13168
led_@@ 13168
Exporter 13166
initializer 13166
i32@@ 13162
sheet@@ 13161
m_u@@ 13158
av 13156
chromium 13151
Analy@@ 13148
rem 13144
TestUtil 13143
MENU 13142
dataSource 13139
Dec 13136
YP@@ 13134
displayed 13134
是@@ 13134
math_rand 13133
Regexp 13132
tmpl 13132
NG 13131
def_id 13131
Swift@@ 13130
11_@@ 13127
Strip@@ 13127
Unix@@ 13126
_current@@ 13124
dup 13122
quick@@ 13116
Pad 13114
kn@@ 13112
Floating@@ 13111
_, 13111
Arm@@ 13110
wide 13110
SUCCEEDED 13109
flip 13108
s32 13108
187 13107
inverse 13106
vtk@@ 13106
numeric_limits 13104
arrow 13103
tested 13102
Outcome 13101
setStatus 13100
252 13099
googleapis 13091
recover@@ 13090
resolved@@ 13089
%bb15, 13086
InvalidProtocolBufferException 13085
Observable@@ 13084
Facet@@ 13082
SetData 13080
avg 13080
succeeded 13080
AccessToken 13079
band@@ 13076
LIST@@ 13075
L_ 13075
frag@@ 13075
Counters 13074
Exact@@ 13074
Paren@@ 13072
marshall 13069
tmpDir 13068
¬ 13064
FileType 13063
deploy 13063
whitespace 13060
Toolkit 13058
Notifier 13054
Desktop@@ 13053
gax 13053
PTR 13049
pn 13049
GetAmount 13047
Skin@@ 13046
enemy 13046
Billing@@ 13045
isSelected 13045
styles 13045
232@@ 13044
arrow@@ 13044
FieldDescriptorProto_Type 13043
Comparable 13042
Dao@@ 13041
js_@@ 13040
show_@@ 13038
multiplier 13037
ii@@ 13036
ready@@ 13035
1000000 13031
Medium 13029
wx 13026
coll 13024
0000000000000000@@ 13023
rank@@ 13023
making 13019
Square 13017
signals 13017
real_@@ 13016
Compression@@ 13011
multip@@ 13007
Slow@@ 13005
selenium 13005
Distributed 13003
Mutate@@ 13002
getLong 13001
Ordered@@ 13000
sho@@ 13000
opening 12999
FileWriter 12998
LOC@@ 12997
Expressions 12995
Define 12991
CQ@@ 12990
sException 12990
fav@@ 12988
jpg 12988
Delegate@@ 12985
Firewall@@ 12985
214@@ 12984
CALLBACK 12980
scenario 12980
NEW_LINE%@@ 12979
kin@@ 12978
skill@@ 12977
About@@ 12975
desktop 12974
è@@ 12974
51_@@ 12971
Event*)* 12971
Near@@ 12969
253 12967
CoreV1 12966
Equals@@ 12966
THE@@ 12966
problems 12962
Pk@@ 12961
GetCaster 12960
getChild@@ 12960
Actual 12959
pageToken 12959
221 12958
DEV@@ 12958
To_v1_@@ 12958
246 12957
Accounts 12957
getDeclared@@ 12957
priv@@ 12956
BEGIN_@@ 12955
addProperty 12950
Deep@@ 12949
stack_@@ 12946
\x0d@@ 12945
Us@@ 12943
Verification@@ 12943
2006@@ 12941
A1 12941
%gep4, 12939
%cast.obj, 12938
Instanti@@ 12938
WriteFile 12938
top_@@ 12938
RPC_@@ 12935
Publisher 12934
near@@ 12933
INTE@@ 12932
Insn 12932
Milli@@ 12931
moving 12929
latest@@ 12925
QualifiedName 12924
Has 12921
Multiplier 12921
\x6e@@ 12920
Array_@@ 12919
TRANS@@ 12919
FieldDescriptorProto_Label 12916
Bio@@ 12914
Words@@ 12914
supports@@ 12913
ListResultIterator 12911
strip@@ 12906
Album 12905
shown 12905
VBox@@ 12904
jp@@ 12902
Eval 12901
251 12898
Equ@@ 12898
Profiles 12898
Allocation 12897
Death@@ 12897
PersistentVolume 12897
Components@@ 12896
bw 12896
HER@@ 12894
pindexPrev 12892
Ã@@ 12891
readOnly 12889
DataSize 12888
ked 12886
getContent 12884
GO 12883
PersistentVolumeClaim 12883
Fx@@ 12882
emf 12882
cul@@ 12881
HR@@ 12880
ObjectMgr 12878
0xb 12874
), 12873
.0.@@ 12872
QMetaObject 12872
IN_MILLISECONDS 12871
Sal@@ 12871
nested@@ 12871
pul@@ 12871
follow 12868
%call22 12867
9f 12867
provision@@ 12867
%call14 12866
Conver@@ 12864
lombok 12864
request_@@ 12864
bor@@ 12861
sessionId 12861
__attribute__ 12860
ute 12860
eth@@ 12859
txout 12857
Listener*)* 12856
225 12854
dark 12852
Zones 12850
100000 12849
BlockIndex 12848
COPY 12848
Listener_2, 12848
happens 12842
point_@@ 12841
series@@ 12839
_can@@ 12837
268@@ 12836
Company 12836
267@@ 12834
Question 12832
Notes 12830
EndSpan 12829
ObjectMapper 12829
formatted 12828
LOCK@@ 12827
split_@@ 12826
%class.java_lang_Object*)** 12822
KS 12822
%ibinop, 12821
Rollback@@ 12820
q1 12817
Grant@@ 12816
internal_@@ 12812
requirement 12812
_buffer 12811
GPU@@ 12809
funcs 12808
NodePort 12805
Weights 12805
Listener*)NEW_LINENEW_LINEdeclare 12798
smaller 12797
tuple@@ 12797
RECT 12795
piece 12795
strMethod 12793
Boundary 12792
ovirt 12786
Acl@@ 12785
Initial 12783
nullNEW_LINENEW_LINEdefine 12783
я 12780
ace@@ 12779
hard 12779
\x5f@@ 12774
SA 12773
SetUInt32Value 12773
rejected 12772
m_t@@ 12770
BigEndian 12767
15: 12765
()* 12764
http_@@ 12763
DESCRIPTION 12762
bet@@ 12761
@__java_personality_v0 12759
FMT_@@ 12758
TUR@@ 12754
_115_ 12754
а 12754
一@@ 12754
linear@@ 12752
0xe 12751
Ancestor@@ 12750
dash@@ 12750
signature@@ 12749
%class.java_lang_StringBuffer* 12744
Signing@@ 12744
xor 12744
4096 12743
v8@@ 12743
Resolution@@ 12741
Dyn@@ 12740
uth@@ 12740
ExecutionContext 12738
toStdString 12735
CTION_@@ 12734
Distributed@@ 12734
zz 12733
Less@@ 12729
Transformation 12729
FLOAT@@ 12728
Saf@@ 12727
idle 12725
oct@@ 12725
onsi 12724
delimiter 12723
rgb@@ 12721
ater@@ 12718
yyDollar 12717
drive 12716
ear@@ 12714
VERIFY 12711
Tax@@ 12710
QDom@@ 12708
Difficulty 12707
zones 12706
20000 12705
Life@@ 12704
URE 12703
absolute@@ 12701
oun@@ 12700
escape@@ 12698
ated_@@ 12696
Factor@@ 12694
chk@@ 12694
ora 12694
FORM_@@ 12692
transport@@ 12692
Event__Ljava_awt_event_@@ 12690
geometry@@ 12688
ö@@ 12686
Stencil@@ 12684
emit_@@ 12684
Unsafe@@ 12683
getTitle 12682
payload@@ 12681
QEvent 12680
-1.@@ 12673
230@@ 12670
AUTO 12667
Î@@ 12666
glew@@ 12665
Phone 12663
Syntax 12663
Battleground@@ 12661
Glyph 12661
432@@ 12658
activated 12657
Latest@@ 12656
Restart 12656
Advanced@@ 12652
merged 12652
fact@@ 12650
1d 12649
pInfo 12648
UNUSED 12646
glVertex@@ 12646
serialized 12646
isActive 12644
Disabled@@ 12643
GM 12643
NodeType 12643
TAB@@ 12642
Reads 12641
UNIT_FIELD_FLAGS 12641
cipher 12641
ordinal 12641
ature@@ 12639
ier 12637
ular 12637
-0.0@@ 12636
\x73@@ 12636
ures@@ 12636
_97_32@@ 12635
OPEN_@@ 12633
Simulation@@ 12631
Talent@@ 12631
couldn 12631
234 12630
typeof 12630
f9@@ 12629
Rev@@ 12627
ime 12627
Previous 12625
_101_110_116@@ 12625
adwords 12623
performed 12622
setModel 12622
produce 12620
@Polyglot_jlang_runtime_Helper_toString__Ljava_lang_Object_2(%class.java_lang_Object*) 12615
RadioButton 12615
getTable@@ 12615
builtin@@ 12614
script_@@ 12612
little 12611
currentIndex 12610
ose 12610
Movie 12608
Pause@@ 12605
VERR_@@ 12604
CMSG 12602
Assertion@@ 12601
Own@@ 12600
gm 12598
tw 12598
getTask@@ 12597
m_v@@ 12597
FullName 12593
Dirty@@ 12591
18: 12589
games 12586
error_code 12585
loo@@ 12585
pubkey 12585
LocalDate 12584
sDir 12584
released 12582
tri 12582
Requested@@ 12580
Special 12578
\x0c@@ 12577
pindexBest 12577
chunk_@@ 12575
BRO@@ 12574
backend@@ 12574
EL 12573
catch@@ 12573
rotate@@ 12570
_1_ 12569
declare 12565
hours 12559
columnIndex 12558
FC 12556
J_@@ 12555
ipfs 12553
removing 12552
160@@ 12548
Aw@@ 12548
imm@@ 12548
isAlive 12548
crash 12542
tokenizer 12541
w3c 12540
<vector> 12539
Aux 12539
Bonus 12539
itr@@ 12539
Freq 12538
hal@@ 12538
heap@@ 12538
Wheel@@ 12537
CHANGE_@@ 12536
Cop@@ 12535
NewString 12527
letter 12527
242 12525
dro@@ 12523
HealthCheck@@ 12521
watcher 12519
GW@@ 12518
OV@@ 12518
sequences 12516
CNetAddr 12515
Filename@@ 12515
REGISTER_@@ 12514
Kie@@ 12508
licensed 12508
HTTPPath 12507
TextField@@ 12507
populate@@ 12506
CallCount 12505
2. 12503
ABO@@ 12502
ANT_@@ 12502
CV 12498
Fault@@ 12497
strCommand 12497
GUI_@@ 12493
LAN@@ 12493
223 12492
Resp@@ 12492
%exn 12491
RequestMethod 12491
Pop 12490
perm 12489
GLE@@ 12487
planner 12487
reverse@@ 12487
Quote@@ 12486
DECL 12485
getField 12485
Bot 12482
THREAD 12482
Station@@ 12479
"10@@ 12478
Purchase@@ 12478
DATE_@@ 12477
SOCKET 12475
tom@@ 12475
%gep4 12473
0x8000 12473
interrup@@ 12473
various 12473
FileReader 12470
sla@@ 12470
ays 12468
_width 12461
_114_111@@ 12456
Experiment@@ 12453
layout_@@ 12453
INT32 12452
PodStatus 12452
tu@@ 12452
lifecycle 12451
xmlWriter 12449
pretty 12446
ex_@@ 12444
flag_@@ 12444
@Polyglot_java_lang_Object_Object__(%class.java_lang_Object* 12441
suc@@ 12441
arena 12440
mapped@@ 12429
é 12429
Dns@@ 12428
0x7f0800@@ 12425
Charset@@ 12425
BIT_@@ 12423
ClickListener 12423
yyyy 12423
wp 12422
FD_@@ 12421
Seed@@ 12419
Suite@@ 12419
copyOf 12419
t__@@ 12419
Dialog_@@ 12417
Sha@@ 12411
ordering 12408
E+00 12407
Horizontal 12407
design 12405
inline@@ 12405
To_api_@@ 12403
getInput@@ 12403
0x00000001 12402
Writes 12402
fromString 12402
243 12401
occur 12399
skipping 12399
32, 12398
je 12398
TestContext 12397
readable 12396
BLE 12394
notifications 12393
getDefaultInstance 12387
ish 12386
BPF_@@ 12385
BoundingBox 12385
SpinBox 12384
%call8@@ 12383
dh@@ 12383
sConfig 12382
Verb 12381
reader@@ 12381
KV 12378
Norm@@ 12378
colgroup 12378
100.0f 12377
rotation@@ 12377
Affinity@@ 12376
scale_@@ 12376
ute@@ 12373
<algorithm> 12371
3_ 12370
\x09@@ 12370
		@@ 12369
"10.@@ 12369
guid@@ 12365
teams 12364
2017@@ 12362
dur@@ 12361
ode 12360
scape 12358
Vpn@@ 12357
=@@ 12356
us_@@ 12356
Catch@@ 12355
SQLite@@ 12355
properties@@ 12354
spacing 12351
att 12348
Affinity 12347
SDL 12347
gb 12347
jav@@ 12346
mor@@ 12346
Columns@@ 12341
1_-@@ 12340
Registers 12340
compatibility 12340
goog 12340
opaqueNEW_LINE%class.javax_swing_J@@ 12340
eng 12339
Customer 12338
Tracker@@ 12337
serve@@ 12337
Fro@@ 12334
ular@@ 12334
Fd 12332
KNO@@ 12332
Padding@@ 12332
bj 12332
ProgressBar 12330
Suc@@ 12330
Ra@@ 12328
INTERVAL 12326
}NEW_LINE%"cdv_ty.@@ 12326
DOM 12325
pix 12325
Orig@@ 12323
sql_@@ 12323
INFO@@ 12322
cinfo 12321
fli@@ 12321
Sav@@ 12318
Portal@@ 12317
"20@@ 12316
140@@ 12316
Cover@@ 12316
MAIN 12316
AC 12311
trip@@ 12310
ort_@@ 12309
Creative@@ 12308
Uint16 12308
QSize 12307
endian 12307
Ear@@ 12302
Friend@@ 12301
Terrain@@ 12301
img_@@ 12298
percentage 12297
BAN@@ 12292
%interface.java_util_@@ 12290
NON@@ 12290
gdx 12284
Painter 12283
HORDE 12279
admission 12278
cards 12278
Seek 12276
14, 12275
analyzer 12275
compiled 12275
_97_109@@ 12273
ode@@ 12273
explo@@ 12269
<sys/@@ 12268
poly 12268
Serializer@@ 12267
ui_@@ 12267
320 12266
MouseWheel@@ 12265
Apple@@ 12263
Quote 12263
%bb17NEW_LINE 12262
HashCode 12262
Since@@ 12259
intersection 12258
Cloner 12257
MAR@@ 12257
streaming 12257
%cdv_ty.java_lang_StringNEW_LINE@@ 12256
CONTEXT 12256
ILI@@ 12255
_44_32@@ 12252
getLine@@ 12251
getSession 12251
700@@ 12250
du 12250
HW@@ 12249
shared_@@ 12249
%class.java_lang_Object*)*NEW_LINE 12247
Calculator 12245
NU@@ 12242
2i 12241
Lon@@ 12239
UserData 12239
Conflict 12238
pref@@ 12238
150@@ 12237
its@@ 12236
Integr@@ 12235
Packages 12235
long_@@ 12235
MO 12233
up_@@ 12233
209 12230
ArrayRef 12230
SPELL_FAILED_@@ 12228
file_name 12228
SCRIP@@ 12224
setter 12224
Raft@@ 12223
Alt 12222
M_PI 12222
binder 12222
separated 12222
Activation@@ 12220
setIs@@ 12220
Histogram@@ 12218
degrees 12218
jj 12218
Pl@@ 12217
Resolved@@ 12214
_To_api_@@ 12212
cmdutil 12212
0x0F 12211
_l@@ 12211
calc 12210
modified@@ 12209
Digits 12208
m_name 12206
%bb5NEW_LINENEW_LINEbb@@ 12205
Loaded@@ 12205
vendor 12205
@Polyglot_java_io_File@@ 12203
Buffer_@@ 12203
ACT_@@ 12202
POWER_@@ 12201
0xd 12200
RE 12200
ket 12200
BLE_@@ 12199
autoscaling 12196
Curr@@ 12194
d0 12194
_-62_-@@ 12191
filename@@ 12191
sce@@ 12191
aren 12190
drawing 12190
lvl 12190
vertex_@@ 12190
SSL_@@ 12188
Joint@@ 12187
ч@@ 12187
Kubelet 12186
\x0b@@ 12186
getMethod 12185
PageSize 12183
Skin 12183
PT_@@ 12182
ader 12182
pat@@ 12181
ini@@ 12179
Year@@ 12177
0.01 12176
lm@@ 12174
Remaining 12172
_WIN32 12172
inform@@ 12172
UV 12170
throwable 12169
ñ@@ 12169
Unlock@@ 12162
writeString 12161
Event_2, 12160
xxx 12159
QueryBuilder 12156
ards 12156
noexcept 12156
xmm 12154
%interface.javax_swing_Icon*, 12152
GetNum@@ 12152
在@@ 12151
ATED 12150
Cvar_@@ 12149
QPainter 12148
qualifier 12147
Event*)NEW_LINENEW_LINEdeclare 12146
ARD_@@ 12145
Cipher@@ 12144
complexType 12144
damage@@ 12143
0x000000@@ 12141
Hints 12140
RSA 12140
degree 12140
roots 12140
OT@@ 12138
11, 12134
CALL@@ 12132
fork 12132
pid@@ 12132
Chooser 12128
Localized@@ 12126
MEDI@@ 12126
Receiver@@ 12125
goo@@ 12125
Assessment@@ 12122
Den@@ 12122
__Ljava_lang_String_2(%class.java_lang_String* 12122
Placement@@ 12121
format_@@ 12120
hol@@ 12119
_97_99@@ 12117
erase@@ 12115
recogn@@ 12115
Projec@@ 12114
stmt@@ 12113
Semantic@@ 12112
four 12111
Assembly@@ 12110
asString 12109
getUser 12109
Discovery 12108
__(%class.java_awt_Window*)NEW_LINENEW_LINEdeclare 12108
bm@@ 12107
Ldap@@ 12106
NN@@ 12103
%interface.java_util_Iterator* 12102
Af@@ 12102
course 12099
Hi 12098
corner 12098
6a@@ 12097
subnet 12096
Escape@@ 12094
imports 12094
tle 12092
dialog_@@ 12091
Ticket 12087
rid@@ 12085
Plus@@ 12082
ky@@ 12081
pol@@ 12081
CountDownLatch 12080
subtype 12078
Broker 12077
ACK_@@ 12076
VER_@@ 12076
Ri@@ 12073
ously 12073
trees 12072
reject 12070
TA 12069
qp@@ 12069
enumer@@ 12068
Inv@@ 12065
Take@@ 12065
SAX@@ 12064
yn@@ 12063
ected 12062
legal 12062
implicit 12057
gpl 12055
tz 12055
ItemCount 12054
\x63@@ 12054
BM@@ 12053
Bits@@ 12053
don@@ 12053
Battleground 12050
qinfo 12050
Fold@@ 12049
Good@@ 12047
MY@@ 12044
movie 12044
OrDie 12043
osg 12043
marshal@@ 12042
scal@@ 12041
vRecv 12041
%class.java_lang_Object*))NEW_LINE 12040
Bootstrap@@ 12036
Pdf@@ 12036
(%class.javax_swing_JComponent*)*, 12035
SH 12035
latitude 12034
EntityManager 12033
Entries@@ 12031
getEnd@@ 12031
KEYCODE_@@ 12030
LA 12030
ain@@ 12030
then@@ 12029
abb@@ 12028
LR@@ 12027
createParallelGroup 12027
р@@ 12027
React@@ 12023
permission@@ 12022
particle@@ 12021
\x75@@ 12020
online 12019
shutdown@@ 12018
180@@ 12016
15, 12015
studio 12015
modify@@ 12012
But 12011
CONTENT_@@ 12011
Sleep@@ 12010
Turn@@ 12010
Q_ASSERT 12008
zh@@ 12008
addition 12005
Money@@ 12004
ByID 12003
gpr 12003
cocos2dx 12002
633@@ 11999
19, 11998
Comparison@@ 11998
documents 11997
Claim 11994
abc@@ 11994
STAT@@ 11993
oid@@ 11990
Dial 11989
hal 11988
gap 11987
isEqual 11987
Confirm@@ 11984
Mobile@@ 11984
Less 11980
IC_@@ 11979
etag 11977
Pur@@ 11975
ou 11974
CREATURE_@@ 11973
er*, 11973
Aware@@ 11972
Wrong@@ 11972
transition@@ 11972
EP 11971
LAT@@ 11971
ACCESS 11970
Retries 11970
oauth@@ 11970
sPath 11969
ByUnmarshallingJSON 11968
YEAR 11968
tre@@ 11968
Dep@@ 11967
aggreg@@ 11967
temperature 11965
geo 11963
getAddress 11963
*)*NEW_LINE 11961
ime@@ 11961
insertion 11961
uv 11960
Geom 11959
hist@@ 11959
Particle 11958
getProperties 11958
Guid@@ 11957
UpdateAI 11956
that2 11953
SUB 11952
GONE 11951
material_@@ 11949
114@@ 11948
containerName 11948
run_@@ 11948
Square@@ 11946
tolua_err 11946
CSV@@ 11944
normalized 11942
BASE@@ 11941
gradle 11940
Objects@@ 11939
ATH@@ 11938
Triangle 11938
circle 11937
ended 11937
Members@@ 11936
Solr@@ 11936
8B 11934
Like 11933
_111_100@@ 11932
LOG_FILTER_@@ 11929
XP@@ 11929
3-@@ 11927
dos 11927
_85@@ 11926
ErrorHandler 11924
Leg@@ 11924
Corrup@@ 11923
FileName@@ 11922
450@@ 11921
Au@@ 11921
MX@@ 11921
%call19 11918
errout 11918
yu@@ 11918
1a 11916
slow 11916
Indicator@@ 11914
offsetof 11914
Wa@@ 11913
Configurations 11912
borrow 11912
LogFactory 11911
rac@@ 11910
uae_u32 11909
HS@@ 11908
#line 11905
Assembler 11905
%bb10 11900
CodeGen@@ 11900
jlong 11900
ConcurrentHashMap 11898
Msg_@@ 11898
ype@@ 11896
Ray@@ 11895
_32_)NEW_LINE 11895
apache2.0 11895
ality 11894
vitess 11892
EXT_@@ 11887
URE_@@ 11887
PM@@ 11886
soft@@ 11885
launch 11884
[20 11883
Perform@@ 11882
rollback 11882
setText@@ 11880
u32@@ 11878
RATE_@@ 11876
\1@@ 11875
ст@@ 11875
Decomp@@ 11872
bond 11872
changing 11872
GetSize 11871
Limited 11871
Ns 11871
wal@@ 11870
endObject 11869
ions 11869
XX 11868
alle@@ 11867
looking 11867
peer_@@ 11867
Nil@@ 11866
sensor@@ 11866
DROP 11864
TextUtils 11864
faction@@ 11864
jobId 11863
%a3, 11861
ith@@ 11858
Conv 11857
Reader_@@ 11857
Dense@@ 11854
POR@@ 11854
Accessibility@@ 11853
_PLAYER_@@ 11853
physical@@ 11853
plr 11852
_cache 11850
Abort@@ 11847
getProject 11847
HandleFunc 11845
NEW_LINE@Polyglot_@@ 11844
retrieve@@ 11843
}NEW_LINE%class.java_awt_@@ 11842
CTxDestination 11839
__(@@ 11838
glUniform@@ 11838
235 11837
EndOf@@ 11835
OPTION_@@ 11835
processor@@ 11835
slash 11835
MAC 11831
<stdio.h> 11827
ConfigMap@@ 11825
testcase 11825
Hibernate@@ 11824
fatal 11824
task_data 11824
GRO@@ 11823
Pipe@@ 11822
fixture 11822
v2" 11822
ClientSet 11821
-1.0 11820
INS@@ 11819
redirect@@ 11818
Raster 11815
231 11814
SOAP_@@ 11814
Way@@ 11814
month@@ 11814
Categories 11813
TType 11812
Signed 11810
SYSTEM 11808
f0 11808
isPresent 11808
I, 11807
Identifi@@ 11807
Spi@@ 11806
Succeeded 11806
HOME 11802
produced 11802
stored@@ 11802
SYS 11801
Drawing@@ 11800
ux 11800
ParseError 11798
IV 11796
gfx@@ 11794
atoms 11792
mq@@ 11792
Rest 11790
getFile 11789
%call6@@ 11787
-01" 11787
227 11787
IPT_@@ 11787
gran@@ 11787
xpath 11787
Urls 11786
LONG_@@ 11785
数@@ 11785
EVT_@@ 11783
_pos 11783
offer 11782
SAFE_@@ 11781
STEP 11780
TProtocol 11780
XmlAttribute 11780
CMD 11779
FF_@@ 11779
LI 11779
BLACK 11778
Characters 11777
Keep 11776
hel@@ 11776
GetProcAddress 11775
Ljava_lang_Object_2@@ 11775
73_@@ 11774
lst 11774
14: 11773
SpellId 11773
XmlAccessorType 11773
interpol@@ 11773
isInitialized 11772
lastComparison 11772
MAIN@@ 11771
applies 11771
ctl 11771
Effective@@ 11770
Field4 11770
Shortcut 11769
synchron@@ 11769
Gradient 11768
Optim@@ 11768
ROW 11768
XmlAccessType 11768
sensitive 11768
author@@ 11767
variants 11767
creator 11765
SDK 11764
gene@@ 11763
pcl 11763
Set_@@ 11762
Agg@@ 11759
her 11759
getImage@@ 11758
Point2D 11757
loads 11757
ALWAYS 11756
Over 11756
istic@@ 11755
Requirements 11754
WebView 11754
getKind 11752
DEFAULT_SIZE 11751
atives 11751
Qualified@@ 11750
BUILD_@@ 11749
getV@@ 11749
java_@@ 11749
Dict@@ 11748
ULL 11748
encryption 11748
UnicodeString 11747
19: 11745
longitude 11743
replica 11742
V4@@ 11741
Compression 11740
startActivity 11738
%bb11 11734
ku@@ 11733
@Polyglot_java_awt_Window_set@@ 11732
GLsizei 11727
NAME@@ 11726
caption 11725
dbName 11725
DoRetryWithRegistration 11724
movement 11719
consider 11717
RefPtr 11716
decoded 11715
libraries 11709
shader_@@ 11707
0000000 11705
overlay 11704
248 11703
Caption 11702
Ping 11700
m68k_@@ 11700
unknown@@ 11699
@Polyglot_java_lang_String_concat__Ljava_lang_String_2(%class.java_lang_String*, 11698
erFactory 11698
239 11697
KIN@@ 11695
о 11695
Clusters 11694
12NEW_LINE 11692
eventType 11691
(%class.java_awt_Frame*, 11688
Ship@@ 11687
DBCluster@@ 11686
combo 11685
resultSet 11685
xn 11685
pull@@ 11684
raster@@ 11683
trl_@@ 11683
Tabs 11682
2018 11679
Faction@@ 11679
KER@@ 11679
GA 11678
WAIT_@@ 11678
colon 11677
lineTo 11675
matrix_@@ 11675
conventions 11674
water@@ 11674
Until@@ 11672
211 11667
OPER@@ 11665
ering 11664
badlogic 11663
10.0 11662
8d@@ 11661
Rich@@ 11660
SCRIPT 11658
Sampler 11658
_66@@ 11658
unreachable 11658
goto@@ 11657
R3@@ 11653
QVector 11651
lg 11651
Sampler@@ 11650
lastIndexOf 11650
DAMAGE_@@ 11647
pdf 11647
setBlock@@ 11647
%bb2@@ 11645
best_@@ 11645
ipe@@ 11644
pname 11644
searcher 11644
AppendInt 11643
select_@@ 11643
BOOST_AUTO_TEST_CASE 11642
NewServer 11642
0x7f0700@@ 11640
newName 11637
mapWallet 11636
Configure@@ 11635
mLast@@ 11634
AF_@@ 11633
zer 11632
Thetest 11627
Elasticsearch@@ 11626
RM 11625
Toggle 11625
vf@@ 11625
ACE@@ 11623
possibly 11623
2048 11620
MER@@ 11620
TypeString 11617
BuiltIn@@ 11615
Tar@@ 11615
vaadin 11614
TRY 11612
mobile 11612
Voice@@ 11611
SendMessage 11610
arti@@ 11610
goal 11610
ware 11610
VirtualNetwork@@ 11609
spac@@ 11609
(%class.java_lang_Thread*)*, 11608
i8, 11608
WebSocket@@ 11607
DeleteOptions 11606
profiles 11606
%bb16NEW_LINE 11605
-2012 11605
Timed@@ 11605
sigma 11605
-15@@ 11604
embedded 11604
getService@@ 11603
Increment@@ 11602
dir_@@ 11602
HostName 11601
nullable 11599
process_@@ 11599
220@@ 11598
cation 11595
aggregate 11594
onError 11594
tenant@@ 11594
candidate@@ 11593
expired 11593
ObjectId 11591
RF@@ 11590
ü@@ 11589
16, 11585
plug 11585
cost@@ 11584
ly_@@ 11581
minus 11581
Paged@@ 11578
Modal@@ 11577
TX_@@ 11576
Cancelled 11575
Loo@@ 11574
Collect@@ 11573
consumer@@ 11572
fp_@@ 11571
Developers 11569
\x45@@ 11568
CF 11567
_91@@ 11567
MA_@@ 11565
Stick@@ 11564
ThreadLocal@@ 11564
compilation 11563
-16 11561
LOGERROR 11561
Opcode@@ 11561
Needs@@ 11559
shot 11559
\x70@@ 11558
@Polyglot_java_lang_String_equals__Ljava_lang_Object_2(%class.java_lang_String* 11557
Parcel 11555
GetPreparedStatement 11554
reser@@ 11554
%bb10NEW_LINENEW_LINEbb@@ 11552
33, 11551
setMessage 11551
RESET 11548
Pause 11547
sqlite3_@@ 11546
Like@@ 11545
TypeError 11545
STATIC 11543
316@@ 11542
Mods 11542
stereotype 11542
CRO@@ 11541
addon 11539
SPE@@ 11538
Stroke@@ 11538
Undefined 11538
100.0 11537
G_P@@ 11537
StatusInternalServerError 11537
integr@@ 11535
jdk 11535
216@@ 11534
RD 11534
picture 11533
EditPart 11531
\x41@@ 11531
collision 11530
blend@@ 11529
成@@ 11529
ream@@ 11527
Topology 11526
res_@@ 11525
Closure@@ 11523
as_ref 11520
fcx 11520
kw@@ 11520
nSize 11520
%gep5 11518
199@@ 11518
XD@@ 11518
linked@@ 11518
music 11517
999@@ 11515
}NEW_LINENEW_LINEdefine 11514
leading 11513
just@@ 11512
DEVICE 11511
taskId 11511
Physics@@ 11510
dbc 11509
port_@@ 11508
Rol@@ 11506
_46_@@ 11506
Digit 11505
[...]
